{
  "version": "1.0",
  "truncation": null,
  "padding": null,
  "added_tokens": [
    {
      "id": 0,
      "content": "<pad>",
      "single_word": false,
      "lstrip": false,
      "rstrip": false,
      "normalized": false,
      "special": true
    },
    {
      "id": 1,
      "content": "<s>",
      "single_word": false,
      "lstrip": false,
      "rstrip": false,
      "normalized": false,
      "special": true
    },
    {
      "id": 2,
      "content": "</s>",
      "single_word": false,
      "lstrip": false,
      "rstrip": false,
      "normalized": false,
      "special": true
    },
    {
      "id": 3,
      "content": "<unk>",
      "single_word": false,
      "lstrip": false,
      "rstrip": false,
      "normalized": false,
      "special": true
    },
    {
      "id": 4,
      "content": "<mask>",
      "single_word": false,
      "lstrip": false,
      "rstrip": false,
      "normalized": false,
      "special": true
    },
    {
      "id": 5,
      "content": "<sep>",
      "single_word": false,
      "lstrip": false,
      "rstrip": false,
      "normalized": false,
      "special": true
    }
  ],
  "normalizer": {
    "type": "NFKC"
  },
  "pre_tokenizer": {
    "type": "Whitespace"
  },
  "post_processor": null,
  "decoder": null,
  "model": {
    "type": "BPE",
    "dropout": null,
    "unk_token": null,
    "continuing_subword_prefix": null,
    "end_of_word_suffix": null,
    "fuse_unk": false,
    "byte_fallback": false,
    "ignore_merges": false,
    "vocab": {
      "<pad>": 0,
      "<s>": 1,
      "</s>": 2,
      "<unk>": 3,
      "<mask>": 4,
      "<sep>": 5,
      "!": 6,
      "\"": 7,
      "$": 8,
      "%": 9,
      "&": 10,
      "'": 11,
      "(": 12,
      ")": 13,
      "*": 14,
      "+": 15,
      ",": 16,
      "-": 17,
      ".": 18,
      "/": 19,
      "0": 20,
      "1": 21,
      "2": 22,
      "3": 23,
      "4": 24,
      "5": 25,
      "6": 26,
      "7": 27,
      "8": 28,
      "9": 29,
      ":": 30,
      ";": 31,
      "<": 32,
      "=": 33,
      ">": 34,
      "?": 35,
      "M": 36,
      "T": 37,
      "[": 38,
      "]": 39,
      "_": 40,
      "a": 41,
      "b": 42,
      "c": 43,
      "d": 44,
      "e": 45,
      "f": 46,
      "g": 47,
      "h": 48,
      "i": 49,
      "j": 50,
      "k": 51,
      "l": 52,
      "m": 53,
      "n": 54,
      "o": 55,
      "p": 56,
      "q": 57,
      "r": 58,
      "s": 59,
      "t": 60,
      "u": 61,
      "v": 62,
      "w": 63,
      "x": 64,
      "y": 65,
      "z": 66,
      "{": 67,
      "|": 68,
      "}": 69,
      "¡": 70,
      "£": 71,
      "¥": 72,
      "§": 73,
      "©": 74,
      "°": 75,
      "±": 76,
      "¿": 77,
      "×": 78,
      "à": 79,
      "á": 80,
      "â": 81,
      "ã": 82,
      "ä": 83,
      "å": 84,
      "æ": 85,
      "ç": 86,
      "è": 87,
      "é": 88,
      "ê": 89,
      "ë": 90,
      "ì": 91,
      "í": 92,
      "î": 93,
      "ï": 94,
      "ñ": 95,
      "ò": 96,
      "ó": 97,
      "ô": 98,
      "ö": 99,
      "÷": 100,
      "ø": 101,
      "ù": 102,
      "ú": 103,
      "û": 104,
      "ü": 105,
      "ý": 106,
      "ÿ": 107,
      "ą": 108,
      "ć": 109,
      "ĉ": 110,
      "č": 111,
      "ě": 112,
      "ĺ": 113,
      "ń": 114,
      "ņ": 115,
      "ň": 116,
      "œ": 117,
      "ř": 118,
      "ś": 119,
      "ş": 120,
      "š": 121,
      "ů": 122,
      "ŷ": 123,
      "ź": 124,
      "ž": 125,
      "́": 126,
      "α": 127,
      "β": 128,
      "γ": 129,
      "δ": 130,
      "ε": 131,
      "η": 132,
      "θ": 133,
      "λ": 134,
      "μ": 135,
      "π": 136,
      "σ": 137,
      "τ": 138,
      "υ": 139,
      "φ": 140,
      "ω": 141,
      "–": 142,
      "—": 143,
      "‘": 144,
      "’": 145,
      "•": 146,
      "′": 147,
      "⁄": 148,
      "→": 149,
      "↓": 150,
      "√": 151,
      "♭": 152,
      "♮": 153,
      "♯": 154,
      "✓": 155,
      "th": 156,
      "in": 157,
      "the": 158,
      "an": 159,
      "er": 160,
      "on": 161,
      "re": 162,
      "en": 163,
      "at": 164,
      "ed": 165,
      "is": 166,
      "or": 167,
      "ou": 168,
      "al": 169,
      "of": 170,
      "es": 171,
      "to": 172,
      "as": 173,
      "and": 174,
      "ar": 175,
      "it": 176,
      "ing": 177,
      "ic": 178,
      "st": 179,
      "le": 180,
      "ro": 181,
      "ion": 182,
      "se": 183,
      "be": 184,
      "he": 185,
      "ent": 186,
      "ch": 187,
      "ly": 188,
      "ad": 189,
      "il": 190,
      "me": 191,
      "wh": 192,
      "ve": 193,
      "ac": 194,
      "for": 195,
      "id": 196,
      "co": 197,
      "no": 198,
      "lo": 199,
      "was": 200,
      "that": 201,
      "su": 202,
      "gh": 203,
      "ter": 204,
      "ir": 205,
      "ver": 206,
      "li": 207,
      "ld": 208,
      "ay": 209,
      "so": 210,
      "ut": 211,
      "un": 212,
      "ce": 213,
      "wi": 214,
      "de": 215,
      "con": 216,
      "im": 217,
      "ab": 218,
      "po": 219,
      "am": 220,
      "with": 221,
      "ation": 222,
      "are": 223,
      "ge": 224,
      "mo": 225,
      "ct": 226,
      "ur": 227,
      "we": 228,
      "pe": 229,
      "ri": 230,
      "sh": 231,
      "ne": 232,
      "you": 233,
      "pro": 234,
      "ap": 235,
      "ke": 236,
      "ain": 237,
      "ul": 238,
      "by": 239,
      "all": 240,
      "ther": 241,
      "his": 242,
      "ere": 243,
      "ex": 244,
      "ment": 245,
      "us": 246,
      "ill": 247,
      "ts": 248,
      "ha": 249,
      "tr": 250,
      "com": 251,
      "te": 252,
      "if": 253,
      "ould": 254,
      "do": 255,
      "per": 256,
      "res": 257,
      "not": 258,
      "one": 259,
      "out": 260,
      "our": 261,
      "ho": 262,
      "fe": 263,
      "ess": 264,
      "but": 265,
      "ag": 266,
      "man": 267,
      "ght": 268,
      "had": 269,
      "oun": 270,
      "go": 271,
      "pl": 272,
      "est": 273,
      "fro": 274,
      "qu": 275,
      "ll": 276,
      "from": 277,
      "her": 278,
      "ate": 279,
      "she": 280,
      "have": 281,
      "ti": 282,
      "this": 283,
      "ich": 284,
      "ers": 285,
      "sa": 286,
      "bo": 287,
      "ard": 288,
      "they": 289,
      "wor": 290,
      "par": 291,
      "which": 292,
      "ity": 293,
      "ci": 294,
      "ant": 295,
      "wn": 296,
      "up": 297,
      "end": 298,
      "gr": 299,
      "ive": 300,
      "ust": 301,
      "19": 302,
      "fo": 303,
      ".’": 304,
      "ist": 305,
      "there": 306,
      "ind": 307,
      "were": 308,
      "ie": 309,
      "em": 310,
      "op": 311,
      "au": 312,
      "ig": 313,
      "cl": 314,
      "act": 315,
      "ies": 316,
      "pr": 317,
      "ous": 318,
      "who": 319,
      "br": 320,
      "ally": 321,
      "ast": 322,
      "od": 323,
      "some": 324,
      "ish": 325,
      "ort": 326,
      "king": 327,
      "der": 328,
      "wo": 329,
      "their": 330,
      "has": 331,
      "af": 332,
      "ear": 333,
      "um": 334,
      "can": 335,
      "ack": 336,
      "ough": 337,
      "ma": 338,
      "way": 339,
      "been": 340,
      "other": 341,
      "ide": 342,
      "ure": 343,
      "ta": 344,
      "ound": 345,
      "will": 346,
      "ty": 347,
      "would": 348,
      "now": 349,
      "able": 350,
      "ol": 351,
      "ice": 352,
      "ence": 353,
      "mar": 354,
      "ev": 355,
      "age": 356,
      "its": 357,
      "iv": 358,
      "ok": 359,
      "bl": 360,
      "ong": 361,
      "more": 362,
      "ine": 363,
      "ber": 364,
      "low": 365,
      "red": 366,
      "him": 367,
      "sp": 368,
      "ach": 369,
      "dis": 370,
      "str": 371,
      "said": 372,
      "fer": 373,
      "when": 374,
      "ions": 375,
      "any": 376,
      "ass": 377,
      "my": 378,
      "ated": 379,
      "new": 380,
      "thing": 381,
      "what": 382,
      "av": 383,
      "ted": 384,
      "si": 385,
      "pre": 386,
      "them": 387,
      "pos": 388,
      "cent": 389,
      "very": 390,
      "ting": 391,
      "ary": 392,
      "ree": 393,
      "ud": 394,
      "pres": 395,
      "el": 396,
      "ical": 397,
      "over": 398,
      "ra": 399,
      "about": 400,
      "ser": 401,
      "ance": 402,
      "ble": 403,
      "form": 404,
      "like": 405,
      "ace": 406,
      "cont": 407,
      "into": 408,
      "ck": 409,
      "comm": 410,
      "ple": 411,
      "min": 412,
      "ight": 413,
      "than": 414,
      "day": 415,
      "sel": 416,
      "year": 417,
      "inter": 418,
      "ans": 419,
      "time": 420,
      "cr": 421,
      "off": 422,
      "ire": 423,
      "..": 424,
      "port": 425,
      "could": 426,
      "part": 427,
      "ite": 428,
      "fir": 429,
      "du": 430,
      "work": 431,
      "fore": 432,
      "cre": 433,
      ",’": 434,
      "spe": 435,
      "coun": 436,
      "ca": 437,
      "ful": 438,
      "om": 439,
      "jo": 440,
      "ade": 441,
      "only": 442,
      "ip": 443,
      "lit": 444,
      "ang": 445,
      "most": 446,
      "son": 447,
      "ction": 448,
      "then": 449,
      "ater": 450,
      "land": 451,
      "gre": 452,
      "pt": 453,
      "00": 454,
      "cor": 455,
      "ren": 456,
      "ph": 457,
      "ild": 458,
      "where": 459,
      "two": 460,
      "des": 461,
      "ition": 462,
      "ign": 463,
      "may": 464,
      "cess": 465,
      "ations": 466,
      "bet": 467,
      "car": 468,
      "ved": 469,
      "don": 470,
      "ef": 471,
      "ten": 472,
      "your": 473,
      "?’": 474,
      "tur": 475,
      "after": 476,
      "air": 477,
      "self": 478,
      "first": 479,
      "well": 480,
      "cour": 481,
      "did": 482,
      "et": 483,
      "under": 484,
      "back": 485,
      "ial": 486,
      "also": 487,
      "pu": 488,
      "ious": 489,
      "int": 490,
      "igh": 491,
      "ning": 492,
      "ory": 493,
      "fl": 494,
      "just": 495,
      "ward": 496,
      "ry": 497,
      "ick": 498,
      "mon": 499,
      "these": 500,
      "ase": 501,
      "mu": 502,
      "come": 503,
      "ep": 504,
      "ces": 505,
      "sho": 506,
      "again": 507,
      "la": 508,
      "fr": 509,
      "ise": 510,
      "even": 511,
      "sy": 512,
      "fin": 513,
      "art": 514,
      "get": 515,
      "ople": 516,
      "men": 517,
      "people": 518,
      "gu": 519,
      "ile": 520,
      "bu": 521,
      "such": 522,
      "cau": 523,
      "cho": 524,
      "tain": 525,
      "thr": 526,
      "should": 527,
      "gen": 528,
      "sur": 529,
      "see": 530,
      "ink": 531,
      "dif": 532,
      "cial": 533,
      "ced": 534,
      "read": 535,
      "ped": 536,
      "je": 537,
      "ak": 538,
      "many": 539,
      "less": 540,
      "eng": 541,
      "cur": 542,
      "cer": 543,
      "ors": 544,
      "down": 545,
      "cle": 546,
      "ought": 547,
      "ving": 548,
      "know": 549,
      "long": 550,
      "comp": 551,
      "cal": 552,
      "icul": 553,
      "ia": 554,
      "vis": 555,
      "sm": 556,
      "col": 557,
      "che": 558,
      "cause": 559,
      "18": 560,
      "ms": 561,
      "ict": 562,
      "through": 563,
      "tle": 564,
      "ens": 565,
      "how": 566,
      "made": 567,
      "look": 568,
      "ments": 569,
      "ily": 570,
      "hand": 571,
      "ange": 572,
      "sub": 573,
      "led": 574,
      "mr": 575,
      "ue": 576,
      "ose": 577,
      "though": 578,
      "own": 579,
      "char": 580,
      "ob": 581,
      "wer": 582,
      "ned": 583,
      "much": 584,
      "serv": 585,
      "nor": 586,
      "need": 587,
      "gan": 588,
      "say": 589,
      "fa": 590,
      "row": 591,
      "mem": 592,
      "try": 593,
      "app": 594,
      ").": 595,
      "used": 596,
      "198": 597,
      "med": 598,
      "ual": 599,
      "main": 600,
      "inv": 601,
      "ween": 602,
      "sup": 603,
      "between": 604,
      "right": 605,
      "years": 606,
      "iz": 607,
      "ational": 608,
      "dr": 609,
      "high": 610,
      "ian": 611,
      "head": 612,
      "because": 613,
      "lect": 614,
      "reg": 615,
      "les": 616,
      "being": 617,
      "ates": 618,
      "set": 619,
      "clo": 620,
      "publ": 621,
      "ave": 622,
      "ities": 623,
      "before": 624,
      "good": 625,
      "put": 626,
      "pol": 627,
      "ied": 628,
      "ss": 629,
      "came": 630,
      "mat": 631,
      "vie": 632,
      "war": 633,
      "sto": 634,
      "mis": 635,
      "produ": 636,
      "let": 637,
      "sion": 638,
      "ath": 639,
      "fect": 640,
      "pri": 641,
      "cons": 642,
      "ative": 643,
      "stand": 644,
      "wr": 645,
      "bro": 646,
      "cond": 647,
      "ves": 648,
      "ger": 649,
      "ked": 650,
      "those": 651,
      "ouse": 652,
      "rel": 653,
      "lt": 654,
      "far": 655,
      "old": 656,
      "use": 657,
      "ating": 658,
      "brit": 659,
      "every": 660,
      "ents": 661,
      "ject": 662,
      "child": 663,
      "ds": 664,
      "hel": 665,
      "make": 666,
      "ters": 667,
      "tri": 668,
      "too": 669,
      "tal": 670,
      "house": 671,
      "yes": 672,
      "bar": 673,
      "fact": 674,
      "),": 675,
      "last": 676,
      "still": 677,
      "ship": 678,
      "gover": 679,
      "sim": 680,
      "plan": 681,
      "oc": 682,
      "stru": 683,
      "gener": 684,
      "ft": 685,
      "must": 686,
      "life": 687,
      "here": 688,
      "log": 689,
      "mer": 690,
      "sed": 691,
      "cy": 692,
      "tim": 693,
      "light": 694,
      "ins": 695,
      "lar": 696,
      "tre": 697,
      "ks": 698,
      "fam": 699,
      "want": 700,
      "pon": 701,
      "ings": 702,
      "call": 703,
      "three": 704,
      "both": 705,
      "val": 706,
      "add": 707,
      "world": 708,
      "’.": 709,
      "leg": 710,
      "velo": 711,
      "ific": 712,
      "ton": 713,
      "na": 714,
      "ps": 715,
      "...": 716,
      "bed": 717,
      "differ": 718,
      "ness": 719,
      "gg": 720,
      "seem": 721,
      "ways": 722,
      "ner": 723,
      "att": 724,
      "arch": 725,
      "take": 726,
      "govern": 727,
      "pect": 728,
      "play": 729,
      "als": 730,
      "tem": 731,
      "ident": 732,
      "develo": 733,
      "llow": 734,
      "little": 735,
      "por": 736,
      "cas": 737,
      "ited": 738,
      "dy": 739,
      "ared": 740,
      "ven": 741,
      "emp": 742,
      "dec": 743,
      "ban": 744,
      "sing": 745,
      "peri": 746,
      "room": 747,
      "bre": 748,
      "never": 749,
      "ken": 750,
      "ished": 751,
      "unt": 752,
      "national": 753,
      "present": 754,
      "grou": 755,
      "ste": 756,
      "wal": 757,
      "stud": 758,
      "might": 759,
      "bur": 760,
      "went": 761,
      "prov": 762,
      "great": 763,
      "giv": 764,
      "ility": 765,
      "gl": 766,
      "bas": 767,
      "appe": 768,
      "think": 769,
      "soci": 770,
      "while": 771,
      "howe": 772,
      "ures": 773,
      "found": 774,
      "lead": 775,
      "public": 776,
      "however": 777,
      "ys": 778,
      "place": 779,
      "ket": 780,
      "view": 781,
      "num": 782,
      "same": 783,
      "ism": 784,
      "incl": 785,
      "government": 786,
      "ably": 787,
      "arly": 788,
      "another": 789,
      "cap": 790,
      "ised": 791,
      "sure": 792,
      "und": 793,
      "small": 794,
      "ls": 795,
      "ider": 796,
      "person": 797,
      "ices": 798,
      "cus": 799,
      "ince": 800,
      "pa": 801,
      "each": 802,
      "vers": 803,
      "polit": 804,
      "organ": 805,
      "vo": 806,
      "stem": 807,
      "cri": 808,
      "thought": 809,
      "real": 810,
      "ists": 811,
      "scho": 812,
      "respon": 813,
      "ord": 814,
      "pat": 815,
      "dire": 816,
      "amer": 817,
      "cept": 818,
      "uc": 819,
      "school": 820,
      "tern": 821,
      "requ": 822,
      "ason": 823,
      "possi": 824,
      "win": 825,
      "open": 826,
      "ris": 827,
      "io": 828,
      "bus": 829,
      "uring": 830,
      "show": 831,
      "ics": 832,
      "power": 833,
      "against": 834,
      "follow": 835,
      "home": 836,
      "exam": 837,
      "den": 838,
      "water": 839,
      "dist": 840,
      "book": 841,
      "system": 842,
      "mal": 843,
      "pul": 844,
      "cul": 845,
      "sen": 846,
      "lon": 847,
      "away": 848,
      "ital": 849,
      "second": 850,
      "face": 851,
      "fur": 852,
      "course": 853,
      "appro": 854,
      "ru": 855,
      "nat": 856,
      "ross": 857,
      "’,": 858,
      "find": 859,
      "care": 860,
      "got": 861,
      "sk": 862,
      "wards": 863,
      "does": 864,
      "ution": 865,
      "local": 866,
      "ham": 867,
      "thor": 868,
      "commun": 869,
      "effect": 870,
      "proble": 871,
      "wee": 872,
      "times": 873,
      "sol": 874,
      "import": 875,
      "hal": 876,
      "ched": 877,
      "develop": 878,
      "different": 879,
      "sum": 880,
      "left": 881,
      "side": 882,
      "ress": 883,
      "hn": 884,
      "ley": 885,
      "fri": 886,
      "sco": 887,
      "prof": 888,
      "americ": 889,
      "vi": 890,
      "lim": 891,
      "loy": 892,
      "four": 893,
      "beli": 894,
      "iness": 895,
      "class": 896,
      "eu": 897,
      "16": 898,
      "contin": 899,
      "mor": 900,
      "john": 901,
      "interest": 902,
      "going": 903,
      "state": 904,
      "suc": 905,
      "particul": 906,
      "happ": 907,
      "feel": 908,
      "sal": 909,
      "ling": 910,
      "few": 911,
      "since": 912,
      "turn": 913,
      "point": 914,
      "eas": 915,
      "ided": 916,
      "consider": 917,
      "direct": 918,
      "london": 919,
      "incre": 920,
      "adv": 921,
      "large": 922,
      "wa": 923,
      "cover": 924,
      "har": 925,
      "sou": 926,
      "xt": 927,
      "ages": 928,
      "contro": 929,
      "without": 930,
      "acti": 931,
      "197": 932,
      "ot": 933,
      "aren": 934,
      "pur": 935,
      "sign": 936,
      "rather": 937,
      "hu": 938,
      "something": 939,
      "cord": 940,
      "law": 941,
      "later": 942,
      "women": 943,
      "hard": 944,
      "during": 945,
      "certain": 946,
      "order": 947,
      "social": 948,
      "hold": 949,
      "aps": 950,
      "kes": 951,
      "star": 952,
      "ext": 953,
      "minis": 954,
      "member": 955,
      "oper": 956,
      "youn": 957,
      "around": 958,
      "educ": 959,
      "000": 960,
      "aff": 961,
      "children": 962,
      "always": 963,
      "until": 964,
      "run": 965,
      "within": 966,
      "ional": 967,
      "inst": 968,
      "although": 969,
      "whe": 970,
      "night": 971,
      "writ": 972,
      "var": 973,
      "exp": 974,
      "17": 975,
      "mill": 976,
      "cut": 977,
      "comple": 978,
      "quest": 979,
      "ield": 980,
      "dep": 981,
      "15": 982,
      "aim": 983,
      "ants": 984,
      "why": 985,
      "ready": 986,
      "help": 987,
      "vel": 988,
      "won": 989,
      "sit": 990,
      "ches": 991,
      "mil": 992,
      "round": 993,
      "ties": 994,
      "ash": 995,
      "number": 996,
      "pass": 997,
      "que": 998,
      "family": 999,
      "case": 1000,
      "mi": 1001,
      "took": 1002,
      "mind": 1003,
      "augh": 1004,
      "body": 1005,
      "euro": 1006,
      "looked": 1007,
      "often": 1008,
      "kno": 1009,
      "build": 1010,
      "10": 1011,
      "ury": 1012,
      "ail": 1013,
      "lin": 1014,
      "ze": 1015,
      "resu": 1016,
      "vir": 1017,
      "british": 1018,
      "turned": 1019,
      "next": 1020,
      "ben": 1021,
      "bers": 1022,
      "maj": 1023,
      "friend": 1024,
      "once": 1025,
      "group": 1026,
      "move": 1027,
      "polic": 1028,
      "author": 1029,
      "party": 1030,
      "clear": 1031,
      "ref": 1032,
      "inform": 1033,
      "equ": 1034,
      "ga": 1035,
      "ended": 1036,
      "give": 1037,
      "vent": 1038,
      "aph": 1039,
      "cost": 1040,
      "fac": 1041,
      "lish": 1042,
      "ically": 1043,
      "uni": 1044,
      "vol": 1045,
      "includ": 1046,
      "econ": 1047,
      "mid": 1048,
      "change": 1049,
      "lab": 1050,
      "reason": 1051,
      "half": 1052,
      "rest": 1053,
      "given": 1054,
      "top": 1055,
      "possible": 1056,
      "europe": 1057,
      "tell": 1058,
      "sat": 1059,
      "ried": 1060,
      "ff": 1061,
      "major": 1062,
      "commit": 1063,
      "ub": 1064,
      "ral": 1065,
      "ually": 1066,
      "pet": 1067,
      "pay": 1068,
      "general": 1069,
      "business": 1070,
      "cam": 1071,
      "company": 1072,
      "struct": 1073,
      "chang": 1074,
      "ural": 1075,
      "things": 1076,
      "ply": 1077,
      "concer": 1078,
      "success": 1079,
      "seen": 1080,
      "bal": 1081,
      "ately": 1082,
      "bor": 1083,
      "black": 1084,
      "young": 1085,
      "plain": 1086,
      "indust": 1087,
      "himself": 1088,
      "tech": 1089,
      "month": 1090,
      "wil": 1091,
      "important": 1092,
      "blo": 1093,
      "ever": 1094,
      "ils": 1095,
      "best": 1096,
      "process": 1097,
      "position": 1098,
      "ib": 1099,
      "!’": 1100,
      "asked": 1101,
      "ither": 1102,
      "ons": 1103,
      "aw": 1104,
      "ged": 1105,
      "mus": 1106,
      "search": 1107,
      "ently": 1108,
      "white": 1109,
      "mean": 1110,
      "trans": 1111,
      "mother": 1112,
      "called": 1113,
      "di": 1114,
      "fort": 1115,
      "liam": 1116,
      "yet": 1117,
      "further": 1118,
      "door": 1119,
      "told": 1120,
      "support": 1121,
      "nothing": 1122,
      "haps": 1123,
      "expect": 1124,
      "perhaps": 1125,
      "tor": 1126,
      "country": 1127,
      "pal": 1128,
      "iled": 1129,
      "pract": 1130,
      "early": 1131,
      "taken": 1132,
      "dra": 1133,
      "almost": 1134,
      "poin": 1135,
      "mone": 1136,
      "ired": 1137,
      "thir": 1138,
      "accoun": 1139,
      "allow": 1140,
      "ici": 1141,
      "ford": 1142,
      "train": 1143,
      "employ": 1144,
      "ann": 1145,
      "dou": 1146,
      "road": 1147,
      "ground": 1148,
      "plic": 1149,
      "ele": 1150,
      "gram": 1151,
      "dri": 1152,
      "line": 1153,
      "diff": 1154,
      "fig": 1155,
      "pain": 1156,
      "dar": 1157,
      "political": 1158,
      "invol": 1159,
      "def": 1160,
      "free": 1161,
      "spect": 1162,
      "short": 1163,
      "remain": 1164,
      "gy": 1165,
      "god": 1166,
      "west": 1167,
      "keep": 1168,
      "better": 1169,
      "father": 1170,
      "ences": 1171,
      "full": 1172,
      "week": 1173,
      "12": 1174,
      "didn": 1175,
      "ars": 1176,
      "199": 1177,
      "kind": 1178,
      "toge": 1179,
      "ute": 1180,
      "wat": 1181,
      "field": 1182,
      "together": 1183,
      "action": 1184,
      "sw": 1185,
      "ened": 1186,
      "days": 1187,
      "oking": 1188,
      "teach": 1189,
      "ivid": 1190,
      "post": 1191,
      "fun": 1192,
      "became": 1193,
      "range": 1194,
      "offer": 1195,
      "elect": 1196,
      "sever": 1197,
      "ours": 1198,
      "alth": 1199,
      "prin": 1200,
      "become": 1201,
      "six": 1202,
      "roy": 1203,
      "sl": 1204,
      "known": 1205,
      "having": 1206,
      "mas": 1207,
      "vious": 1208,
      "issu": 1209,
      "big": 1210,
      "gin": 1211,
      "example": 1212,
      "0s": 1213,
      "ric": 1214,
      "already": 1215,
      "pot": 1216,
      "graph": 1217,
      "bir": 1218,
      "depend": 1219,
      "ives": 1220,
      "whether": 1221,
      "difficul": 1222,
      "met": 1223,
      "fully": 1224,
      "aged": 1225,
      "making": 1226,
      "flo": 1227,
      "grow": 1228,
      "market": 1229,
      "posed": 1230,
      "hol": 1231,
      "really": 1232,
      "saw": 1233,
      "bit": 1234,
      "eyes": 1235,
      "service": 1236,
      "felt": 1237,
      "sil": 1238,
      "tel": 1239,
      "hor": 1240,
      "sun": 1241,
      "trad": 1242,
      "design": 1243,
      "usu": 1244,
      "popul": 1245,
      "five": 1246,
      "ards": 1247,
      "wood": 1248,
      "education": 1249,
      "abo": 1250,
      "money": 1251,
      "sugg": 1252,
      "britain": 1253,
      "const": 1254,
      "sc": 1255,
      "working": 1256,
      "offic": 1257,
      "ising": 1258,
      "priv": 1259,
      "fron": 1260,
      "quite": 1261,
      "chur": 1262,
      "plac": 1263,
      "ude": 1264,
      "increas": 1265,
      "ances": 1266,
      "control": 1267,
      "towards": 1268,
      "special": 1269,
      "wel": 1270,
      "enough": 1271,
      "ides": 1272,
      "ames": 1273,
      "north": 1274,
      "ats": 1275,
      "development": 1276,
      "rad": 1277,
      "gn": 1278,
      "close": 1279,
      "ping": 1280,
      "ests": 1281,
      "tee": 1282,
      "past": 1283,
      "experi": 1284,
      "prob": 1285,
      "program": 1286,
      "selves": 1287,
      "test": 1288,
      "love": 1289,
      "pap": 1290,
      "idence": 1291,
      "rece": 1292,
      "whole": 1293,
      "mag": 1294,
      "others": 1295,
      "lot": 1296,
      "ability": 1297,
      "labour": 1298,
      "century": 1299,
      "socie": 1300,
      "reli": 1301,
      "among": 1302,
      "knew": 1303,
      "information": 1304,
      "flu": 1305,
      "police": 1306,
      "econom": 1307,
      "least": 1308,
      "cu": 1309,
      "woman": 1310,
      "argu": 1311,
      "qual": 1312,
      "thus": 1313,
      "hind": 1314,
      "city": 1315,
      "ane": 1316,
      "proper": 1317,
      "claim": 1318,
      "cir": 1319,
      "dro": 1320,
      "report": 1321,
      "mit": 1322,
      "fall": 1323,
      "del": 1324,
      "cup": 1325,
      "south": 1326,
      "estab": 1327,
      "non": 1328,
      "list": 1329,
      "ith": 1330,
      "20": 1331,
      "likely": 1332,
      "cret": 1333,
      "lu": 1334,
      "teen": 1335,
      "seemed": 1336,
      "says": 1337,
      "gard": 1338,
      "reco": 1339,
      "sent": 1340,
      "period": 1341,
      "pped": 1342,
      "counc": 1343,
      "invest": 1344,
      "continu": 1345,
      "logy": 1346,
      "held": 1347,
      "ster": 1348,
      "looking": 1349,
      "outs": 1350,
      "gir": 1351,
      "individ": 1352,
      "upon": 1353,
      "sex": 1354,
      "lear": 1355,
      "ses": 1356,
      "wall": 1357,
      "began": 1358,
      "vict": 1359,
      "ming": 1360,
      "ined": 1361,
      "coming": 1362,
      "tra": 1363,
      "descri": 1364,
      "vision": 1365,
      "dem": 1366,
      "death": 1367,
      "above": 1368,
      "deal": 1369,
      "tt": 1370,
      "50": 1371,
      "itions": 1372,
      "tic": 1373,
      "stree": 1374,
      "question": 1375,
      "along": 1376,
      "reach": 1377,
      "eve": 1378,
      "subject": 1379,
      "share": 1380,
      "strong": 1381,
      "community": 1382,
      "sci": 1383,
      "196": 1384,
      "individual": 1385,
      "area": 1386,
      "onment": 1387,
      "court": 1388,
      "ones": 1389,
      "colle": 1390,
      "ii": 1391,
      "avail": 1392,
      "mee": 1393,
      "members": 1394,
      "name": 1395,
      "done": 1396,
      "30": 1397,
      "phil": 1398,
      "lat": 1399,
      "necess": 1400,
      "ier": 1401,
      "policy": 1402,
      "pose": 1403,
      "press": 1404,
      "approach": 1405,
      "decis": 1406,
      "level": 1407,
      "exist": 1408,
      "recent": 1409,
      "church": 1410,
      "ived": 1411,
      "research": 1412,
      "bank": 1413,
      "envir": 1414,
      "manage": 1415,
      "mes": 1416,
      "fre": 1417,
      "ask": 1418,
      "across": 1419,
      "ying": 1420,
      "board": 1421,
      "ah": 1422,
      "either": 1423,
      "rich": 1424,
      "profess": 1425,
      "fil": 1426,
      "green": 1427,
      "ized": 1428,
      "cli": 1429,
      "office": 1430,
      "inde": 1431,
      "understand": 1432,
      "contr": 1433,
      "society": 1434,
      "product": 1435,
      "sense": 1436,
      "ribut": 1437,
      "associ": 1438,
      "ending": 1439,
      "rent": 1440,
      "sir": 1441,
      "themselves": 1442,
      "american": 1443,
      "aring": 1444,
      "tele": 1445,
      "behind": 1446,
      "front": 1447,
      "east": 1448,
      "england": 1449,
      "suggest": 1450,
      "jud": 1451,
      "sequ": 1452,
      "lang": 1453,
      "areas": 1454,
      "probably": 1455,
      "ws": 1456,
      ".]": 1457,
      "mrs": 1458,
      "health": 1459,
      "anything": 1460,
      "ctor": 1461,
      "tom": 1462,
      "pen": 1463,
      "tax": 1464,
      "az": 1465,
      "moder": 1466,
      "iting": 1467,
      "crit": 1468,
      "tory": 1469,
      "problems": 1470,
      "aut": 1471,
      "environment": 1472,
      "conf": 1473,
      "14": 1474,
      "lled": 1475,
      "secret": 1476,
      "div": 1477,
      "enter": 1478,
      "meeting": 1479,
      "deta": 1480,
      "available": 1481,
      "compan": 1482,
      "sound": 1483,
      "ential": 1484,
      "chair": 1485,
      "gave": 1486,
      "wife": 1487,
      "ank": 1488,
      "several": 1489,
      "hy": 1490,
      "cing": 1491,
      "shop": 1492,
      "ni": 1493,
      "itself": 1494,
      "problem": 1495,
      "using": 1496,
      "organis": 1497,
      "itch": 1498,
      "bri": 1499,
      "near": 1500,
      "particular": 1501,
      "prote": 1502,
      "english": 1503,
      "wanted": 1504,
      "means": 1505,
      "else": 1506,
      "dark": 1507,
      "moment": 1508,
      "anti": 1509,
      "cies": 1510,
      "cast": 1511,
      "ler": 1512,
      "common": 1513,
      "ison": 1514,
      "relation": 1515,
      "job": 1516,
      "soon": 1517,
      "rate": 1518,
      "activ": 1519,
      "paren": 1520,
      "tered": 1521,
      "ghts": 1522,
      "remember": 1523,
      "tion": 1524,
      "band": 1525,
      "stat": 1526,
      "depart": 1527,
      "services": 1528,
      "step": 1529,
      "staff": 1530,
      "ye": 1531,
      "simil": 1532,
      "pli": 1533,
      "personal": 1534,
      "town": 1535,
      "fut": 1536,
      "medi": 1537,
      "wide": 1538,
      "gar": 1539,
      "lling": 1540,
      "key": 1541,
      "ond": 1542,
      "regul": 1543,
      "late": 1544,
      "ju": 1545,
      "represent": 1546,
      "ency": 1547,
      "charac": 1548,
      "recogn": 1549,
      "following": 1550,
      "langu": 1551,
      "flow": 1552,
      "responsi": 1553,
      "ded": 1554,
      "ories": 1555,
      "comes": 1556,
      "human": 1557,
      "mark": 1558,
      "table": 1559,
      "food": 1560,
      "words": 1561,
      "pho": 1562,
      "ured": 1563,
      "royal": 1564,
      "ified": 1565,
      "lie": 1566,
      "vil": 1567,
      "building": 1568,
      "spir": 1569,
      "mater": 1570,
      "univers": 1571,
      "third": 1572,
      "including": 1573,
      "based": 1574,
      "cat": 1575,
      "stead": 1576,
      "discus": 1577,
      "hous": 1578,
      "bad": 1579,
      "taking": 1580,
      "cannot": 1581,
      "club": 1582,
      "orig": 1583,
      "manag": 1584,
      "word": 1585,
      "central": 1586,
      "term": 1587,
      "anal": 1588,
      "intro": 1589,
      "dav": 1590,
      "idge": 1591,
      "wind": 1592,
      "11": 1593,
      "ilt": 1594,
      "died": 1595,
      "heav": 1596,
      "tru": 1597,
      "break": 1598,
      "attem": 1599,
      "daugh": 1600,
      "force": 1601,
      "bill": 1602,
      "dam": 1603,
      "ention": 1604,
      "council": 1605,
      "ines": 1606,
      "achie": 1607,
      "idea": 1608,
      "record": 1609,
      "economic": 1610,
      "result": 1611,
      "cially": 1612,
      "moved": 1613,
      "particularly": 1614,
      "live": 1615,
      "ult": 1616,
      "arm": 1617,
      "worth": 1618,
      "street": 1619,
      "thin": 1620,
      "introdu": 1621,
      "ference": 1622,
      "lad": 1623,
      "sea": 1624,
      "ges": 1625,
      "centre": 1626,
      "spec": 1627,
      "whose": 1628,
      "fit": 1629,
      "management": 1630,
      "future": 1631,
      "union": 1632,
      "dle": 1633,
      "impro": 1634,
      "13": 1635,
      "spo": 1636,
      "ues": 1637,
      "lay": 1638,
      "modern": 1639,
      "stri": 1640,
      "object": 1641,
      "demand": 1642,
      "thre": 1643,
      "months": 1644,
      "ago": 1645,
      "itive": 1646,
      "bt": 1647,
      "sty": 1648,
      "believe": 1649,
      "ker": 1650,
      "hands": 1651,
      "garden": 1652,
      "ible": 1653,
      "start": 1654,
      "begin": 1655,
      "outside": 1656,
      "ordin": 1657,
      "feat": 1658,
      "material": 1659,
      "fair": 1660,
      "redu": 1661,
      "paper": 1662,
      "ron": 1663,
      "therefore": 1664,
      "terms": 1665,
      "heard": 1666,
      "sometimes": 1667,
      "ung": 1668,
      "shire": 1669,
      "event": 1670,
      "european": 1671,
      "chap": 1672,
      "pie": 1673,
      "pes": 1674,
      "groups": 1675,
      "finan": 1676,
      "ching": 1677,
      "appear": 1678,
      "difficult": 1679,
      "brought": 1680,
      "instit": 1681,
      "windo": 1682,
      "accord": 1683,
      "matter": 1684,
      "oh": 1685,
      "anim": 1686,
      "hall": 1687,
      "bat": 1688,
      "bert": 1689,
      "anger": 1690,
      "role": 1691,
      "exper": 1692,
      "une": 1693,
      "committee": 1694,
      "influ": 1695,
      "atic": 1696,
      "espe": 1697,
      "private": 1698,
      "uary": 1699,
      "cru": 1700,
      "ery": 1701,
      "itor": 1702,
      "account": 1703,
      "lord": 1704,
      "complete": 1705,
      "ring": 1706,
      "acy": 1707,
      "lands": 1708,
      "origin": 1709,
      "logical": 1710,
      "return": 1711,
      "cks": 1712,
      "wonder": 1713,
      "bes": 1714,
      "cro": 1715,
      "ples": 1716,
      "single": 1717,
      "conserv": 1718,
      "lost": 1719,
      "shall": 1720,
      "cked": 1721,
      "viet": 1722,
      "nature": 1723,
      "experience": 1724,
      "chris": 1725,
      "needs": 1726,
      "states": 1727,
      "princi": 1728,
      "hear": 1729,
      "character": 1730,
      "spr": 1731,
      "stay": 1732,
      "usually": 1733,
      "rain": 1734,
      "illed": 1735,
      "sche": 1736,
      "section": 1737,
      "seems": 1738,
      "leav": 1739,
      "explain": 1740,
      "provide": 1741,
      "suf": 1742,
      "international": 1743,
      "forest": 1744,
      "today": 1745,
      "cross": 1746,
      "lic": 1747,
      "avour": 1748,
      "sor": 1749,
      "squ": 1750,
      "indeed": 1751,
      "music": 1752,
      "mur": 1753,
      "ator": 1754,
      "compet": 1755,
      "active": 1756,
      "gress": 1757,
      "benef": 1758,
      "living": 1759,
      "hope": 1760,
      "quick": 1761,
      "situ": 1762,
      "ow": 1763,
      "bring": 1764,
      "serious": 1765,
      "bel": 1766,
      "history": 1767,
      "mod": 1768,
      "minister": 1769,
      "liber": 1770,
      "natural": 1771,
      "itional": 1772,
      "25": 1773,
      "inc": 1774,
      "rele": 1775,
      "dre": 1776,
      "doing": 1777,
      "similar": 1778,
      "signific": 1779,
      "arri": 1780,
      "language": 1781,
      "meth": 1782,
      "morning": 1783,
      "pict": 1784,
      "termin": 1785,
      "ained": 1786,
      "evidence": 1787,
      "joy": 1788,
      "german": 1789,
      "ceed": 1790,
      "trust": 1791,
      "leave": 1792,
      "nic": 1793,
      "gree": 1794,
      "iding": 1795,
      "respect": 1796,
      "herself": 1797,
      "ination": 1798,
      "firm": 1799,
      "mic": 1800,
      "cell": 1801,
      "deep": 1802,
      "longer": 1803,
      "195": 1804,
      "draw": 1805,
      "safe": 1806,
      "wish": 1807,
      "mber": 1808,
      "ingly": 1809,
      "united": 1810,
      "ug": 1811,
      "ret": 1812,
      "male": 1813,
      "acqu": 1814,
      "someone": 1815,
      "industry": 1816,
      "super": 1817,
      "vill": 1818,
      "training": 1819,
      "boy": 1820,
      "industri": 1821,
      "cum": 1822,
      "voice": 1823,
      "team": 1824,
      "necessary": 1825,
      "covered": 1826,
      "ina": 1827,
      "forms": 1828,
      "earli": 1829,
      "involved": 1830,
      "iling": 1831,
      "ledge": 1832,
      "higher": 1833,
      "foot": 1834,
      "fund": 1835,
      "pleas": 1836,
      "engine": 1837,
      "sym": 1838,
      "bility": 1839,
      "tly": 1840,
      "cou": 1841,
      "ny": 1842,
      "pret": 1843,
      "desp": 1844,
      "ening": 1845,
      "bot": 1846,
      "sport": 1847,
      "slow": 1848,
      "farm": 1849,
      "anne": 1850,
      "fast": 1851,
      "expected": 1852,
      "rench": 1853,
      "authority": 1854,
      "trave": 1855,
      "ively": 1856,
      "sis": 1857,
      "utes": 1858,
      "surpr": 1859,
      "tw": 1860,
      "william": 1861,
      "bey": 1862,
      "trade": 1863,
      "decl": 1864,
      "bon": 1865,
      "ox": 1866,
      "jour": 1867,
      "study": 1868,
      "poor": 1869,
      "istic": 1870,
      "true": 1871,
      "mach": 1872,
      "iday": 1873,
      "demo": 1874,
      "especially": 1875,
      "terr": 1876,
      "nine": 1877,
      "sort": 1878,
      "ilities": 1879,
      "beha": 1880,
      "mou": 1881,
      "pointed": 1882,
      "defin": 1883,
      "meas": 1884,
      "gone": 1885,
      "ball": 1886,
      "america": 1887,
      "bs": 1888,
      "resul": 1889,
      "hus": 1890,
      "answer": 1891,
      "da": 1892,
      "airs": 1893,
      "init": 1894,
      "except": 1895,
      "final": 1896,
      "sle": 1897,
      "parliam": 1898,
      "relationship": 1899,
      "amp": 1900,
      "agree": 1901,
      "capital": 1902,
      "strate": 1903,
      "quar": 1904,
      "tar": 1905,
      "blood": 1906,
      "girl": 1907,
      "built": 1908,
      "simply": 1909,
      "middle": 1910,
      "grand": 1911,
      "production": 1912,
      "chie": 1913,
      "nal": 1914,
      "bul": 1915,
      "figure": 1916,
      "fire": 1917,
      "forward": 1918,
      "194": 1919,
      "loc": 1920,
      "photo": 1921,
      "phys": 1922,
      "dden": 1923,
      "french": 1924,
      "stood": 1925,
      "programme": 1926,
      "decision": 1927,
      "born": 1928,
      "ney": 1929,
      "treat": 1930,
      "gent": 1931,
      "thern": 1932,
      "subst": 1933,
      "milit": 1934,
      "hair": 1935,
      "daughter": 1936,
      "os": 1937,
      "pan": 1938,
      "yester": 1939,
      "consu": 1940,
      "sess": 1941,
      "nam": 1942,
      "amoun": 1943,
      "trying": 1944,
      "famil": 1945,
      "regard": 1946,
      "method": 1947,
      "yesterday": 1948,
      "parents": 1949,
      "soviet": 1950,
      "dead": 1951,
      "exe": 1952,
      "changes": 1953,
      "quality": 1954,
      "rist": 1955,
      "project": 1956,
      "193": 1957,
      "prim": 1958,
      "provided": 1959,
      "ources": 1960,
      "broad": 1961,
      "ener": 1962,
      "story": 1963,
      "gold": 1964,
      "uk": 1965,
      "accept": 1966,
      "needed": 1967,
      "moun": 1968,
      "geor": 1969,
      "occas": 1970,
      "certainly": 1971,
      "financial": 1972,
      "married": 1973,
      "parliament": 1974,
      "bly": 1975,
      "suffer": 1976,
      "ran": 1977,
      "ission": 1978,
      "shed": 1979,
      "million": 1980,
      "bour": 1981,
      "current": 1982,
      "sudden": 1983,
      "dom": 1984,
      "pressed": 1985,
      "cred": 1986,
      "indic": 1987,
      "type": 1988,
      "tries": 1989,
      "ient": 1990,
      "series": 1991,
      "fle": 1992,
      "planning": 1993,
      "hours": 1994,
      "ctions": 1995,
      "behavi": 1996,
      "occur": 1997,
      "university": 1998,
      "xed": 1999,
      "nar": 2000,
      "pression": 2001,
      "leader": 2002,
      "stage": 2003,
      "brother": 2004,
      "smo": 2005,
      "wasn": 2006,
      "works": 2007,
      "kept": 2008,
      "hen": 2009,
      "chief": 2010,
      "tried": 2011,
      "chance": 2012,
      "whom": 2013,
      "obvious": 2014,
      "tin": 2015,
      "bridge": 2016,
      "makes": 2017,
      "...’": 2018,
      "everything": 2019,
      "applic": 2020,
      "easy": 2021,
      "tend": 2022,
      "kets": 2023,
      "rul": 2024,
      "letter": 2025,
      "believ": 2026,
      "cases": 2027,
      "miss": 2028,
      "lies": 2029,
      "net": 2030,
      "news": 2031,
      "hill": 2032,
      "ering": 2033,
      "suit": 2034,
      "attr": 2035,
      "die": 2036,
      "separ": 2037,
      "immedi": 2038,
      "ption": 2039,
      "behaviour": 2040,
      "ture": 2041,
      "wes": 2042,
      "contribut": 2043,
      "wrong": 2044,
      "various": 2045,
      "practice": 2046,
      "companies": 2047,
      "visit": 2048,
      "gest": 2049,
      "david": 2050,
      "imag": 2051,
      "rail": 2052,
      "laugh": 2053,
      "christ": 2054,
      "encour": 2055,
      "domin": 2056,
      "mass": 2057,
      "hon": 2058,
      "stop": 2059,
      "twent": 2060,
      "earlier": 2061,
      "former": 2062,
      "iment": 2063,
      "friends": 2064,
      "favour": 2065,
      "eli": 2066,
      "appeared": 2067,
      "cop": 2068,
      "sha": 2069,
      "hib": 2070,
      "link": 2071,
      "legal": 2072,
      "card": 2073,
      "ding": 2074,
      "ians": 2075,
      "sam": 2076,
      "charles": 2077,
      "parts": 2078,
      "attack": 2079,
      "concerned": 2080,
      "beaut": 2081,
      "pted": 2082,
      "ishing": 2083,
      "books": 2084,
      "talk": 2085,
      "mary": 2086,
      "ese": 2087,
      "brown": 2088,
      "swe": 2089,
      "ior": 2090,
      "poll": 2091,
      "price": 2092,
      "knowledge": 2093,
      "icip": 2094,
      "cher": 2095,
      "atives": 2096,
      "phone": 2097,
      "getting": 2098,
      "greater": 2099,
      "official": 2100,
      "jan": 2101,
      "sof": 2102,
      "cise": 2103,
      "lished": 2104,
      "note": 2105,
      "liver": 2106,
      "independ": 2107,
      "civil": 2108,
      "ously": 2109,
      "vert": 2110,
      "rose": 2111,
      "secretary": 2112,
      "hur": 2113,
      "fif": 2114,
      "speak": 2115,
      "style": 2116,
      "according": 2117,
      "previous": 2118,
      "cold": 2119,
      "anced": 2120,
      "glass": 2121,
      "mouth": 2122,
      "nu": 2123,
      "department": 2124,
      "movement": 2125,
      "required": 2126,
      "pool": 2127,
      "scre": 2128,
      "yor": 2129,
      "opport": 2130,
      "bab": 2131,
      "fi": 2132,
      "hosp": 2133,
      "issue": 2134,
      "specific": 2135,
      "secur": 2136,
      "alone": 2137,
      "coll": 2138,
      "added": 2139,
      "paid": 2140,
      "decided": 2141,
      "chapter": 2142,
      "clearly": 2143,
      "ky": 2144,
      "tou": 2145,
      "standing": 2146,
      "opportun": 2147,
      "mir": 2148,
      "plant": 2149,
      "sell": 2150,
      "heart": 2151,
      "followed": 2152,
      "ports": 2153,
      "popular": 2154,
      "comb": 2155,
      "value": 2156,
      "constit": 2157,
      "loss": 2158,
      "ba": 2159,
      "ging": 2160,
      "published": 2161,
      "despite": 2162,
      "rid": 2163,
      "emer": 2164,
      "produced": 2165,
      "grad": 2166,
      "40": 2167,
      "president": 2168,
      "lower": 2169,
      "lines": 2170,
      "lying": 2171,
      "antly": 2172,
      "rus": 2173,
      "schools": 2174,
      "increase": 2175,
      "inside": 2176,
      "tro": 2177,
      "floor": 2178,
      "instead": 2179,
      "countries": 2180,
      "started": 2181,
      "corpor": 2182,
      "clean": 2183,
      "ony": 2184,
      "ization": 2185,
      "lor": 2186,
      "collect": 2187,
      "placed": 2188,
      "gro": 2189,
      "commission": 2190,
      "forman": 2191,
      "aware": 2192,
      "below": 2193,
      "carry": 2194,
      "rup": 2195,
      "foreign": 2196,
      "stra": 2197,
      "tained": 2198,
      "minutes": 2199,
      "iss": 2200,
      "concern": 2201,
      "stone": 2202,
      "eight": 2203,
      "costs": 2204,
      "dies": 2205,
      "unch": 2206,
      "iff": 2207,
      "formed": 2208,
      "gun": 2209,
      "box": 2210,
      "husband": 2211,
      "deb": 2212,
      "roman": 2213,
      "surv": 2214,
      "threat": 2215,
      "usion": 2216,
      "sold": 2217,
      "established": 2218,
      "vels": 2219,
      "seven": 2220,
      "agr": 2221,
      "leading": 2222,
      "industrial": 2223,
      "charge": 2224,
      "pattern": 2225,
      "feet": 2226,
      "hab": 2227,
      "spirit": 2228,
      "ises": 2229,
      "hit": 2230,
      "gust": 2231,
      "thom": 2232,
      "uses": 2233,
      "prep": 2234,
      "viol": 2235,
      "192": 2236,
      "bran": 2237,
      "require": 2238,
      "refer": 2239,
      "buy": 2240,
      "fine": 2241,
      "page": 2242,
      "conditions": 2243,
      "tour": 2244,
      "dut": 2245,
      "omy": 2246,
      "bio": 2247,
      "fing": 2248,
      "ale": 2249,
      "explo": 2250,
      "bow": 2251,
      "tran": 2252,
      "ival": 2253,
      "received": 2254,
      "san": 2255,
      "performan": 2256,
      "democr": 2257,
      "bis": 2258,
      "arily": 2259,
      "gas": 2260,
      "intel": 2261,
      "earth": 2262,
      "rates": 2263,
      "park": 2264,
      "establish": 2265,
      "military": 2266,
      "path": 2267,
      "geo": 2268,
      "anyone": 2269,
      "bud": 2270,
      "doubt": 2271,
      "sand": 2272,
      "ather": 2273,
      "worked": 2274,
      "inner": 2275,
      "evening": 2276,
      "apart": 2277,
      "attention": 2278,
      "extra": 2279,
      "scot": 2280,
      "scal": 2281,
      "total": 2282,
      "summer": 2283,
      "mist": 2284,
      "wash": 2285,
      "determin": 2286,
      "mad": 2287,
      "enjoy": 2288,
      "writing": 2289,
      "exer": 2290,
      "peace": 2291,
      "aft": 2292,
      "march": 2293,
      "everyone": 2294,
      "changed": 2295,
      "horse": 2296,
      "include": 2297,
      "window": 2298,
      "oud": 2299,
      "contain": 2300,
      "pick": 2301,
      "concl": 2302,
      "continued": 2303,
      "wise": 2304,
      "ene": 2305,
      "beat": 2306,
      "served": 2307,
      "pas": 2308,
      "paign": 2309,
      "mere": 2310,
      "meet": 2311,
      "satis": 2312,
      "aver": 2313,
      "campaign": 2314,
      "bell": 2315,
      "ids": 2316,
      "written": 2317,
      "bb": 2318,
      "blue": 2319,
      "space": 2320,
      "energy": 2321,
      "lack": 2322,
      "acc": 2323,
      "authorities": 2324,
      "ature": 2325,
      "colour": 2326,
      "plants": 2327,
      "cted": 2328,
      "’(": 2329,
      "avo": 2330,
      "occup": 2331,
      "assist": 2332,
      "theory": 2333,
      "flat": 2334,
      "beyond": 2335,
      "scient": 2336,
      "york": 2337,
      "thinking": 2338,
      "fell": 2339,
      "slight": 2340,
      "species": 2341,
      "feeling": 2342,
      "apan": 2343,
      "exc": 2344,
      "mac": 2345,
      "apr": 2346,
      "wales": 2347,
      "opened": 2348,
      "aust": 2349,
      "aries": 2350,
      "james": 2351,
      "grant": 2352,
      "couldn": 2353,
      "population": 2354,
      "tive": 2355,
      "christi": 2356,
      "property": 2357,
      "relative": 2358,
      "dog": 2359,
      "conne": 2360,
      "iful": 2361,
      "pack": 2362,
      "vin": 2363,
      "played": 2364,
      "iction": 2365,
      "assess": 2366,
      "points": 2367,
      "ators": 2368,
      "simple": 2369,
      "60": 2370,
      "reached": 2371,
      "iety": 2372,
      "size": 2373,
      "george": 2374,
      "developed": 2375,
      "germany": 2376,
      "advant": 2377,
      "described": 2378,
      "students": 2379,
      "fear": 2380,
      "teenth": 2381,
      "reflect": 2382,
      "situation": 2383,
      "fight": 2384,
      "rang": 2385,
      "japan": 2386,
      "oured": 2387,
      "affect": 2388,
      "structure": 2389,
      "rap": 2390,
      "distin": 2391,
      "systems": 2392,
      "stren": 2393,
      "ensive": 2394,
      "hun": 2395,
      "trou": 2396,
      "manu": 2397,
      "reading": 2398,
      "happy": 2399,
      "eye": 2400,
      "considered": 2401,
      "ners": 2402,
      "review": 2403,
      "peter": 2404,
      "techno": 2405,
      "access": 2406,
      "basis": 2407,
      "acce": 2408,
      "ague": 2409,
      "courses": 2410,
      "shar": 2411,
      "extre": 2412,
      "fail": 2413,
      "beginning": 2414,
      "189": 2415,
      "appropri": 2416,
      "security": 2417,
      "mess": 2418,
      "carried": 2419,
      "reed": 2420,
      "demon": 2421,
      "spent": 2422,
      "master": 2423,
      "wers": 2424,
      "throughout": 2425,
      "giving": 2426,
      "aking": 2427,
      "altern": 2428,
      "adminis": 2429,
      "straight": 2430,
      "ends": 2431,
      "crim": 2432,
      "director": 2433,
      "lives": 2434,
      "ining": 2435,
      "vey": 2436,
      "apped": 2437,
      "frequ": 2438,
      "acts": 2439,
      "hotel": 2440,
      "produce": 2441,
      "amount": 2442,
      "choice": 2443,
      "dram": 2444,
      "allowed": 2445,
      "happened": 2446,
      "running": 2447,
      "questions": 2448,
      "quie": 2449,
      "myself": 2450,
      "scotland": 2451,
      "wro": 2452,
      "holiday": 2453,
      "professional": 2454,
      "bled": 2455,
      "growth": 2456,
      "sens": 2457,
      "workers": 2458,
      "analys": 2459,
      "tens": 2460,
      "rights": 2461,
      "stock": 2462,
      "shown": 2463,
      "employment": 2464,
      "sexual": 2465,
      "performance": 2466,
      "scott": 2467,
      "gal": 2468,
      "tit": 2469,
      "saying": 2470,
      "leng": 2471,
      "ata": 2472,
      "france": 2473,
      "returned": 2474,
      "rooms": 2475,
      "wrote": 2476,
      "june": 2477,
      "icient": 2478,
      "streng": 2479,
      "stu": 2480,
      "western": 2481,
      "oil": 2482,
      "houses": 2483,
      "finally": 2484,
      "manager": 2485,
      "1989": 2486,
      "suff": 2487,
      "ize": 2488,
      "cash": 2489,
      "ec": 2490,
      "actually": 2491,
      "election": 2492,
      "suddenly": 2493,
      "isation": 2494,
      "190": 2495,
      "distr": 2496,
      "chem": 2497,
      "relig": 2498,
      "season": 2499,
      "condu": 2500,
      "twenty": 2501,
      "danger": 2502,
      "closed": 2503,
      "atory": 2504,
      "turning": 2505,
      "ify": 2506,
      "arrange": 2507,
      "complex": 2508,
      "entire": 2509,
      "base": 2510,
      "promo": 2511,
      "successful": 2512,
      "issues": 2513,
      "influence": 2514,
      "due": 2515,
      "standard": 2516,
      "weeks": 2517,
      "college": 2518,
      "april": 2519,
      "manufact": 2520,
      "surface": 2521,
      "nes": 2522,
      "concent": 2523,
      "normal": 2524,
      "van": 2525,
      "comfort": 2526,
      "respond": 2527,
      "recently": 2528,
      "pup": 2529,
      "station": 2530,
      "propos": 2531,
      "hum": 2532,
      "lan": 2533,
      "results": 2534,
      "ament": 2535,
      "original": 2536,
      "mort": 2537,
      "cab": 2538,
      "piece": 2539,
      "glo": 2540,
      "wed": 2541,
      "contact": 2542,
      "apparen": 2543,
      "quickly": 2544,
      "length": 2545,
      "hund": 2546,
      "rac": 2547,
      "scr": 2548,
      "bound": 2549,
      "ium": 2550,
      "operation": 2551,
      "improve": 2552,
      "scheme": 2553,
      "hundred": 2554,
      "exact": 2555,
      "organisation": 2556,
      "restr": 2557,
      "24": 2558,
      "model": 2559,
      "ased": 2560,
      "wouldn": 2561,
      "weight": 2562,
      "association": 2563,
      "kill": 2564,
      "pic": 2565,
      "date": 2566,
      "chall": 2567,
      "lig": 2568,
      "fran": 2569,
      "game": 2570,
      "asse": 2571,
      "riage": 2572,
      "za": 2573,
      "sch": 2574,
      "pressure": 2575,
      "richard": 2576,
      "100": 2577,
      "continue": 2578,
      "hospital": 2579,
      "emphas": 2580,
      "learn": 2581,
      "sn": 2582,
      "offered": 2583,
      "interests": 2584,
      "circum": 2585,
      "hour": 2586,
      "response": 2587,
      "traditional": 2588,
      "increased": 2589,
      "physical": 2590,
      "levels": 2591,
      "wait": 2592,
      "administr": 2593,
      "afric": 2594,
      "fu": 2595,
      "sec": 2596,
      "pi": 2597,
      "liter": 2598,
      "octo": 2599,
      "film": 2600,
      "attempt": 2601,
      "prevent": 2602,
      "ae": 2603,
      "mb": 2604,
      "pers": 2605,
      "agreed": 2606,
      "dece": 2607,
      "please": 2608,
      "tural": 2609,
      "limited": 2610,
      "smith": 2611,
      "teachers": 2612,
      "thro": 2613,
      "clim": 2614,
      "fee": 2615,
      "ideas": 2616,
      "mc": 2617,
      "appointed": 2618,
      "consequ": 2619,
      "ables": 2620,
      "perfect": 2621,
      "trees": 2622,
      "bury": 2623,
      "october": 2624,
      "usual": 2625,
      "progress": 2626,
      "fed": 2627,
      "lied": 2628,
      "ressed": 2629,
      "gor": 2630,
      "village": 2631,
      "isl": 2632,
      "brief": 2633,
      "analysis": 2634,
      "kin": 2635,
      "ification": 2636,
      "waiting": 2637,
      "plied": 2638,
      "forced": 2639,
      "extreme": 2640,
      "none": 2641,
      "assu": 2642,
      "generally": 2643,
      "miles": 2644,
      "1990": 2645,
      "activities": 2646,
      "pred": 2647,
      "adop": 2648,
      "arms": 2649,
      "passed": 2650,
      "ake": 2651,
      "ered": 2652,
      "itect": 2653,
      "cape": 2654,
      "sales": 2655,
      "philip": 2656,
      "significant": 2657,
      "context": 2658,
      "architect": 2659,
      "scar": 2660,
      "histor": 2661,
      "ills": 2662,
      "walk": 2663,
      "whate": 2664,
      "whatever": 2665,
      "utions": 2666,
      "commer": 2667,
      "dan": 2668,
      "compu": 2669,
      "hop": 2670,
      "1988": 2671,
      "tempor": 2672,
      "rise": 2673,
      "edward": 2674,
      "ump": 2675,
      "picture": 2676,
      "reve": 2677,
      "mitted": 2678,
      "revol": 2679,
      "iron": 2680,
      "initi": 2681,
      "gri": 2682,
      "icle": 2683,
      "lived": 2684,
      "science": 2685,
      "techni": 2686,
      "chemical": 2687,
      "equip": 2688,
      "cit": 2689,
      "achieve": 2690,
      "bac": 2691,
      "stre": 2692,
      "mention": 2693,
      "russi": 2694,
      "hot": 2695,
      "birth": 2696,
      "places": 2697,
      "defence": 2698,
      "beautiful": 2699,
      "doesn": 2700,
      "income": 2701,
      "tail": 2702,
      "takes": 2703,
      "nearly": 2704,
      "heavy": 2705,
      "bi": 2706,
      "verse": 2707,
      "mission": 2708,
      "moving": 2709,
      "included": 2710,
      "credit": 2711,
      "imp": 2712,
      "edge": 2713,
      "repe": 2714,
      "warm": 2715,
      "enced": 2716,
      "radio": 2717,
      "responsible": 2718,
      "appropriate": 2719,
      "fish": 2720,
      "showed": 2721,
      "potential": 2722,
      "jack": 2723,
      "thomas": 2724,
      "eld": 2725,
      "max": 2726,
      "photograph": 2727,
      "188": 2728,
      "television": 2729,
      "ordinary": 2730,
      "considerable": 2731,
      "chairman": 2732,
      "bright": 2733,
      "advice": 2734,
      "rect": 2735,
      "meant": 2736,
      "write": 2737,
      "attit": 2738,
      "execut": 2739,
      "dev": 2740,
      "preci": 2741,
      "hood": 2742,
      "aud": 2743,
      "ource": 2744,
      "leaving": 2745,
      "designed": 2746,
      "pts": 2747,
      "wit": 2748,
      "weak": 2749,
      "ireland": 2750,
      "surance": 2751,
      "ension": 2752,
      "lady": 2753,
      "eds": 2754,
      "prom": 2755,
      "dry": 2756,
      "prison": 2757,
      "iced": 2758,
      "aspect": 2759,
      "sitting": 2760,
      "zz": 2761,
      "northern": 2762,
      "growing": 2763,
      "champ": 2764,
      "consci": 2765,
      "gall": 2766,
      "instru": 2767,
      ".)": 2768,
      "ancy": 2769,
      "painting": 2770,
      "activity": 2771,
      "figures": 2772,
      "acted": 2773,
      "prepared": 2774,
      "proport": 2775,
      "regis": 2776,
      "gain": 2777,
      "187": 2778,
      "sleep": 2779,
      "kitch": 2780,
      "sight": 2781,
      "plans": 2782,
      "astic": 2783,
      "divis": 2784,
      "eff": 2785,
      "subs": 2786,
      "advis": 2787,
      "conference": 2788,
      "easily": 2789,
      "announ": 2790,
      "oxford": 2791,
      "robert": 2792,
      "effective": 2793,
      "excl": 2794,
      "suggested": 2795,
      "wild": 2796,
      "river": 2797,
      "raised": 2798,
      "stopped": 2799,
      "22": 2800,
      "counter": 2801,
      "paris": 2802,
      "matic": 2803,
      "henry": 2804,
      "chan": 2805,
      "docu": 2806,
      "august": 2807,
      "pun": 2808,
      "phy": 2809,
      "drug": 2810,
      "remained": 2811,
      "watch": 2812,
      "baby": 2813,
      "ease": 2814,
      "details": 2815,
      "ame": 2816,
      "events": 2817,
      "nit": 2818,
      "image": 2819,
      "types": 2820,
      "christian": 2821,
      "looks": 2822,
      "condition": 2823,
      "shows": 2824,
      "isn": 2825,
      "lif": 2826,
      "appeal": 2827,
      "reasons": 2828,
      "winter": 2829,
      "host": 2830,
      "ustr": 2831,
      "prime": 2832,
      "eness": 2833,
      "purpose": 2834,
      "tas": 2835,
      "spl": 2836,
      "prefer": 2837,
      "walked": 2838,
      "dor": 2839,
      "reform": 2840,
      "products": 2841,
      "mul": 2842,
      "particip": 2843,
      "thous": 2844,
      "drink": 2845,
      "army": 2846,
      "rock": 2847,
      "vic": 2848,
      "lf": 2849,
      "text": 2850,
      "opin": 2851,
      "victor": 2852,
      "nice": 2853,
      "swi": 2854,
      "provision": 2855,
      "created": 2856,
      "queen": 2857,
      "resources": 2858,
      "actions": 2859,
      "spring": 2860,
      "sli": 2861,
      "unit": 2862,
      "risk": 2863,
      "ns": 2864,
      "cot": 2865,
      "novel": 2866,
      "prior": 2867,
      "immediately": 2868,
      "concept": 2869,
      "views": 2870,
      "dream": 2871,
      "21": 2872,
      "emo": 2873,
      "studies": 2874,
      "economy": 2875,
      "environmental": 2876,
      "poly": 2877,
      "wing": 2878,
      "gets": 2879,
      "notice": 2880,
      "custo": 2881,
      "standards": 2882,
      "scale": 2883,
      "grey": 2884,
      "investig": 2885,
      "ald": 2886,
      "politics": 2887,
      "kitchen": 2888,
      "occasion": 2889,
      "majority": 2890,
      "communic": 2891,
      "investment": 2892,
      "mental": 2893,
      "fresh": 2894,
      "hardly": 2895,
      "wick": 2896,
      "murder": 2897,
      "circumst": 2898,
      "ots": 2899,
      "psy": 2900,
      "talking": 2901,
      "fortun": 2902,
      "drawn": 2903,
      "ensure": 2904,
      "culture": 2905,
      "bing": 2906,
      "version": 2907,
      "basic": 2908,
      "importance": 2909,
      "degree": 2910,
      "double": 2911,
      "function": 2912,
      "mode": 2913,
      "unless": 2914,
      "consist": 2915,
      "thousand": 2916,
      "solution": 2917,
      "rare": 2918,
      "teacher": 2919,
      "nod": 2920,
      "variety": 2921,
      "couple": 2922,
      "learning": 2923,
      "technology": 2924,
      "july": 2925,
      "playing": 2926,
      "eventually": 2927,
      "nation": 2928,
      "fat": 2929,
      "thes": 2930,
      "itation": 2931,
      "temper": 2932,
      "bag": 2933,
      "crow": 2934,
      "promis": 2935,
      "forces": 2936,
      "shad": 2937,
      "animals": 2938,
      "bath": 2939,
      "cking": 2940,
      "arrived": 2941,
      "believed": 2942,
      "paul": 2943,
      "transport": 2944,
      "january": 2945,
      "dest": 2946,
      "effects": 2947,
      "27": 2948,
      "parties": 2949,
      "independent": 2950,
      "ero": 2951,
      "exhib": 2952,
      "deser": 2953,
      "numbers": 2954,
      "balance": 2955,
      "dim": 2956,
      "letters": 2957,
      "marriage": 2958,
      "average": 2959,
      "eat": 2960,
      "useful": 2961,
      "syn": 2962,
      "techn": 2963,
      "song": 2964,
      "prices": 2965,
      "truth": 2966,
      "doctor": 2967,
      "nuclear": 2968,
      "alternative": 2969,
      "goes": 2970,
      "responsibility": 2971,
      "stor": 2972,
      "confl": 2973,
      "track": 2974,
      "direction": 2975,
      "conservative": 2976,
      "28": 2977,
      "proced": 2978,
      "23": 2979,
      "evol": 2980,
      "cand": 2981,
      "fas": 2982,
      "possess": 2983,
      "highly": 2984,
      "application": 2985,
      "sep": 2986,
      "acad": 2987,
      "faith": 2988,
      "gate": 2989,
      "ques": 2990,
      "square": 2991,
      "wy": 2992,
      "distribut": 2993,
      "chester": 2994,
      "transfer": 2995,
      "advert": 2996,
      "holding": 2997,
      "wheel": 2998,
      "remains": 2999,
      "sons": 3000,
      "exactly": 3001,
      "recomm": 3002,
      "1987": 3003,
      "fra": 3004,
      "tu": 3005,
      "demonstr": 3006,
      "girls": 3007,
      "lph": 3008,
      "setting": 3009,
      "addition": 3010,
      "families": 3011,
      "ology": 3012,
      "task": 3013,
      "noon": 3014,
      "understanding": 3015,
      "regular": 3016,
      "circumstances": 3017,
      "beth": 3018,
      "lights": 3019,
      "zed": 3020,
      "comment": 3021,
      "slightly": 3022,
      "tains": 3023,
      "supply": 3024,
      "yourself": 3025,
      "purch": 3026,
      "opportunity": 3027,
      "ech": 3028,
      "ror": 3029,
      "yel": 3030,
      "fash": 3031,
      "sector": 3032,
      "critic": 3033,
      "strength": 3034,
      "ays": 3035,
      "ries": 3036,
      "protest": 3037,
      "tember": 3038,
      "academ": 3039,
      "gare": 3040,
      "ington": 3041,
      "rob": 3042,
      "sphere": 3043,
      "coast": 3044,
      "terri": 3045,
      "aging": 3046,
      "dear": 3047,
      "constru": 3048,
      "marked": 3049,
      "complain": 3050,
      "protect": 3051,
      "oso": 3052,
      "pp": 3053,
      "substanti": 3054,
      "aid": 3055,
      "imum": 3056,
      "failed": 3057,
      "medical": 3058,
      "pin": 3059,
      "amb": 3060,
      "habit": 3061,
      "september": 3062,
      "convent": 3063,
      "neigh": 3064,
      "auto": 3065,
      "housing": 3066,
      "nove": 3067,
      "essential": 3068,
      "subsequ": 3069,
      "suppose": 3070,
      "plement": 3071,
      "strugg": 3072,
      "drive": 3073,
      "isra": 3074,
      "minor": 3075,
      "teaching": 3076,
      "existing": 3077,
      "ahead": 3078,
      "commercial": 3079,
      "dete": 3080,
      "neg": 3081,
      "county": 3082,
      "huge": 3083,
      "nur": 3084,
      "rapid": 3085,
      "estim": 3086,
      "meaning": 3087,
      "latter": 3088,
      "jac": 3089,
      "aded": 3090,
      "extent": 3091,
      "owner": 3092,
      "relev": 3093,
      "rules": 3094,
      "trouble": 3095,
      "presence": 3096,
      "1986": 3097,
      "smiled": 3098,
      "computer": 3099,
      "november": 3100,
      "han": 3101,
      "ires": 3102,
      "tes": 3103,
      "reser": 3104,
      "vation": 3105,
      "female": 3106,
      "bling": 3107,
      "policies": 3108,
      "match": 3109,
      "accom": 3110,
      "ems": 3111,
      "scottish": 3112,
      "roll": 3113,
      "select": 3114,
      "proceed": 3115,
      "gives": 3116,
      "avoid": 3117,
      "caused": 3118,
      "theless": 3119,
      "skin": 3120,
      "vari": 3121,
      "annual": 3122,
      "reveal": 3123,
      "ax": 3124,
      "moral": 3125,
      "slowly": 3126,
      "susp": 3127,
      "career": 3128,
      "data": 3129,
      "tun": 3130,
      "formal": 3131,
      "cry": 3132,
      "mut": 3133,
      "sar": 3134,
      "slo": 3135,
      "related": 3136,
      "steps": 3137,
      "coal": 3138,
      "appoint": 3139,
      "join": 3140,
      "caught": 3141,
      "command": 3142,
      "difference": 3143,
      "typ": 3144,
      "strange": 3145,
      "joined": 3146,
      "december": 3147,
      "interested": 3148,
      "claimed": 3149,
      "fashion": 3150,
      "judge": 3151,
      "smile": 3152,
      "stairs": 3153,
      "urban": 3154,
      "neither": 3155,
      "bru": 3156,
      "nel": 3157,
      "district": 3158,
      "mechan": 3159,
      "competition": 3160,
      "advantage": 3161,
      "inte": 3162,
      "helped": 3163,
      "oth": 3164,
      "belief": 3165,
      "mum": 3166,
      "shif": 3167,
      "hael": 3168,
      "shares": 3169,
      "separate": 3170,
      "famous": 3171,
      "26": 3172,
      "cha": 3173,
      "inj": 3174,
      "fare": 3175,
      "island": 3176,
      "guard": 3177,
      ".],": 3178,
      "site": 3179,
      "defend": 3180,
      "freed": 3181,
      "sad": 3182,
      "shot": 3183,
      "cath": 3184,
      "afternoon": 3185,
      "introduced": 3186,
      "austral": 3187,
      "wid": 3188,
      "merely": 3189,
      "equipment": 3190,
      "protection": 3191,
      "largely": 3192,
      "benefit": 3193,
      "cm": 3194,
      "becoming": 3195,
      "speed": 3196,
      "clothes": 3197,
      "philoso": 3198,
      "achieved": 3199,
      "stim": 3200,
      "quir": 3201,
      "legisl": 3202,
      "correct": 3203,
      "accepted": 3204,
      "gul": 3205,
      "senior": 3206,
      "ko": 3207,
      "compar": 3208,
      "plus": 3209,
      "maybe": 3210,
      "relations": 3211,
      "construction": 3212,
      "increasing": 3213,
      "powers": 3214,
      "revolution": 3215,
      "atmo": 3216,
      "partner": 3217,
      "race": 3218,
      "dia": 3219,
      "resist": 3220,
      "marke": 3221,
      "create": 3222,
      "frank": 3223,
      "reported": 3224,
      "concentr": 3225,
      "stick": 3226,
      "survey": 3227,
      "rule": 3228,
      "tree": 3229,
      "reports": 3230,
      "clar": 3231,
      "facilities": 3232,
      "theat": 3233,
      "larger": 3234,
      "student": 3235,
      "castle": 3236,
      "ram": 3237,
      "railway": 3238,
      "ites": 3239,
      "minute": 3240,
      "ali": 3241,
      "finished": 3242,
      "presented": 3243,
      "narrow": 3244,
      "buildings": 3245,
      "stream": 3246,
      "integr": 3247,
      "rou": 3248,
      "virt": 3249,
      "burgh": 3250,
      "appears": 3251,
      "accounts": 3252,
      "experiment": 3253,
      "unders": 3254,
      "audi": 3255,
      "existence": 3256,
      "cook": 3257,
      "employed": 3258,
      "safety": 3259,
      "measure": 3260,
      "primary": 3261,
      "mun": 3262,
      "fellow": 3263,
      "telephone": 3264,
      ");": 3265,
      "seat": 3266,
      "valu": 3267,
      "fields": 3268,
      "oz": 3269,
      "iar": 3270,
      "matters": 3271,
      "powerful": 3272,
      "involve": 3273,
      "anx": 3274,
      "mel": 3275,
      "older": 3276,
      "interesting": 3277,
      "estic": 3278,
      "officer": 3279,
      "features": 3280,
      "journal": 3281,
      "methods": 3282,
      "90": 3283,
      "iles": 3284,
      "raid": 3285,
      "corner": 3286,
      "186": 3287,
      "muse": 3288,
      "1985": 3289,
      "factors": 3290,
      "leaders": 3291,
      "tea": 3292,
      "justice": 3293,
      "1991": 3294,
      "contract": 3295,
      "udes": 3296,
      "500": 3297,
      "bodies": 3298,
      "fru": 3299,
      "spot": 3300,
      "ira": 3301,
      "animal": 3302,
      "soil": 3303,
      "glas": 3304,
      "directly": 3305,
      "collection": 3306,
      "michael": 3307,
      "opinion": 3308,
      "bought": 3309,
      "liberal": 3310,
      "cin": 3311,
      "spap": 3312,
      "newspap": 3313,
      "bishop": 3314,
      "mp": 3315,
      "completely": 3316,
      "touch": 3317,
      "insurance": 3318,
      "feed": 3319,
      "hang": 3320,
      "notes": 3321,
      "anyway": 3322,
      "content": 3323,
      "guide": 3324,
      "custom": 3325,
      "pulled": 3326,
      "happen": 3327,
      "exercise": 3328,
      "aint": 3329,
      "disci": 3330,
      "treatment": 3331,
      "distinct": 3332,
      "dip": 3333,
      "tering": 3334,
      "scientific": 3335,
      "bid": 3336,
      "banks": 3337,
      "names": 3338,
      "grass": 3339,
      "focus": 3340,
      "phen": 3341,
      "sister": 3342,
      "libr": 3343,
      "surround": 3344,
      "broken": 3345,
      "bottom": 3346,
      "religious": 3347,
      "check": 3348,
      "agreement": 3349,
      "eth": 3350,
      "oned": 3351,
      "proportion": 3352,
      "cof": 3353,
      "wis": 3354,
      "bear": 3355,
      "tight": 3356,
      "memory": 3357,
      "explained": 3358,
      "agricul": 3359,
      "icted": 3360,
      "strateg": 3361,
      "nego": 3362,
      "ular": 3363,
      "otherwise": 3364,
      "aves": 3365,
      "desk": 3366,
      "regional": 3367,
      "crimin": 3368,
      "negoti": 3369,
      "proved": 3370,
      "rat": 3371,
      "inno": 3372,
      "rev": 3373,
      "itable": 3374,
      "conce": 3375,
      "skills": 3376,
      "contrast": 3377,
      "send": 3378,
      "remark": 3379,
      "assum": 3380,
      "maintain": 3381,
      "thick": 3382,
      "region": 3383,
      "travel": 3384,
      "museum": 3385,
      "construct": 3386,
      "hat": 3387,
      "rum": 3388,
      "febr": 3389,
      "consult": 3390,
      "february": 3391,
      "reti": 3392,
      "fol": 3393,
      "leaves": 3394,
      "obviously": 3395,
      "80": 3396,
      "source": 3397,
      "becomes": 3398,
      "frame": 3399,
      "apt": 3400,
      "spread": 3401,
      "temporary": 3402,
      "argument": 3403,
      "relatively": 3404,
      "discussion": 3405,
      "impact": 3406,
      "umn": 3407,
      "count": 3408,
      "battle": 3409,
      "solute": 3410,
      "opening": 3411,
      "employe": 3412,
      "pit": 3413,
      "icles": 3414,
      "sunday": 3415,
      "shape": 3416,
      "pair": 3417,
      "sett": 3418,
      "abs": 3419,
      "compared": 3420,
      "solid": 3421,
      "graphy": 3422,
      "atta": 3423,
      "lection": 3424,
      "distance": 3425,
      "luck": 3426,
      "fill": 3427,
      "norm": 3428,
      "practical": 3429,
      "hes": 3430,
      "motor": 3431,
      "185": 3432,
      "regarded": 3433,
      "ideal": 3434,
      "iously": 3435,
      ".,": 3436,
      "gi": 3437,
      "wants": 3438,
      "oppos": 3439,
      "shops": 3440,
      "soft": 3441,
      "200": 3442,
      "rural": 3443,
      "settle": 3444,
      "eastern": 3445,
      "gue": 3446,
      "vote": 3447,
      "sky": 3448,
      "managed": 3449,
      "pati": 3450,
      "conduct": 3451,
      "freedom": 3452,
      "drop": 3453,
      "pupils": 3454,
      "coffee": 3455,
      "proposed": 3456,
      "faces": 3457,
      "craft": 3458,
      "conscious": 3459,
      "jes": 3460,
      "istics": 3461,
      "failure": 3462,
      "45": 3463,
      "killed": 3464,
      "cate": 3465,
      "dress": 3466,
      "lou": 3467,
      "mainly": 3468,
      "instance": 3469,
      "icians": 3470,
      "1992": 3471,
      "pray": 3472,
      "citiz": 3473,
      "35": 3474,
      "hadn": 3475,
      "tradition": 3476,
      "quiet": 3477,
      "egg": 3478,
      "mous": 3479,
      "lia": 3480,
      "impossible": 3481,
      "correspond": 3482,
      "quarter": 3483,
      "familiar": 3484,
      "lock": 3485,
      "associated": 3486,
      "sufficient": 3487,
      "metal": 3488,
      "legs": 3489,
      "enge": 3490,
      "provides": 3491,
      "statement": 3492,
      "branch": 3493,
      "aur": 3494,
      "adequ": 3495,
      "filled": 3496,
      "exchange": 3497,
      "spending": 3498,
      "serve": 3499,
      "keeping": 3500,
      "stret": 3501,
      "thank": 3502,
      "cris": 3503,
      "satur": 3504,
      "determined": 3505,
      "ially": 3506,
      "knows": 3507,
      "reality": 3508,
      "kn": 3509,
      "wine": 3510,
      "lean": 3511,
      "pel": 3512,
      "ideo": 3513,
      "status": 3514,
      "beside": 3515,
      "relevant": 3516,
      "tions": 3517,
      "officers": 3518,
      "victim": 3519,
      "sorry": 3520,
      "overall": 3521,
      "factory": 3522,
      "yard": 3523,
      "inet": 3524,
      "tension": 3525,
      "drew": 3526,
      "infl": 3527,
      "cles": 3528,
      "belong": 3529,
      "boys": 3530,
      "opposition": 3531,
      "intended": 3532,
      "walls": 3533,
      "individuals": 3534,
      "70": 3535,
      "sus": 3536,
      "hers": 3537,
      "seeing": 3538,
      "carefully": 3539,
      "multi": 3540,
      "beach": 3541,
      "cele": 3542,
      "sale": 3543,
      "increasingly": 3544,
      "29": 3545,
      "remembered": 3546,
      "spoke": 3547,
      "gry": 3548,
      "insist": 3549,
      "anci": 3550,
      "champion": 3551,
      "wealth": 3552,
      "electric": 3553,
      "budget": 3554,
      "tall": 3555,
      "implic": 3556,
      "jose": 3557,
      "domestic": 3558,
      "alex": 3559,
      "argued": 3560,
      "damage": 3561,
      "africa": 3562,
      "consum": 3563,
      "worse": 3564,
      "smaller": 3565,
      "magaz": 3566,
      "blan": 3567,
      "apply": 3568,
      "celebr": 3569,
      "cool": 3570,
      "excell": 3571,
      "cords": 3572,
      "effort": 3573,
      "gentle": 3574,
      "eral": 3575,
      "worry": 3576,
      "speech": 3577,
      "watched": 3578,
      "hors": 3579,
      "ingu": 3580,
      "positive": 3581,
      "marketing": 3582,
      "nav": 3583,
      "kne": 3584,
      "cheap": 3585,
      "possibly": 3586,
      "camp": 3587,
      "machine": 3588,
      "ili": 3589,
      "prospect": 3590,
      "haven": 3591,
      "push": 3592,
      "display": 3593,
      "leadership": 3594,
      "encourage": 3595,
      "heads": 3596,
      "decisions": 3597,
      "sac": 3598,
      "prepar": 3599,
      "iii": 3600,
      "billion": 3601,
      "heat": 3602,
      "fold": 3603,
      "discuss": 3604,
      "entirely": 3605,
      "discipl": 3606,
      "pound": 3607,
      "enthus": 3608,
      "whis": 3609,
      "absolute": 3610,
      "fal": 3611,
      "preser": 3612,
      "putting": 3613,
      "reduce": 3614,
      "appearance": 3615,
      "duty": 3616,
      "division": 3617,
      "oration": 3618,
      "persu": 3619,
      "institutions": 3620,
      "kar": 3621,
      "onto": 3622,
      "remind": 3623,
      "discovered": 3624,
      "ost": 3625,
      "lee": 3626,
      "cars": 3627,
      "ights": 3628,
      "benefits": 3629,
      "executive": 3630,
      "sme": 3631,
      "partly": 3632,
      "applied": 3633,
      "principle": 3634,
      "dun": 3635,
      "orders": 3636,
      "cathol": 3637,
      "1981": 3638,
      "enthusi": 3639,
      "thur": 3640,
      "liked": 3641,
      "traff": 3642,
      "bles": 3643,
      "courts": 3644,
      "violence": 3645,
      "nevertheless": 3646,
      "rey": 3647,
      "grounds": 3648,
      "convers": 3649,
      "changing": 3650,
      "scene": 3651,
      "eliza": 3652,
      "constitution": 3653,
      "conflict": 3654,
      "embar": 3655,
      "goods": 3656,
      "watching": 3657,
      "encies": 3658,
      "irish": 3659,
      "1982": 3660,
      "succeed": 3661,
      "satisf": 3662,
      "75": 3663,
      "equally": 3664,
      "claims": 3665,
      "stro": 3666,
      "ships": 3667,
      "papers": 3668,
      "sources": 3669,
      "edin": 3670,
      "spend": 3671,
      "corn": 3672,
      "etc": 3673,
      "calls": 3674,
      "pretty": 3675,
      "techniques": 3676,
      "las": 3677,
      "doors": 3678,
      "manner": 3679,
      "gged": 3680,
      "thirty": 3681,
      "extremely": 3682,
      "flight": 3683,
      "pil": 3684,
      "pure": 3685,
      "lyn": 3686,
      "irt": 3687,
      "supposed": 3688,
      "capac": 3689,
      "analy": 3690,
      "legislation": 3691,
      "eigh": 3692,
      "aught": 3693,
      "poses": 3694,
      "finance": 3695,
      "ray": 3696,
      "isto": 3697,
      "shout": 3698,
      "empty": 3699,
      "receive": 3700,
      "garet": 3701,
      "expression": 3702,
      "address": 3703,
      "farmers": 3704,
      "surprising": 3705,
      "orts": 3706,
      "breath": 3707,
      "equal": 3708,
      "faced": 3709,
      "windows": 3710,
      "accident": 3711,
      "1979": 3712,
      "silver": 3713,
      "programmes": 3714,
      "confidence": 3715,
      "ades": 3716,
      "horses": 3717,
      "birds": 3718,
      "flowers": 3719,
      "nodded": 3720,
      "kers": 3721,
      "accur": 3722,
      "184": 3723,
      "reput": 3724,
      "reduced": 3725,
      "weather": 3726,
      "31": 3727,
      "inev": 3728,
      "laid": 3729,
      "cra": 3730,
      "disease": 3731,
      "israel": 3732,
      "critical": 3733,
      "apparently": 3734,
      "sides": 3735,
      "’—": 3736,
      "selling": 3737,
      "silence": 3738,
      "document": 3739,
      "cket": 3740,
      "veh": 3741,
      "ato": 3742,
      "span": 3743,
      "suppli": 3744,
      "explan": 3745,
      "atmosphere": 3746,
      "folk": 3747,
      "fab": 3748,
      "illustr": 3749,
      "markets": 3750,
      "providing": 3751,
      "debate": 3752,
      "dinner": 3753,
      "upper": 3754,
      "lian": 3755,
      "processes": 3756,
      "stuff": 3757,
      "theatre": 3758,
      "understo": 3759,
      "afraid": 3760,
      "marks": 3761,
      "walking": 3762,
      "daily": 3763,
      "fant": 3764,
      "firms": 3765,
      "aked": 3766,
      "yellow": 3767,
      "edinburgh": 3768,
      "cs": 3769,
      "prince": 3770,
      "pictures": 3771,
      "frequently": 3772,
      "bay": 3773,
      "distingu": 3774,
      "elder": 3775,
      "stimul": 3776,
      "traffic": 3777,
      "understood": 3778,
      "cular": 3779,
      "announced": 3780,
      "technical": 3781,
      "snow": 3782,
      "challenge": 3783,
      "aran": 3784,
      "ston": 3785,
      "lla": 3786,
      "acting": 3787,
      "joint": 3788,
      "preh": 3789,
      "classes": 3790,
      "southern": 3791,
      "adult": 3792,
      "thatcher": 3793,
      "choose": 3794,
      "managers": 3795,
      "inspect": 3796,
      "estate": 3797,
      "milk": 3798,
      "channe": 3799,
      "igno": 3800,
      "fighting": 3801,
      "lips": 3802,
      "gel": 3803,
      "subjects": 3804,
      "introduction": 3805,
      "perce": 3806,
      "willing": 3807,
      "precise": 3808,
      "strike": 3809,
      "fingers": 3810,
      "title": 3811,
      "clock": 3812,
      "institution": 3813,
      "drawing": 3814,
      "accommod": 3815,
      "pac": 3816,
      "sick": 3817,
      "republic": 3818,
      "records": 3819,
      "amed": 3820,
      "brain": 3821,
      "missed": 3822,
      "relief": 3823,
      "attend": 3824,
      "italian": 3825,
      "fixed": 3826,
      "household": 3827,
      "crime": 3828,
      "japanese": 3829,
      "sharp": 3830,
      "tan": 3831,
      "ths": 3832,
      "shap": 3833,
      "treas": 3834,
      "stal": 3835,
      "lose": 3836,
      "express": 3837,
      "picked": 3838,
      "dust": 3839,
      "jim": 3840,
      "lam": 3841,
      "1984": 3842,
      "younger": 3843,
      "feature": 3844,
      "unable": 3845,
      "deliver": 3846,
      "appreci": 3847,
      "rit": 3848,
      "idents": 3849,
      "bene": 3850,
      "hung": 3851,
      "roof": 3852,
      "bob": 3853,
      "elements": 3854,
      "strategy": 3855,
      "sage": 3856,
      "media": 3857,
      "showing": 3858,
      "fundament": 3859,
      "ancient": 3860,
      "bure": 3861,
      "throw": 3862,
      "aster": 3863,
      "delight": 3864,
      "boat": 3865,
      "generation": 3866,
      "entered": 3867,
      "normally": 3868,
      "homes": 3869,
      "captain": 3870,
      "attractive": 3871,
      "arrangements": 3872,
      "ura": 3873,
      "shut": 3874,
      "joseph": 3875,
      "award": 3876,
      "neck": 3877,
      "expressed": 3878,
      "1980": 3879,
      "1983": 3880,
      "customers": 3881,
      "uries": 3882,
      "perman": 3883,
      "expend": 3884,
      "till": 3885,
      "tage": 3886,
      "greg": 3887,
      "italy": 3888,
      "reasonable": 3889,
      "widely": 3890,
      "rela": 3891,
      "veget": 3892,
      "target": 3893,
      "reject": 3894,
      "decor": 3895,
      "uded": 3896,
      "burg": 3897,
      "fourth": 3898,
      "dropped": 3899,
      ".\"": 3900,
      "rout": 3901,
      "unk": 3902,
      "tray": 3903,
      "identified": 3904,
      "relationships": 3905,
      "convin": 3906,
      "educational": 3907,
      "dig": 3908,
      "loved": 3909,
      "ctors": 3910,
      "agon": 3911,
      "observ": 3912,
      "block": 3913,
      "licence": 3914,
      "beneath": 3915,
      "bomb": 3916,
      "ender": 3917,
      "radi": 3918,
      "pieces": 3919,
      "lunch": 3920,
      "iture": 3921,
      "hell": 3922,
      "surely": 3923,
      "ception": 3924,
      "copy": 3925,
      "message": 3926,
      "dolph": 3927,
      "interpret": 3928,
      "organisations": 3929,
      "bil": 3930,
      "forts": 3931,
      "possibility": 3932,
      "welsh": 3933,
      "radical": 3934,
      "assessment": 3935,
      "mine": 3936,
      "remo": 3937,
      "values": 3938,
      "jobs": 3939,
      "elizabeth": 3940,
      "ari": 3941,
      "quant": 3942,
      "creation": 3943,
      "substantial": 3944,
      "ets": 3945,
      "iving": 3946,
      "finding": 3947,
      "aspects": 3948,
      "saving": 3949,
      "initial": 3950,
      "grap": 3951,
      "cis": 3952,
      "sin": 3953,
      "xter": 3954,
      "johnson": 3955,
      "sevent": 3956,
      "ashed": 3957,
      "profession": 3958,
      "err": 3959,
      "waste": 3960,
      "cler": 3961,
      "cript": 3962,
      "limit": 3963,
      "crown": 3964,
      "nut": 3965,
      "tional": 3966,
      "wear": 3967,
      "thered": 3968,
      "offers": 3969,
      "demands": 3970,
      "ffe": 3971,
      "reaction": 3972,
      "sey": 3973,
      "jesus": 3974,
      "grown": 3975,
      "audience": 3976,
      "excellent": 3977,
      "replied": 3978,
      "chant": 3979,
      "ull": 3980,
      "internal": 3981,
      "element": 3982,
      "rough": 3983,
      "arian": 3984,
      "iel": 3985,
      "library": 3986,
      "arrang": 3987,
      "sust": 3988,
      "liqu": 3989,
      "burn": 3990,
      "holders": 3991,
      "proposals": 3992,
      "emphasis": 3993,
      "opposite": 3994,
      "ka": 3995,
      "pop": 3996,
      "weap": 3997,
      "handic": 3998,
      "leap": 3999,
      "pra": 4000,
      "odd": 4001,
      "tiny": 4002,
      "bare": 4003,
      "isa": 4004,
      "forget": 4005,
      "debt": 4006,
      "afford": 4007,
      "rising": 4008,
      "elected": 4009,
      "bureau": 4010,
      "nobody": 4011,
      "offence": 4012,
      "mortg": 4013,
      "mentioned": 4014,
      "writer": 4015,
      "materials": 4016,
      "tone": 4017,
      "replace": 4018,
      "expensive": 4019,
      "difficulties": 4020,
      "welcome": 4021,
      "principles": 4022,
      "appointment": 4023,
      "rational": 4024,
      "editor": 4025,
      "guaran": 4026,
      "examples": 4027,
      "restaur": 4028,
      "jane": 4029,
      "implement": 4030,
      "somewhere": 4031,
      "ministers": 4032,
      "arts": 4033,
      "lift": 4034,
      "disput": 4035,
      "chosen": 4036,
      "learned": 4037,
      "insu": 4038,
      "organization": 4039,
      "telling": 4040,
      "severe": 4041,
      "defined": 4042,
      "christmas": 4043,
      "tut": 4044,
      "aces": 4045,
      "largest": 4046,
      "profit": 4047,
      "refused": 4048,
      "capacity": 4049,
      "alty": 4050,
      "bush": 4051,
      "pursu": 4052,
      "zen": 4053,
      "andre": 4054,
      "suitable": 4055,
      "evolution": 4056,
      "acid": 4057,
      "save": 4058,
      "suggests": 4059,
      "nineteenth": 4060,
      "background": 4061,
      "wilson": 4062,
      "symbo": 4063,
      "imagine": 4064,
      "cham": 4065,
      "ilst": 4066,
      "victory": 4067,
      "comfortable": 4068,
      "candid": 4069,
      "arrest": 4070,
      "whilst": 4071,
      "suspect": 4072,
      "iran": 4073,
      "differences": 4074,
      "cambridge": 4075,
      "immediate": 4076,
      "camer": 4077,
      "tren": 4078,
      "latest": 4079,
      "twice": 4080,
      "journey": 4081,
      "psycho": 4082,
      "99": 4083,
      "moti": 4084,
      "pushed": 4085,
      "calcul": 4086,
      "treated": 4087,
      "extens": 4088,
      "tees": 4089,
      "additional": 4090,
      "extended": 4091,
      "fairly": 4092,
      "expenditure": 4093,
      "forgot": 4094,
      "gardens": 4095,
      "pleasure": 4096,
      "corporate": 4097,
      "twel": 4098,
      "inher": 4099,
      "reference": 4100,
      "arab": 4101,
      "entially": 4102,
      "sole": 4103,
      "neighbour": 4104,
      "categ": 4105,
      "palest": 4106,
      "assem": 4107,
      "destroy": 4108,
      "hero": 4109,
      "efforts": 4110,
      "shook": 4111,
      "ibility": 4112,
      "funds": 4113,
      "experienced": 4114,
      "catch": 4115,
      "wondered": 4116,
      "gallery": 4117,
      "py": 4118,
      "detail": 4119,
      "administration": 4120,
      "sought": 4121,
      "route": 4122,
      "desire": 4123,
      "closely": 4124,
      "ivity": 4125,
      "decide": 4126,
      "alleg": 4127,
      "affairs": 4128,
      "fly": 4129,
      "ume": 4130,
      "unlikely": 4131,
      "imper": 4132,
      "dangerous": 4133,
      "witness": 4134,
      "promise": 4135,
      "via": 4136,
      "centres": 4137,
      "detailed": 4138,
      "ligence": 4139,
      "dad": 4140,
      "gins": 4141,
      "ime": 4142,
      "thetic": 4143,
      "stories": 4144,
      "aband": 4145,
      "speaking": 4146,
      "laughed": 4147,
      "cub": 4148,
      "brand": 4149,
      "fuel": 4150,
      "pension": 4151,
      "tho": 4152,
      "tot": 4153,
      "akes": 4154,
      "curr": 4155,
      "len": 4156,
      "vital": 4157,
      "includes": 4158,
      "occurred": 4159,
      "uct": 4160,
      "escape": 4161,
      "rot": 4162,
      "lod": 4163,
      "prove": 4164,
      "rows": 4165,
      "cultural": 4166,
      "repeated": 4167,
      "noticed": 4168,
      "grave": 4169,
      "umped": 4170,
      "helen": 4171,
      "attitude": 4172,
      "saturday": 4173,
      "broke": 4174,
      "decline": 4175,
      "vast": 4176,
      "leaf": 4177,
      "ented": 4178,
      "izing": 4179,
      "commitment": 4180,
      "sweet": 4181,
      "instruct": 4182,
      "iveness": 4183,
      "grew": 4184,
      "schemes": 4185,
      "apo": 4186,
      "tie": 4187,
      "whereas": 4188,
      "shoulder": 4189,
      "factor": 4190,
      "necessarily": 4191,
      "acquired": 4192,
      "uous": 4193,
      "theo": 4194,
      "stress": 4195,
      "cession": 4196,
      "rush": 4197,
      "morrow": 4198,
      "tears": 4199,
      "feelings": 4200,
      "bird": 4201,
      "uine": 4202,
      "difficulty": 4203,
      "recorded": 4204,
      "fruit": 4205,
      "ey": 4206,
      "ctic": 4207,
      "shared": 4208,
      "actor": 4209,
      "raise": 4210,
      "pton": 4211,
      "latin": 4212,
      "reven": 4213,
      "alu": 4214,
      "profits": 4215,
      "phe": 4216,
      "enor": 4217,
      "tribut": 4218,
      "ski": 4219,
      "easier": 4220,
      "committed": 4221,
      "institute": 4222,
      "tomorrow": 4223,
      "acknow": 4224,
      "tony": 4225,
      "surprise": 4226,
      "fortunately": 4227,
      "rival": 4228,
      "planned": 4229,
      "opportunities": 4230,
      "intellect": 4231,
      "oral": 4232,
      "ander": 4233,
      "coat": 4234,
      "wearing": 4235,
      "gow": 4236,
      "plent": 4237,
      "worst": 4238,
      "screen": 4239,
      "bilities": 4240,
      "ops": 4241,
      "thanks": 4242,
      "carbon": 4243,
      "discussed": 4244,
      "carrying": 4245,
      "patterns": 4246,
      "gif": 4247,
      "territ": 4248,
      "dal": 4249,
      "ases": 4250,
      "wet": 4251,
      "evident": 4252,
      "capable": 4253,
      "sounds": 4254,
      "recognition": 4255,
      "named": 4256,
      "fis": 4257,
      "alco": 4258,
      "rif": 4259,
      "quo": 4260,
      "lake": 4261,
      "meetings": 4262,
      "seriously": 4263,
      "nichol": 4264,
      "entit": 4265,
      "laws": 4266,
      "streets": 4267,
      "academic": 4268,
      "conversation": 4269,
      "manchester": 4270,
      "attempts": 4271,
      "zy": 4272,
      "seas": 4273,
      "shel": 4274,
      "bedroom": 4275,
      "supported": 4276,
      "conservation": 4277,
      "models": 4278,
      "asking": 4279,
      "shru": 4280,
      "advance": 4281,
      "completed": 4282,
      "electron": 4283,
      "elsewhere": 4284,
      "contribution": 4285,
      "1980s": 4286,
      "cabinet": 4287,
      "catholic": 4288,
      "dish": 4289,
      "devo": 4290,
      "brid": 4291,
      "blind": 4292,
      "swim": 4293,
      "moon": 4294,
      "resident": 4295,
      "angle": 4296,
      "seek": 4297,
      "borrow": 4298,
      "secure": 4299,
      "bread": 4300,
      "ultim": 4301,
      "extr": 4302,
      "agues": 4303,
      "genuine": 4304,
      "greatest": 4305,
      "starting": 4306,
      "borough": 4307,
      "favourite": 4308,
      "selection": 4309,
      "kick": 4310,
      "ware": 4311,
      "lets": 4312,
      "height": 4313,
      "operations": 4314,
      "gs": 4315,
      "jam": 4316,
      "compe": 4317,
      "article": 4318,
      "suppor": 4319,
      "steel": 4320,
      "measures": 4321,
      "currently": 4322,
      "admitted": 4323,
      "noted": 4324,
      "purposes": 4325,
      "listen": 4326,
      "cities": 4327,
      "igned": 4328,
      "officials": 4329,
      "dur": 4330,
      "tv": 4331,
      "erous": 4332,
      "itors": 4333,
      "pled": 4334,
      "strain": 4335,
      "formation": 4336,
      "football": 4337,
      "memor": 4338,
      "males": 4339,
      "breakfast": 4340,
      "gil": 4341,
      "ino": 4342,
      "excess": 4343,
      "distribution": 4344,
      "removed": 4345,
      "plate": 4346,
      "laun": 4347,
      "professor": 4348,
      "taste": 4349,
      "adequate": 4350,
      "rein": 4351,
      "pole": 4352,
      "shah": 4353,
      "enterpr": 4354,
      "36": 4355,
      "jer": 4356,
      "va": 4357,
      "mingham": 4358,
      "affected": 4359,
      "developing": 4360,
      "volunt": 4361,
      "driving": 4362,
      "flex": 4363,
      "wich": 4364,
      "alle": 4365,
      "ause": 4366,
      "simon": 4367,
      "equival": 4368,
      "birmingham": 4369,
      "nigel": 4370,
      "drugs": 4371,
      "cad": 4372,
      "nie": 4373,
      "labor": 4374,
      "howard": 4375,
      "waited": 4376,
      "league": 4377,
      "charges": 4378,
      "expand": 4379,
      "constant": 4380,
      "principal": 4381,
      "consumer": 4382,
      "dot": 4383,
      "agency": 4384,
      "premis": 4385,
      "wake": 4386,
      "mix": 4387,
      "intelligence": 4388,
      "wider": 4389,
      "entr": 4390,
      "kingdom": 4391,
      "expert": 4392,
      "magazine": 4393,
      "vary": 4394,
      "load": 4395,
      "ifying": 4396,
      "pale": 4397,
      "subsid": 4398,
      "phas": 4399,
      "governments": 4400,
      "typical": 4401,
      "curricul": 4402,
      "ana": 4403,
      "conver": 4404,
      "pollution": 4405,
      "zo": 4406,
      "resol": 4407,
      "urally": 4408,
      "sible": 4409,
      "stir": 4410,
      "compreh": 4411,
      "mixed": 4412,
      "mountain": 4413,
      "hurt": 4414,
      "fundamental": 4415,
      "mood": 4416,
      "provis": 4417,
      "patient": 4418,
      "iciency": 4419,
      "finger": 4420,
      "employees": 4421,
      "crisis": 4422,
      "pages": 4423,
      "units": 4424,
      "neut": 4425,
      "youth": 4426,
      "eper": 4427,
      "hearing": 4428,
      "actual": 4429,
      "disco": 4430,
      "ela": 4431,
      "portra": 4432,
      "democratic": 4433,
      "enjoyed": 4434,
      "stations": 4435,
      "congress": 4436,
      "iments": 4437,
      "holy": 4438,
      "buying": 4439,
      "rupt": 4440,
      "gus": 4441,
      "xic": 4442,
      "meal": 4443,
      "agan": 4444,
      "33": 4445,
      "map": 4446,
      "trial": 4447,
      "parliamentary": 4448,
      "bun": 4449,
      "nest": 4450,
      "replaced": 4451,
      "china": 4452,
      "unlike": 4453,
      "conven": 4454,
      "usive": 4455,
      "orient": 4456,
      "iring": 4457,
      "firmed": 4458,
      "colon": 4459,
      "passing": 4460,
      "dramatic": 4461,
      "asp": 4462,
      "hole": 4463,
      "continent": 4464,
      "represented": 4465,
      "shadow": 4466,
      "exhibition": 4467,
      "absence": 4468,
      "twelve": 4469,
      "alcohol": 4470,
      "sail": 4471,
      "glad": 4472,
      "payment": 4473,
      "falling": 4474,
      "referred": 4475,
      "australia": 4476,
      "premises": 4477,
      "reck": 4478,
      "tery": 4479,
      "intention": 4480,
      "winning": 4481,
      "properly": 4482,
      "colleagues": 4483,
      "apparent": 4484,
      "rol": 4485,
      "aming": 4486,
      "sheet": 4487,
      "asser": 4488,
      "advanced": 4489,
      "mand": 4490,
      "charged": 4491,
      "publishing": 4492,
      "runs": 4493,
      "recommend": 4494,
      "iers": 4495,
      "impression": 4496,
      "ults": 4497,
      "bbc": 4498,
      "doll": 4499,
      "india": 4500,
      "martin": 4501,
      "ordered": 4502,
      "offering": 4503,
      "nations": 4504,
      "harmon": 4505,
      "teeth": 4506,
      "eating": 4507,
      "cream": 4508,
      "improved": 4509,
      "surprised": 4510,
      "glasgow": 4511,
      "reputation": 4512,
      "asts": 4513,
      "goal": 4514,
      "discover": 4515,
      "aker": 4516,
      "ios": 4517,
      "friendly": 4518,
      "palace": 4519,
      "rapidly": 4520,
      "fright": 4521,
      "pig": 4522,
      "pink": 4523,
      "sie": 4524,
      "closer": 4525,
      "micro": 4526,
      "encouraged": 4527,
      "lly": 4528,
      "fection": 4529,
      "apping": 4530,
      "welfare": 4531,
      "manufactur": 4532,
      "iver": 4533,
      "wave": 4534,
      "causes": 4535,
      "laura": 4536,
      "hid": 4537,
      "proof": 4538,
      "rence": 4539,
      "breed": 4540,
      "request": 4541,
      "lined": 4542,
      "daughters": 4543,
      "adopted": 4544,
      "commons": 4545,
      "ternal": 4546,
      "controlled": 4547,
      "kinds": 4548,
      "iraq": 4549,
      "femin": 4550,
      "atures": 4551,
      "golf": 4552,
      "maker": 4553,
      "carol": 4554,
      "37": 4555,
      "eag": 4556,
      "trained": 4557,
      "circle": 4558,
      "34": 4559,
      "chemis": 4560,
      "continuing": 4561,
      "divided": 4562,
      "pting": 4563,
      "settled": 4564,
      "dict": 4565,
      "recru": 4566,
      "uncertain": 4567,
      "bra": 4568,
      "jection": 4569,
      "visible": 4570,
      "follows": 4571,
      "delic": 4572,
      "plenty": 4573,
      "isol": 4574,
      "mono": 4575,
      "dogs": 4576,
      "virtually": 4577,
      "hence": 4578,
      "players": 4579,
      "fred": 4580,
      "accompan": 4581,
      "perspect": 4582,
      "bitter": 4583,
      "brian": 4584,
      "passage": 4585,
      "drama": 4586,
      "arranged": 4587,
      "kid": 4588,
      "items": 4589,
      "hoped": 4590,
      "americans": 4591,
      "harm": 4592,
      "terror": 4593,
      "pm": 4594,
      "lydia": 4595,
      "previously": 4596,
      "gie": 4597,
      "rass": 4598,
      "forth": 4599,
      "noise": 4600,
      "contemporary": 4601,
      "oked": 4602,
      "warning": 4603,
      "naturally": 4604,
      "solic": 4605,
      "facing": 4606,
      "terrible": 4607,
      "inflation": 4608,
      "thed": 4609,
      "unemployment": 4610,
      "somehow": 4611,
      "developments": 4612,
      "challeng": 4613,
      "maximum": 4614,
      "obtain": 4615,
      "cutting": 4616,
      "migr": 4617,
      "weekend": 4618,
      "ore": 4619,
      "oke": 4620,
      "yer": 4621,
      "illi": 4622,
      "formul": 4623,
      "interview": 4624,
      "attitudes": 4625,
      "nis": 4626,
      "indian": 4627,
      "obtained": 4628,
      "russian": 4629,
      "tex": 4630,
      "begun": 4631,
      "impress": 4632,
      "fool": 4633,
      "embarrass": 4634,
      "voluntary": 4635,
      "300": 4636,
      "95": 4637,
      "bass": 4638,
      "inking": 4639,
      "mostly": 4640,
      "rub": 4641,
      "suffered": 4642,
      "requirements": 4643,
      "gently": 4644,
      "vul": 4645,
      "acking": 4646,
      "nose": 4647,
      "trick": 4648,
      "grav": 4649,
      "observed": 4650,
      "effectively": 4651,
      "operating": 4652,
      "structures": 4653,
      "collap": 4654,
      "admir": 4655,
      "rape": 4656,
      "metres": 4657,
      "wonderful": 4658,
      "bringing": 4659,
      "significance": 4660,
      "location": 4661,
      "historical": 4662,
      "dance": 4663,
      "lots": 4664,
      "frag": 4665,
      "islands": 4666,
      "perform": 4667,
      "facts": 4668,
      "fallen": 4669,
      "quarters": 4670,
      "conclusion": 4671,
      "rick": 4672,
      "tack": 4673,
      "membership": 4674,
      "educated": 4675,
      "passion": 4676,
      "waters": 4677,
      "criminal": 4678,
      "stones": 4679,
      "meat": 4680,
      "accounting": 4681,
      "uge": 4682,
      "sections": 4683,
      "butter": 4684,
      "phr": 4685,
      "salt": 4686,
      "mile": 4687,
      "desper": 4688,
      "miller": 4689,
      "biggest": 4690,
      "pleased": 4691,
      "subsequent": 4692,
      "ix": 4693,
      "video": 4694,
      "—‘": 4695,
      "semi": 4696,
      "ressing": 4697,
      "curren": 4698,
      "gather": 4699,
      "diplo": 4700,
      "alo": 4701,
      "compos": 4702,
      "handed": 4703,
      "highest": 4704,
      "passeng": 4705,
      "eco": 4706,
      "ell": 4707,
      "requires": 4708,
      "ministry": 4709,
      "golden": 4710,
      "curriculum": 4711,
      "enem": 4712,
      "chain": 4713,
      "adjust": 4714,
      "somewhat": 4715,
      "producing": 4716,
      "confident": 4717,
      "slip": 4718,
      "struggle": 4719,
      "tough": 4720,
      "sem": 4721,
      "canad": 4722,
      "myster": 4723,
      "owned": 4724,
      "hugh": 4725,
      "mills": 4726,
      "movements": 4727,
      "links": 4728,
      "purchase": 4729,
      "pens": 4730,
      "fles": 4731,
      "soul": 4732,
      "expans": 4733,
      "establishment": 4734,
      "newspaper": 4735,
      "stable": 4736,
      "coach": 4737,
      "earl": 4738,
      "distur": 4739,
      "signs": 4740,
      "cock": 4741,
      "thoughts": 4742,
      "predict": 4743,
      "sarah": 4744,
      "smell": 4745,
      "mortgage": 4746,
      "ius": 4747,
      "utter": 4748,
      "mond": 4749,
      "explanation": 4750,
      "gment": 4751,
      "asing": 4752,
      "presents": 4753,
      "contained": 4754,
      "180": 4755,
      "careful": 4756,
      "writers": 4757,
      "branches": 4758,
      "suspic": 4759,
      "gulf": 4760,
      "fest": 4761,
      "abled": 4762,
      "afterwards": 4763,
      "argue": 4764,
      "liverpool": 4765,
      "atom": 4766,
      "medic": 4767,
      "busy": 4768,
      "occupied": 4769,
      "quiry": 4770,
      "38": 4771,
      "kent": 4772,
      "zes": 4773,
      "sets": 4774,
      "sher": 4775,
      "fitted": 4776,
      "objectives": 4777,
      "bottle": 4778,
      "rarely": 4779,
      "65": 4780,
      "blow": 4781,
      "hay": 4782,
      "loan": 4783,
      "invited": 4784,
      "organiz": 4785,
      "1978": 4786,
      "engineering": 4787,
      "narr": 4788,
      "armed": 4789,
      "poet": 4790,
      "happens": 4791,
      "definition": 4792,
      "granted": 4793,
      "bent": 4794,
      "hip": 4795,
      "tact": 4796,
      "abor": 4797,
      "agent": 4798,
      "seeking": 4799,
      "1970s": 4800,
      "volume": 4801,
      "departments": 4802,
      "thousands": 4803,
      "agricultural": 4804,
      "intellectual": 4805,
      "kins": 4806,
      "angry": 4807,
      "icial": 4808,
      "moreover": 4809,
      "sports": 4810,
      "install": 4811,
      "clients": 4812,
      "network": 4813,
      "stared": 4814,
      "chi": 4815,
      "knowing": 4816,
      "consent": 4817,
      "decade": 4818,
      "scen": 4819,
      "release": 4820,
      "forgotten": 4821,
      "lav": 4822,
      "adam": 4823,
      "agg": 4824,
      "tense": 4825,
      "autumn": 4826,
      "incident": 4827,
      "totally": 4828,
      "39": 4829,
      "bted": 4830,
      "jen": 4831,
      "anticip": 4832,
      "trip": 4833,
      "unique": 4834,
      "reflected": 4835,
      "philosophy": 4836,
      "bond": 4837,
      "heath": 4838,
      "valley": 4839,
      "swit": 4840,
      "recovery": 4841,
      "heavily": 4842,
      "smooth": 4843,
      "conventional": 4844,
      "permanent": 4845,
      "assa": 4846,
      "output": 4847,
      "opposed": 4848,
      "evalu": 4849,
      "crack": 4850,
      "remaining": 4851,
      "sque": 4852,
      "deter": 4853,
      "deliber": 4854,
      "uss": 4855,
      "plastic": 4856,
      "istan": 4857,
      "aircraft": 4858,
      "visited": 4859,
      "maintained": 4860,
      "dealing": 4861,
      "brothers": 4862,
      "confirmed": 4863,
      "oughta": 4864,
      "scope": 4865,
      "strongly": 4866,
      "occasionally": 4867,
      "advertising": 4868,
      "oce": 4869,
      "renew": 4870,
      "enh": 4871,
      "keen": 4872,
      "grin": 4873,
      "cardiff": 4874,
      "revealed": 4875,
      "tam": 4876,
      "—’": 4877,
      "licens": 4878,
      "vice": 4879,
      "margaret": 4880,
      "32": 4881,
      "lane": 4882,
      "yach": 4883,
      "handle": 4884,
      "owners": 4885,
      "recognised": 4886,
      "crucial": 4887,
      "projects": 4888,
      "consequences": 4889,
      "rever": 4890,
      "llor": 4891,
      "serge": 4892,
      "enormous": 4893,
      "cope": 4894,
      "shock": 4895,
      "guess": 4896,
      "shoulders": 4897,
      "talked": 4898,
      "reduction": 4899,
      "acceptable": 4900,
      "enable": 4901,
      "stated": 4902,
      "deput": 4903,
      "reluct": 4904,
      "parent": 4905,
      "visitors": 4906,
      "attached": 4907,
      "deleg": 4908,
      "presum": 4909,
      "aced": 4910,
      "wore": 4911,
      "regions": 4912,
      "brea": 4913,
      "functions": 4914,
      "cliff": 4915,
      "darkness": 4916,
      "lind": 4917,
      "ological": 4918,
      "wished": 4919,
      "wned": 4920,
      "fined": 4921,
      "bloody": 4922,
      "suffering": 4923,
      "lords": 4924,
      "mud": 4925,
      "alive": 4926,
      "seats": 4927,
      "ruth": 4928,
      "washington": 4929,
      "literature": 4930,
      "swell": 4931,
      "rig": 4932,
      "sau": 4933,
      "chee": 4934,
      "silent": 4935,
      "wooden": 4936,
      "perfectly": 4937,
      "entitled": 4938,
      "jones": 4939,
      "thesis": 4940,
      "lessly": 4941,
      "vised": 4942,
      "empire": 4943,
      "studied": 4944,
      "declared": 4945,
      "promised": 4946,
      "tool": 4947,
      "rome": 4948,
      "combined": 4949,
      "patients": 4950,
      "equivalent": 4951,
      "icts": 4952,
      "tired": 4953,
      "marx": 4954,
      "politicians": 4955,
      "roads": 4956,
      "stayed": 4957,
      "anth": 4958,
      "sures": 4959,
      "serving": 4960,
      "minster": 4961,
      "pleasant": 4962,
      "sop": 4963,
      "absor": 4964,
      "brick": 4965,
      "matthe": 4966,
      "honest": 4967,
      "linked": 4968,
      "emerged": 4969,
      "involvement": 4970,
      "border": 4971,
      "recession": 4972,
      "arctic": 4973,
      "locked": 4974,
      "modif": 4975,
      "grain": 4976,
      "maur": 4977,
      "rug": 4978,
      "deeply": 4979,
      "beauty": 4980,
      "emotional": 4981,
      "theme": 4982,
      "hitler": 4983,
      "procedure": 4984,
      "guil": 4985,
      "calm": 4986,
      "fault": 4987,
      "independence": 4988,
      "gradu": 4989,
      "loud": 4990,
      "zing": 4991,
      "ini": 4992,
      "intens": 4993,
      "chip": 4994,
      "offices": 4995,
      "communist": 4996,
      "operate": 4997,
      "entertain": 4998,
      "firmly": 4999,
      "shift": 5000,
      "correspondent": 5001,
      "sugar": 5002,
      "monitor": 5003,
      "plane": 5004,
      "properties": 5005,
      "instrument": 5006,
      "rear": 5007,
      "obli": 5008,
      "spectac": 5009,
      "swing": 5010,
      "issued": 5011,
      "detect": 5012,
      "gap": 5013,
      "struck": 5014,
      "realised": 5015,
      "painted": 5016,
      "delay": 5017,
      "citizen": 5018,
      "extensive": 5019,
      "neutral": 5020,
      "yards": 5021,
      "aside": 5022,
      "preced": 5023,
      "cloth": 5024,
      "magn": 5025,
      "regulations": 5026,
      "troops": 5027,
      "55": 5028,
      "taught": 5029,
      "motion": 5030,
      "marie": 5031,
      "spain": 5032,
      "joe": 5033,
      "examination": 5034,
      "fifty": 5035,
      "assistant": 5036,
      "blanche": 5037,
      "accommodation": 5038,
      "wound": 5039,
      "inhib": 5040,
      "entry": 5041,
      "chron": 5042,
      "admit": 5043,
      "loose": 5044,
      "lip": 5045,
      "umin": 5046,
      "premi": 5047,
      "jewish": 5048,
      "scow": 5049,
      "maggie": 5050,
      "retire": 5051,
      "chest": 5052,
      "foss": 5053,
      "dered": 5054,
      "sigh": 5055,
      "artist": 5056,
      "consideration": 5057,
      "covering": 5058,
      "released": 5059,
      "asm": 5060,
      "usal": 5061,
      "friday": 5062,
      "angel": 5063,
      "burst": 5064,
      "pull": 5065,
      "objects": 5066,
      "remarkable": 5067,
      "goals": 5068,
      "quietly": 5069,
      "pocket": 5070,
      "gency": 5071,
      "compon": 5072,
      "communities": 5073,
      "countryside": 5074,
      "specialist": 5075,
      "amongst": 5076,
      "trent": 5077,
      "dexter": 5078,
      "mole": 5079,
      "worried": 5080,
      "1977": 5081,
      "cere": 5082,
      "returning": 5083,
      "sheep": 5084,
      "itely": 5085,
      "ptions": 5086,
      "jun": 5087,
      "uted": 5088,
      "trous": 5089,
      "centuries": 5090,
      "colours": 5091,
      "coloured": 5092,
      "regime": 5093,
      "logist": 5094,
      "regularly": 5095,
      "communication": 5096,
      "complic": 5097,
      "drag": 5098,
      "yorkshire": 5099,
      "bureaucr": 5100,
      "depos": 5101,
      "abol": 5102,
      "pressing": 5103,
      "smiling": 5104,
      "dominated": 5105,
      "subsequently": 5106,
      "expansion": 5107,
      "dressed": 5108,
      "lewis": 5109,
      "unions": 5110,
      "peas": 5111,
      "boards": 5112,
      "string": 5113,
      "missing": 5114,
      "realized": 5115,
      "limits": 5116,
      "massive": 5117,
      "combination": 5118,
      "schol": 5119,
      "customer": 5120,
      "crowd": 5121,
      "gained": 5122,
      "sched": 5123,
      "tests": 5124,
      "sentence": 5125,
      "games": 5126,
      "rocks": 5127,
      "plat": 5128,
      "shell": 5129,
      "berg": 5130,
      "bern": 5131,
      "intervent": 5132,
      "calling": 5133,
      "paintings": 5134,
      "hi": 5135,
      "agents": 5136,
      "trem": 5137,
      "paying": 5138,
      "graphical": 5139,
      "inn": 5140,
      "remove": 5141,
      "abroad": 5142,
      "connection": 5143,
      "split": 5144,
      "lucky": 5145,
      "liquid": 5146,
      "era": 5147,
      "tower": 5148,
      "finish": 5149,
      "faction": 5150,
      "germans": 5151,
      "assets": 5152,
      "channel": 5153,
      "margin": 5154,
      "attended": 5155,
      "identify": 5156,
      "spoken": 5157,
      "distinction": 5158,
      "stup": 5159,
      "bars": 5160,
      "nerv": 5161,
      "sites": 5162,
      "trading": 5163,
      "fifth": 5164,
      "spanish": 5165,
      "unusual": 5166,
      "monday": 5167,
      "logists": 5168,
      "ville": 5169,
      "badly": 5170,
      "originally": 5171,
      "chancellor": 5172,
      "global": 5173,
      "improvement": 5174,
      "technique": 5175,
      "implications": 5176,
      "vehicle": 5177,
      "diction": 5178,
      "egy": 5179,
      "fan": 5180,
      "reply": 5181,
      "uncle": 5182,
      "guests": 5183,
      "organised": 5184,
      "informed": 5185,
      "cliffe": 5186,
      "procedures": 5187,
      "chapel": 5188,
      "sax": 5189,
      "kings": 5190,
      "minimum": 5191,
      "shortly": 5192,
      "tess": 5193,
      "reward": 5194,
      "alan": 5195,
      "onel": 5196,
      "lovely": 5197,
      "arguments": 5198,
      "gradually": 5199,
      "valuable": 5200,
      "absolutely": 5201,
      "ai": 5202,
      "tram": 5203,
      "reader": 5204,
      "stands": 5205,
      "directed": 5206,
      "depends": 5207,
      "believes": 5208,
      "dominant": 5209,
      "elderly": 5210,
      "alli": 5211,
      "yours": 5212,
      "valid": 5213,
      "identity": 5214,
      "iciently": 5215,
      "yield": 5216,
      "paralle": 5217,
      "antic": 5218,
      "founded": 5219,
      "1976": 5220,
      "150": 5221,
      "mothers": 5222,
      "similarly": 5223,
      "representation": 5224,
      "strategic": 5225,
      "tong": 5226,
      "orches": 5227,
      "forty": 5228,
      "cole": 5229,
      "external": 5230,
      "wool": 5231,
      "els": 5232,
      "tasks": 5233,
      "whisper": 5234,
      "interpretation": 5235,
      "attribut": 5236,
      "chor": 5237,
      "creating": 5238,
      "mont": 5239,
      "printed": 5240,
      "periods": 5241,
      "criter": 5242,
      "survive": 5243,
      "exerc": 5244,
      "alter": 5245,
      "rier": 5246,
      "ums": 5247,
      "surve": 5248,
      "compens": 5249,
      "glanced": 5250,
      "stages": 5251,
      "seed": 5252,
      "resort": 5253,
      "preach": 5254,
      "buried": 5255,
      "leads": 5256,
      "refuge": 5257,
      "recognized": 5258,
      "honour": 5259,
      "talks": 5260,
      "glor": 5261,
      "1960s": 5262,
      "towns": 5263,
      "chemistry": 5264,
      "yu": 5265,
      "cert": 5266,
      "charity": 5267,
      "xture": 5268,
      "injury": 5269,
      "sper": 5270,
      "ica": 5271,
      "extension": 5272,
      "heading": 5273,
      "pointing": 5274,
      "inspector": 5275,
      "convinced": 5276,
      "chamber": 5277,
      "perspective": 5278,
      "poe": 5279,
      "ishment": 5280,
      "musical": 5281,
      "involving": 5282,
      "description": 5283,
      "indicated": 5284,
      "efficient": 5285,
      "settlement": 5286,
      "provisions": 5287,
      "whit": 5288,
      "defeat": 5289,
      "posure": 5290,
      "exha": 5291,
      "resto": 5292,
      "holl": 5293,
      "prize": 5294,
      "steam": 5295,
      "driven": 5296,
      "session": 5297,
      "awareness": 5298,
      "sensitive": 5299,
      "proposal": 5300,
      "climate": 5301,
      "leapor": 5302,
      "exhaust": 5303,
      "rhy": 5304,
      "cel": 5305,
      "proud": 5306,
      "shore": 5307,
      "classic": 5308,
      "assistance": 5309,
      "issa": 5310,
      "itim": 5311,
      "seal": 5312,
      "agger": 5313,
      "headed": 5314,
      "thinks": 5315,
      "organic": 5316,
      "advoc": 5317,
      "drove": 5318,
      "launched": 5319,
      "accompanied": 5320,
      "tap": 5321,
      "ano": 5322,
      "strict": 5323,
      "store": 5324,
      "statut": 5325,
      "objective": 5326,
      "twist": 5327,
      "exception": 5328,
      "democracy": 5329,
      "assumed": 5330,
      "criticism": 5331,
      "mam": 5332,
      "wives": 5333,
      "....": 5334,
      "crete": 5335,
      "cheese": 5336,
      "payments": 5337,
      "describe": 5338,
      "imperial": 5339,
      "enterprise": 5340,
      "rand": 5341,
      "ourselves": 5342,
      "thorough": 5343,
      "striking": 5344,
      "hanging": 5345,
      "hidden": 5346,
      "matthew": 5347,
      "nd": 5348,
      "ense": 5349,
      "contem": 5350,
      "aved": 5351,
      "sels": 5352,
      "cers": 5353,
      "gam": 5354,
      "hone": 5355,
      "hide": 5356,
      "rical": 5357,
      "promin": 5358,
      "trail": 5359,
      "brilli": 5360,
      "visual": 5361,
      "lux": 5362,
      "hills": 5363,
      "ont": 5364,
      "nock": 5365,
      "shak": 5366,
      "ife": 5367,
      "stephen": 5368,
      "classical": 5369,
      "client": 5370,
      "industries": 5371,
      "mistake": 5372,
      "scientists": 5373,
      "fabric": 5374,
      "mm": 5375,
      "isms": 5376,
      "comed": 5377,
      "tip": 5378,
      "switch": 5379,
      "statutory": 5380,
      "cree": 5381,
      "ows": 5382,
      "pian": 5383,
      "itated": 5384,
      "farmer": 5385,
      "1975": 5386,
      "uniform": 5387,
      "driver": 5388,
      "laboratory": 5389,
      "lap": 5390,
      "vac": 5391,
      "vest": 5392,
      "retain": 5393,
      "pover": 5394,
      "casting": 5395,
      "russia": 5396,
      "estimated": 5397,
      "reci": 5398,
      "unfortunately": 5399,
      "outcome": 5400,
      "chel": 5401,
      "approx": 5402,
      "meanwhile": 5403,
      "flood": 5404,
      "nearby": 5405,
      "cells": 5406,
      "lifted": 5407,
      "cotton": 5408,
      "ride": 5409,
      "images": 5410,
      "explic": 5411,
      "hopes": 5412,
      "cycle": 5413,
      "stars": 5414,
      "listening": 5415,
      "corporation": 5416,
      "threatened": 5417,
      "francis": 5418,
      "vig": 5419,
      "attered": 5420,
      "asy": 5421,
      "stan": 5422,
      "interpre": 5423,
      "cali": 5424,
      "committees": 5425,
      "smoke": 5426,
      "efficiency": 5427,
      "85": 5428,
      "scul": 5429,
      "fled": 5430,
      "flour": 5431,
      "manufacturing": 5432,
      "gian": 5433,
      "imposed": 5434,
      "neat": 5435,
      "advent": 5436,
      "allowing": 5437,
      "stupid": 5438,
      "gers": 5439,
      "bearing": 5440,
      "iders": 5441,
      "raising": 5442,
      "omen": 5443,
      "betty": 5444,
      "artists": 5445,
      "holder": 5446,
      "healthy": 5447,
      "anxious": 5448,
      "pse": 5449,
      "inson": 5450,
      "option": 5451,
      "persons": 5452,
      "kh": 5453,
      "mers": 5454,
      "rim": 5455,
      "corrid": 5456,
      "shoes": 5457,
      "barbar": 5458,
      "zeal": 5459,
      "hydro": 5460,
      "succeeded": 5461,
      "satisfied": 5462,
      "tay": 5463,
      "rian": 5464,
      "plum": 5465,
      "print": 5466,
      "guid": 5467,
      "successfully": 5468,
      "characteristic": 5469,
      "mountains": 5470,
      "contains": 5471,
      "sustain": 5472,
      "ku": 5473,
      "expl": 5474,
      "gra": 5475,
      "aven": 5476,
      "mature": 5477,
      "publication": 5478,
      "harris": 5479,
      "approaches": 5480,
      "rejected": 5481,
      "44": 5482,
      "umph": 5483,
      "specul": 5484,
      "harry": 5485,
      "helping": 5486,
      "societies": 5487,
      "reaching": 5488,
      "situations": 5489,
      "ome": 5490,
      "fergus": 5491,
      "allows": 5492,
      "modest": 5493,
      "sophis": 5494,
      "guilty": 5495,
      "intervention": 5496,
      "desc": 5497,
      "cester": 5498,
      "puts": 5499,
      "funding": 5500,
      "eggs": 5501,
      "outer": 5502,
      "anda": 5503,
      "moscow": 5504,
      "agencies": 5505,
      "destru": 5506,
      "introduce": 5507,
      "located": 5508,
      "constitu": 5509,
      "bowl": 5510,
      "phase": 5511,
      "sees": 5512,
      "ria": 5513,
      "shirt": 5514,
      "notion": 5515,
      "grim": 5516,
      "grace": 5517,
      "intent": 5518,
      "directors": 5519,
      "elections": 5520,
      "dependent": 5521,
      "literary": 5522,
      "jacket": 5523,
      "framework": 5524,
      "knife": 5525,
      "entrance": 5526,
      "poetry": 5527,
      "foun": 5528,
      "ml": 5529,
      "chick": 5530,
      "losing": 5531,
      "conform": 5532,
      "conservatives": 5533,
      "arrival": 5534,
      "african": 5535,
      "andrew": 5536,
      "sergeant": 5537,
      "sive": 5538,
      "inct": 5539,
      "begins": 5540,
      "ares": 5541,
      "maid": 5542,
      "tape": 5543,
      "duke": 5544,
      "voices": 5545,
      "horiz": 5546,
      "throat": 5547,
      "insisted": 5548,
      "sophistic": 5549,
      "ache": 5550,
      "tied": 5551,
      "intend": 5552,
      "numerous": 5553,
      "flower": 5554,
      "competitive": 5555,
      "issions": 5556,
      "concerns": 5557,
      "bone": 5558,
      "juni": 5559,
      "rach": 5560,
      "nings": 5561,
      "colleg": 5562,
      "aims": 5563,
      "mixture": 5564,
      "ladies": 5565,
      "characteristics": 5566,
      "400": 5567,
      "nick": 5568,
      "cow": 5569,
      "manif": 5570,
      "makers": 5571,
      "intim": 5572,
      "readers": 5573,
      "triumph": 5574,
      "greatly": 5575,
      ".].": 5576,
      "pene": 5577,
      "representative": 5578,
      "clubs": 5579,
      "assume": 5580,
      "victoria": 5581,
      "proceedings": 5582,
      "oring": 5583,
      "haz": 5584,
      "optim": 5585,
      "drinking": 5586,
      "federal": 5587,
      "routine": 5588,
      "savings": 5589,
      "kis": 5590,
      "zer": 5591,
      "chat": 5592,
      "core": 5593,
      "coins": 5594,
      "users": 5595,
      "player": 5596,
      "transl": 5597,
      "inese": 5598,
      "answered": 5599,
      "religion": 5600,
      "coin": 5601,
      "export": 5602,
      "blame": 5603,
      "berlin": 5604,
      "affair": 5605,
      "kylie": 5606,
      "participation": 5607,
      "cottage": 5608,
      "palestin": 5609,
      "oting": 5610,
      "ya": 5611,
      "travelling": 5612,
      "substit": 5613,
      "songs": 5614,
      "leban": 5615,
      "pregn": 5616,
      "cycl": 5617,
      "casual": 5618,
      "1974": 5619,
      "eleven": 5620,
      "forests": 5621,
      "frequent": 5622,
      "dial": 5623,
      "theories": 5624,
      "superi": 5625,
      "susan": 5626,
      "persist": 5627,
      "temperature": 5628,
      "portrait": 5629,
      "pear": 5630,
      "newly": 5631,
      "donald": 5632,
      "breaking": 5633,
      "considering": 5634,
      "mirror": 5635,
      "restaurant": 5636,
      "jur": 5637,
      "los": 5638,
      "mail": 5639,
      "pren": 5640,
      "tenance": 5641,
      "assembly": 5642,
      "fiction": 5643,
      "oak": 5644,
      "exposure": 5645,
      "boats": 5646,
      "cather": 5647,
      "distant": 5648,
      "controver": 5649,
      "1970": 5650,
      "pipe": 5651,
      "victorian": 5652,
      "shouted": 5653,
      "lud": 5654,
      "tum": 5655,
      "icket": 5656,
      "roots": 5657,
      "worker": 5658,
      "porter": 5659,
      "finds": 5660,
      "score": 5661,
      "representatives": 5662,
      "experiments": 5663,
      "hundreds": 5664,
      "photographs": 5665,
      "cous": 5666,
      "dale": 5667,
      "pc": 5668,
      "enders": 5669,
      "canal": 5670,
      "ictions": 5671,
      "echo": 5672,
      "inary": 5673,
      "amaz": 5674,
      "fox": 5675,
      "marine": 5676,
      "disappeared": 5677,
      "drain": 5678,
      "williams": 5679,
      "occasions": 5680,
      "advantages": 5681,
      "administrative": 5682,
      "territory": 5683,
      "divid": 5684,
      "altogether": 5685,
      "mann": 5686,
      "sailing": 5687,
      "spite": 5688,
      "seconds": 5689,
      "signed": 5690,
      "petition": 5691,
      "crossed": 5692,
      "briefly": 5693,
      "architecture": 5694,
      "phenomen": 5695,
      "enthusiasm": 5696,
      "47": 5697,
      "eg": 5698,
      "eration": 5699,
      "reception": 5700,
      "chinese": 5701,
      "ads": 5702,
      "compass": 5703,
      "businesses": 5704,
      "heaven": 5705,
      "inevit": 5706,
      "89": 5707,
      "ione": 5708,
      "pread": 5709,
      "increases": 5710,
      "weapons": 5711,
      "fisher": 5712,
      "supporters": 5713,
      "comprehensive": 5714,
      "wire": 5715,
      "emper": 5716,
      "evil": 5717,
      "greek": 5718,
      "documents": 5719,
      "rugby": 5720,
      "bits": 5721,
      "cater": 5722,
      "peak": 5723,
      "keys": 5724,
      "landscape": 5725,
      "brush": 5726,
      "87": 5727,
      "bang": 5728,
      "kir": 5729,
      "essentially": 5730,
      "oppon": 5731,
      "courage": 5732,
      "legitim": 5733,
      "dying": 5734,
      "termine": 5735,
      "duties": 5736,
      "priority": 5737,
      "istol": 5738,
      "flesh": 5739,
      "eleg": 5740,
      "hr": 5741,
      "wides": 5742,
      "anna": 5743,
      "orange": 5744,
      "ictive": 5745,
      "determine": 5746,
      "embr": 5747,
      "prev": 5748,
      "happening": 5749,
      "swed": 5750,
      "connected": 5751,
      "false": 5752,
      "residential": 5753,
      "hem": 5754,
      "cia": 5755,
      "foli": 5756,
      "acks": 5757,
      "tonight": 5758,
      "wallow": 5759,
      "1973": 5760,
      "councils": 5761,
      "collected": 5762,
      "holidays": 5763,
      "investigation": 5764,
      "(£": 5765,
      "fought": 5766,
      "arthur": 5767,
      "icing": 5768,
      "geon": 5769,
      "shr": 5770,
      "offences": 5771,
      "turns": 5772,
      "involves": 5773,
      "languages": 5774,
      "nicholson": 5775,
      "catherine": 5776,
      "cue": 5777,
      "flying": 5778,
      "tended": 5779,
      "convict": 5780,
      "abilities": 5781,
      "aston": 5782,
      "sia": 5783,
      "1993": 5784,
      "sounded": 5785,
      "consequence": 5786,
      "precisely": 5787,
      "widespread": 5788,
      "hate": 5789,
      "plot": 5790,
      "thy": 5791,
      "stall": 5792,
      "adap": 5793,
      "deli": 5794,
      "confirm": 5795,
      "emen": 5796,
      "morris": 5797,
      "writes": 5798,
      "westminster": 5799,
      "recognise": 5800,
      "managing": 5801,
      "soldiers": 5802,
      "thrown": 5803,
      "scarlet": 5804,
      "licensing": 5805,
      "presumably": 5806,
      "guidance": 5807,
      "cards": 5808,
      "jord": 5809,
      "retail": 5810,
      "riot": 5811,
      "usions": 5812,
      "secondary": 5813,
      "bella": 5814,
      "resistance": 5815,
      "een": 5816,
      "sadd": 5817,
      "mentally": 5818,
      "falls": 5819,
      "truly": 5820,
      "spokes": 5821,
      "indicate": 5822,
      "minority": 5823,
      "electronic": 5824,
      "pow": 5825,
      "fears": 5826,
      "agu": 5827,
      "flor": 5828,
      "burning": 5829,
      "woods": 5830,
      "fifteen": 5831,
      "’;": 5832,
      "ality": 5833,
      "itals": 5834,
      "chop": 5835,
      "mathem": 5836,
      "marsh": 5837,
      "depth": 5838,
      "index": 5839,
      "diesel": 5840,
      "satisfaction": 5841,
      "discipline": 5842,
      ".),": 5843,
      "bum": 5844,
      "hire": 5845,
      "insp": 5846,
      "opera": 5847,
      "erosion": 5848,
      "stimulus": 5849,
      "swimming": 5850,
      "racha": 5851,
      "kil": 5852,
      "tables": 5853,
      "inch": 5854,
      "intr": 5855,
      "exposed": 5856,
      "fewer": 5857,
      "blin": 5858,
      "servants": 5859,
      "warned": 5860,
      "copies": 5861,
      "mungo": 5862,
      "ee": 5863,
      "pine": 5864,
      "riding": 5865,
      "intense": 5866,
      "leeds": 5867,
      "sect": 5868,
      "brass": 5869,
      "films": 5870,
      "demanded": 5871,
      "initially": 5872,
      "electricity": 5873,
      "eighteenth": 5874,
      "resolution": 5875,
      "edition": 5876,
      "stiff": 5877,
      "rolled": 5878,
      "unity": 5879,
      "pep": 5880,
      "tration": 5881,
      "readily": 5882,
      "visiting": 5883,
      "continues": 5884,
      "vit": 5885,
      "unknown": 5886,
      "sav": 5887,
      "approval": 5888,
      "paint": 5889,
      "medium": 5890,
      "cumul": 5891,
      "cleaning": 5892,
      "instruments": 5893,
      "negative": 5894,
      "dwell": 5895,
      "iny": 5896,
      "farming": 5897,
      "plays": 5898,
      "165": 5899,
      "staring": 5900,
      "teams": 5901,
      "survived": 5902,
      "rachaela": 5903,
      "fav": 5904,
      "lone": 5905,
      "alexe": 5906,
      "prose": 5907,
      "doctors": 5908,
      "bless": 5909,
      "undou": 5910,
      "ashing": 5911,
      "diet": 5912,
      "restricted": 5913,
      "relax": 5914,
      "oliver": 5915,
      "pher": 5916,
      "ador": 5917,
      "colonel": 5918,
      "everybody": 5919,
      "dynam": 5920,
      "approved": 5921,
      "wednes": 5922,
      "preferred": 5923,
      "storm": 5924,
      "tunnel": 5925,
      "partnership": 5926,
      "accurate": 5927,
      "rice": 5928,
      "asia": 5929,
      "sake": 5930,
      "polar": 5931,
      "primarily": 5932,
      "recommended": 5933,
      "selected": 5934,
      "retired": 5935,
      "dolphins": 5936,
      "undoubted": 5937,
      "71": 5938,
      "bby": 5939,
      "ki": 5940,
      "ampton": 5941,
      "rie": 5942,
      "eved": 5943,
      "suring": 5944,
      "oblig": 5945,
      "denied": 5946,
      "diary": 5947,
      "steady": 5948,
      "sympath": 5949,
      "occasional": 5950,
      "promotion": 5951,
      "concentration": 5952,
      "constructed": 5953,
      "colleges": 5954,
      "alexei": 5955,
      "92": 5956,
      "fier": 5957,
      "oft": 5958,
      "moments": 5959,
      "moves": 5960,
      "endill": 5961,
      "posing": 5962,
      "touched": 5963,
      "scarce": 5964,
      "consistent": 5965,
      "acknowled": 5966,
      "explicit": 5967,
      "48": 5968,
      "aunt": 5969,
      "cass": 5970,
      "dere": 5971,
      "waves": 5972,
      "poems": 5973,
      "statements": 5974,
      "cuts": 5975,
      "posts": 5976,
      "bigger": 5977,
      "graphic": 5978,
      "containing": 5979,
      "consumption": 5980,
      "liani": 5981,
      "ignored": 5982,
      "deputy": 5983,
      "anthony": 5984,
      "bours": 5985,
      "vy": 5986,
      "roles": 5987,
      "positions": 5988,
      "dublin": 5989,
      "listed": 5990,
      "confess": 5991,
      "sample": 5992,
      "comparison": 5993,
      "illustrated": 5994,
      "aqu": 5995,
      "code": 5996,
      "prop": 5997,
      "grate": 5998,
      "bron": 5999,
      "mini": 6000,
      "donna": 6001,
      "funny": 6002,
      "constantly": 6003,
      "distinguished": 6004,
      "(‘": 6005,
      "behalf": 6006,
      "somebody": 6007,
      "spin": 6008,
      "overseas": 6009,
      "tells": 6010,
      "practices": 6011,
      "arrangement": 6012,
      "newspapers": 6013,
      "phrase": 6014,
      "jon": 6015,
      "anywhere": 6016,
      "sip": 6017,
      "realise": 6018,
      "privile": 6019,
      "experiences": 6020,
      "extraordinary": 6021,
      "exciting": 6022,
      "strengthen": 6023,
      "apple": 6024,
      "options": 6025,
      "cheer": 6026,
      "patron": 6027,
      "socialist": 6028,
      "starts": 6029,
      "determination": 6030,
      "revenue": 6031,
      "discovery": 6032,
      "ocean": 6033,
      "lloy": 6034,
      "ille": 6035,
      "parad": 6036,
      "privat": 6037,
      "churches": 6038,
      "modig": 6039,
      "terrace": 6040,
      "stuck": 6041,
      "nervous": 6042,
      "pace": 6043,
      "chal": 6044,
      "walter": 6045,
      "winner": 6046,
      "considerably": 6047,
      "characters": 6048,
      "pupil": 6049,
      "strategies": 6050,
      "inevitably": 6051,
      "modigliani": 6052,
      "kong": 6053,
      "clay": 6054,
      "frustr": 6055,
      "decades": 6056,
      "divor": 6057,
      "fleet": 6058,
      "agriculture": 6059,
      "treasury": 6060,
      "42": 6061,
      "88": 6062,
      "rover": 6063,
      "wea": 6064,
      "enda": 6065,
      "weren": 6066,
      "cried": 6067,
      "1971": 6068,
      "structural": 6069,
      "engineers": 6070,
      "machines": 6071,
      "inevitable": 6072,
      "seventeen": 6073,
      "theoret": 6074,
      "medicine": 6075,
      "taylor": 6076,
      "ication": 6077,
      "exceed": 6078,
      "merchant": 6079,
      "alongside": 6080,
      "kinnock": 6081,
      "pti": 6082,
      "inquiry": 6083,
      "orous": 6084,
      "parti": 6085,
      "ears": 6086,
      "backed": 6087,
      "chose": 6088,
      "engaged": 6089,
      "compound": 6090,
      "furn": 6091,
      "threw": 6092,
      "tware": 6093,
      "sharply": 6094,
      "racing": 6095,
      "initiative": 6096,
      "giant": 6097,
      "citizens": 6098,
      "constitutional": 6099,
      "currency": 6100,
      "poverty": 6101,
      "ambit": 6102,
      "airport": 6103,
      "patch": 6104,
      "machin": 6105,
      "amounts": 6106,
      "narrative": 6107,
      "emperor": 6108,
      "lé": 6109,
      "marry": 6110,
      "subordin": 6111,
      "stein": 6112,
      "varied": 6113,
      "informal": 6114,
      "processing": 6115,
      "sequence": 6116,
      "statistics": 6117,
      "stepped": 6118,
      "laughing": 6119,
      "software": 6120,
      "register": 6121,
      "coleman": 6122,
      "hong": 6123,
      "adults": 6124,
      "meals": 6125,
      "comments": 6126,
      "upset": 6127,
      "pride": 6128,
      "aving": 6129,
      "raw": 6130,
      "interior": 6131,
      "publis": 6132,
      "shopping": 6133,
      "prepare": 6134,
      "sacrif": 6135,
      "din": 6136,
      "vated": 6137,
      "icy": 6138,
      "ida": 6139,
      "som": 6140,
      "illness": 6141,
      "actors": 6142,
      "cathe": 6143,
      "jews": 6144,
      "hunting": 6145,
      "protestant": 6146,
      "shaped": 6147,
      "criteria": 6148,
      "resem": 6149,
      "acle": 6150,
      "burden": 6151,
      "foundation": 6152,
      "divers": 6153,
      "attempted": 6154,
      "democrats": 6155,
      "bathroom": 6156,
      "gift": 6157,
      "approxim": 6158,
      "aus": 6159,
      "dir": 6160,
      "gon": 6161,
      "quer": 6162,
      "tier": 6163,
      "charlie": 6164,
      "planet": 6165,
      "archy": 6166,
      "skill": 6167,
      "scots": 6168,
      "policeman": 6169,
      "weakness": 6170,
      "desert": 6171,
      "dispute": 6172,
      "abandoned": 6173,
      "certific": 6174,
      "cc": 6175,
      "yle": 6176,
      "inity": 6177,
      "anc": 6178,
      "ensu": 6179,
      "decre": 6180,
      "prosper": 6181,
      "aine": 6182,
      "permitted": 6183,
      "contents": 6184,
      "maintenance": 6185,
      "breast": 6186,
      "cribed": 6187,
      "wednesday": 6188,
      "ders": 6189,
      "beer": 6190,
      "unexpected": 6191,
      "fees": 6192,
      "sheets": 6193,
      "brad": 6194,
      "genet": 6195,
      "loyal": 6196,
      "175": 6197,
      "personality": 6198,
      "surprisingly": 6199,
      "supplies": 6200,
      "49": 6201,
      "77": 6202,
      "sink": 6203,
      "uel": 6204,
      "regre": 6205,
      "remed": 6206,
      "encing": 6207,
      "weigh": 6208,
      "sharing": 6209,
      "orton": 6210,
      "myth": 6211,
      "articles": 6212,
      "norman": 6213,
      "gathered": 6214,
      "circul": 6215,
      "auton": 6216,
      "applications": 6217,
      "niture": 6218,
      "pounds": 6219,
      "ician": 6220,
      "fet": 6221,
      "everywhere": 6222,
      "furniture": 6223,
      "neglect": 6224,
      "surrounding": 6225,
      "retirement": 6226,
      "superior": 6227,
      "mare": 6228,
      "escap": 6229,
      "exists": 6230,
      "composition": 6231,
      "chocol": 6232,
      "priest": 6233,
      "dio": 6234,
      "kit": 6235,
      "lers": 6236,
      "atically": 6237,
      "compr": 6238,
      "grat": 6239,
      "ieth": 6240,
      "crew": 6241,
      "genes": 6242,
      "clever": 6243,
      "supplied": 6244,
      "closing": 6245,
      "feels": 6246,
      "confusion": 6247,
      "wycliffe": 6248,
      "cathedr": 6249,
      ",(": 6250,
      "wright": 6251,
      "essex": 6252,
      "illing": 6253,
      "adding": 6254,
      "designs": 6255,
      "bankrupt": 6256,
      "fitting": 6257,
      "treaty": 6258,
      "remote": 6259,
      "destroyed": 6260,
      "ultimately": 6261,
      "sculpt": 6262,
      "tues": 6263,
      "toler": 6264,
      "coe": 6265,
      "shouldn": 6266,
      "drum": 6267,
      "draft": 6268,
      "existed": 6269,
      "violent": 6270,
      "excite": 6271,
      "concentrated": 6272,
      "tongue": 6273,
      "93": 6274,
      "jum": 6275,
      "atl": 6276,
      "concrete": 6277,
      "ounced": 6278,
      "derby": 6279,
      "desir": 6280,
      "column": 6281,
      "ucing": 6282,
      "fix": 6283,
      "humour": 6284,
      "feeding": 6285,
      "spar": 6286,
      "til": 6287,
      "tank": 6288,
      "mob": 6289,
      "haw": 6290,
      "brings": 6291,
      "derived": 6292,
      "singing": 6293,
      "examined": 6294,
      "targets": 6295,
      "fasc": 6296,
      "fascin": 6297,
      "distinctive": 6298,
      "louis": 6299,
      "66": 6300,
      "mau": 6301,
      "inations": 6302,
      "icking": 6303,
      "stam": 6304,
      "robe": 6305,
      "orted": 6306,
      "patrick": 6307,
      "travelled": 6308,
      "losses": 6309,
      "spiritual": 6310,
      "promote": 6311,
      "neighbours": 6312,
      "manufacturers": 6313,
      "impressive": 6314,
      "41": 6315,
      "adapt": 6316,
      "unte": 6317,
      "aber": 6318,
      "presentation": 6319,
      "virgin": 6320,
      "darwin": 6321,
      "slipped": 6322,
      "assault": 6323,
      "jordan": 6324,
      "undoubtedly": 6325,
      "600": 6326,
      "gle": 6327,
      "thum": 6328,
      "asso": 6329,
      "dozen": 6330,
      "printer": 6331,
      "1972": 6332,
      "minds": 6333,
      "describes": 6334,
      "cinem": 6335,
      "preparation": 6336,
      "vulner": 6337,
      "):": 6338,
      "cil": 6339,
      "rant": 6340,
      "iser": 6341,
      "ilton": 6342,
      "ams": 6343,
      "gos": 6344,
      "helpful": 6345,
      "lucy": 6346,
      "besides": 6347,
      "twentieth": 6348,
      "speaker": 6349,
      "enemy": 6350,
      "parallel": 6351,
      "kids": 6352,
      "ancing": 6353,
      "asion": 6354,
      "ller": 6355,
      "asty": 6356,
      "controls": 6357,
      "aimed": 6358,
      "volunte": 6359,
      "tories": 6360,
      "masters": 6361,
      "qualities": 6362,
      "shareholders": 6363,
      "suggestion": 6364,
      "concentrate": 6365,
      "handicapped": 6366,
      "swallow": 6367,
      "incorpor": 6368,
      "stair": 6369,
      "flag": 6370,
      "concerning": 6371,
      "constance": 6372,
      "placing": 6373,
      "tested": 6374,
      "concluded": 6375,
      "defendant": 6376,
      "anxiety": 6377,
      "jimmy": 6378,
      "dread": 6379,
      "fishing": 6380,
      "hart": 6381,
      "ading": 6382,
      "outstanding": 6383,
      "worn": 6384,
      "minim": 6385,
      "ipul": 6386,
      "curious": 6387,
      "engineer": 6388,
      "accused": 6389,
      "possession": 6390,
      "ownership": 6391,
      "stretched": 6392,
      "lasmo": 6393,
      "hs": 6394,
      "arest": 6395,
      "urer": 6396,
      "holes": 6397,
      "plural": 6398,
      "bol": 6399,
      "anybody": 6400,
      "brook": 6401,
      "examine": 6402,
      "printing": 6403,
      "constable": 6404,
      "experts": 6405,
      "hospitals": 6406,
      "gentleman": 6407,
      "thurs": 6408,
      "categories": 6409,
      "glow": 6410,
      "mould": 6411,
      "pip": 6412,
      "pione": 6413,
      "vet": 6414,
      "loth": 6415,
      "dow": 6416,
      "notably": 6417,
      "contest": 6418,
      "studio": 6419,
      "monet": 6420,
      "silk": 6421,
      "worthy": 6422,
      "specifically": 6423,
      "requirement": 6424,
      "registered": 6425,
      "alliance": 6426,
      "delivery": 6427,
      "gang": 6428,
      "hut": 6429,
      "ert": 6430,
      "retained": 6431,
      "confined": 6432,
      "mart": 6433,
      "atively": 6434,
      "tendency": 6435,
      "imagination": 6436,
      "encouraging": 6437,
      "assured": 6438,
      "complicated": 6439,
      "gig": 6440,
      "och": 6441,
      "boss": 6442,
      "interrup": 6443,
      "thrust": 6444,
      "supplement": 6445,
      "relating": 6446,
      "magne": 6447,
      "qualified": 6448,
      "penalty": 6449,
      "dutch": 6450,
      "filling": 6451,
      "guarantee": 6452,
      "camera": 6453,
      "pto": 6454,
      "tid": 6455,
      "boots": 6456,
      "culti": 6457,
      "metaph": 6458,
      "taxes": 6459,
      "occurs": 6460,
      "washing": 6461,
      "tutor": 6462,
      "category": 6463,
      "bernard": 6464,
      "43": 6465,
      "rober": 6466,
      "chu": 6467,
      "nomin": 6468,
      "rivers": 6469,
      "cult": 6470,
      "profile": 6471,
      "critics": 6472,
      "delivered": 6473,
      "trend": 6474,
      "organizations": 6475,
      "maurice": 6476,
      ",\"": 6477,
      "bapt": 6478,
      "baker": 6479,
      "twin": 6480,
      "permission": 6481,
      "umes": 6482,
      "spons": 6483,
      "spell": 6484,
      "visits": 6485,
      "caroline": 6486,
      "sophisticated": 6487,
      "mathemat": 6488,
      "machinery": 6489,
      ".).": 6490,
      "pent": 6491,
      "wand": 6492,
      "enjo": 6493,
      "beck": 6494,
      "keeper": 6495,
      "holly": 6496,
      "chairs": 6497,
      "dimin": 6498,
      "passengers": 6499,
      "dates": 6500,
      "gence": 6501,
      "jacqu": 6502,
      "nights": 6503,
      "vague": 6504,
      "wings": 6505,
      "zu": 6506,
      "poem": 6507,
      "percent": 6508,
      "artific": 6509,
      "invent": 6510,
      "stomach": 6511,
      "secured": 6512,
      "swift": 6513,
      "collapse": 6514,
      "pitch": 6515,
      "resource": 6516,
      "bore": 6517,
      "disaster": 6518,
      "crum": 6519,
      "petrol": 6520,
      "scand": 6521,
      "cretion": 6522,
      "significantly": 6523,
      "resulting": 6524,
      "grandfather": 6525,
      "alexander": 6526,
      "zealand": 6527,
      "cathedral": 6528,
      "gger": 6529,
      "lun": 6530,
      "usa": 6531,
      "curtains": 6532,
      "hypo": 6533,
      "layer": 6534,
      "arrive": 6535,
      "conducted": 6536,
      "chemicals": 6537,
      "pier": 6538,
      "loans": 6539,
      "degre": 6540,
      "clut": 6541,
      "pris": 6542,
      "joining": 6543,
      "angers": 6544,
      "matically": 6545,
      "voy": 6546,
      "receiving": 6547,
      "influenced": 6548,
      "sweep": 6549,
      "romantic": 6550,
      "beaten": 6551,
      "knees": 6552,
      "relaxed": 6553,
      "devoted": 6554,
      "honey": 6555,
      "prominent": 6556,
      "mn": 6557,
      "sid": 6558,
      "amen": 6559,
      "shaw": 6560,
      "grab": 6561,
      "causing": 6562,
      "charlot": 6563,
      "servant": 6564,
      "logic": 6565,
      "equity": 6566,
      "attracted": 6567,
      "killing": 6568,
      "demonstrated": 6569,
      "reminded": 6570,
      "arrested": 6571,
      "squee": 6572,
      "brilliant": 6573,
      "barbara": 6574,
      "68": 6575,
      "asle": 6576,
      "stake": 6577,
      "sulph": 6578,
      "shor": 6579,
      "bold": 6580,
      "underlying": 6581,
      "childhood": 6582,
      "helps": 6583,
      "generous": 6584,
      "contrad": 6585,
      "ression": 6586,
      "bristol": 6587,
      "partners": 6588,
      "epis": 6589,
      "explains": 6590,
      "survival": 6591,
      "alien": 6592,
      "250": 6593,
      "ridge": 6594,
      "cott": 6595,
      "vene": 6596,
      "breach": 6597,
      "otic": 6598,
      "metro": 6599,
      "universities": 6600,
      "christop": 6601,
      "emergency": 6602,
      "sufficiently": 6603,
      "consciousness": 6604,
      "alleged": 6605,
      "converted": 6606,
      "junior": 6607,
      "asleep": 6608,
      "aes": 6609,
      "pour": 6610,
      "arise": 6611,
      "liby": 6612,
      "ceiling": 6613,
      "clou": 6614,
      "spher": 6615,
      "listened": 6616,
      "approached": 6617,
      "mounted": 6618,
      "transferred": 6619,
      "reserve": 6620,
      "ckets": 6621,
      "rings": 6622,
      "thic": 6623,
      "rod": 6624,
      "supre": 6625,
      "addressed": 6626,
      "dealt": 6627,
      "contrary": 6628,
      "picasso": 6629,
      "barely": 6630,
      "christopher": 6631,
      "glim": 6632,
      "reforms": 6633,
      "1914": 6634,
      "reducing": 6635,
      "interval": 6636,
      "flavour": 6637,
      "guy": 6638,
      "instinct": 6639,
      "stronger": 6640,
      "symbol": 6641,
      "thursday": 6642,
      "bin": 6643,
      "dated": 6644,
      "pairs": 6645,
      "alarm": 6646,
      "leather": 6647,
      "secre": 6648,
      "mexic": 6649,
      "ghost": 6650,
      "hoping": 6651,
      "parish": 6652,
      "cloud": 6653,
      "afts": 6654,
      "extend": 6655,
      "contracts": 6656,
      "improving": 6657,
      "bulk": 6658,
      "substance": 6659,
      "preparing": 6660,
      "candidate": 6661,
      "canada": 6662,
      "junction": 6663,
      "inspired": 6664,
      "’)": 6665,
      "represents": 6666,
      "abuse": 6667,
      "rix": 6668,
      "drift": 6669,
      "princess": 6670,
      "gina": 6671,
      "crop": 6672,
      "acquis": 6673,
      "demonstrate": 6674,
      "faster": 6675,
      "tuesday": 6676,
      "charlotte": 6677,
      "gross": 6678,
      "mild": 6679,
      "wage": 6680,
      "chin": 6681,
      "risks": 6682,
      "winds": 6683,
      "acceptance": 6684,
      "geography": 6685,
      "morgan": 6686,
      "thel": 6687,
      "likes": 6688,
      "performed": 6689,
      "button": 6690,
      "ieties": 6691,
      "forming": 6692,
      "glance": 6693,
      "mike": 6694,
      "friendship": 6695,
      "package": 6696,
      "automatic": 6697,
      "negotiations": 6698,
      "dolphin": 6699,
      "gates": 6700,
      "pill": 6701,
      "zone": 6702,
      "condem": 6703,
      "wol": 6704,
      "pub": 6705,
      "handling": 6706,
      "potato": 6707,
      "departure": 6708,
      "cruel": 6709,
      "bourne": 6710,
      "fortunate": 6711,
      "shrugged": 6712,
      "recruit": 6713,
      "horizon": 6714,
      "prevail": 6715,
      "monetary": 6716,
      "46": 6717,
      "vas": 6718,
      "edges": 6719,
      "hev": 6720,
      "tels": 6721,
      "charter": 6722,
      "governor": 6723,
      "sensible": 6724,
      "borne": 6725,
      "fortune": 6726,
      "sixth": 6727,
      "luci": 6728,
      "plies": 6729,
      "instructions": 6730,
      "rhyth": 6731,
      "mack": 6732,
      "icit": 6733,
      "belt": 6734,
      "ctr": 6735,
      "colum": 6736,
      "obser": 6737,
      "memories": 6738,
      "lighting": 6739,
      "icester": 6740,
      "hammer": 6741,
      "employers": 6742,
      "magic": 6743,
      "occupation": 6744,
      "victims": 6745,
      "awarded": 6746,
      "handicap": 6747,
      "bind": 6748,
      "impressed": 6749,
      "poland": 6750,
      "doctr": 6751,
      "dispos": 6752,
      "farms": 6753,
      "beds": 6754,
      "responding": 6755,
      "resulted": 6756,
      "glasses": 6757,
      "packed": 6758,
      "dancing": 6759,
      "leaned": 6760,
      "distinguish": 6761,
      "frightened": 6762,
      "dum": 6763,
      "ule": 6764,
      "ister": 6765,
      "abstr": 6766,
      "compul": 6767,
      "addictive": 6768,
      "possibilities": 6769,
      "contributed": 6770,
      "innocent": 6771,
      "flexible": 6772,
      "deliberately": 6773,
      "dign": 6774,
      "file": 6775,
      "jar": 6776,
      "wan": 6777,
      "aling": 6778,
      "illust": 6779,
      "answers": 6780,
      "choo": 6781,
      "personnel": 6782,
      "reasonably": 6783,
      "councill": 6784,
      "investors": 6785,
      "responsibilities": 6786,
      "swept": 6787,
      "championship": 6788,
      "institutional": 6789,
      "eager": 6790,
      "egypt": 6791,
      "dick": 6792,
      "fate": 6793,
      "recall": 6794,
      "encoun": 6795,
      "defe": 6796,
      "saved": 6797,
      "foster": 6798,
      "clin": 6799,
      "disorder": 6800,
      "steep": 6801,
      "capt": 6802,
      "harder": 6803,
      "1967": 6804,
      "villages": 6805,
      "contributions": 6806,
      "threatening": 6807,
      "grapher": 6808,
      "79": 6809,
      "hier": 6810,
      "mult": 6811,
      "tent": 6812,
      "whel": 6813,
      "accumul": 6814,
      "urs": 6815,
      "anglo": 6816,
      "160": 6817,
      "lingu": 6818,
      "splend": 6819,
      "australian": 6820,
      "?\"": 6821,
      "dic": 6822,
      "loun": 6823,
      "envelo": 6824,
      "sover": 6825,
      "gear": 6826,
      "reliable": 6827,
      "spray": 6828,
      "sympa": 6829,
      "sleeping": 6830,
      "persuade": 6831,
      "perceived": 6832,
      "chocolate": 6833,
      "km": 6834,
      "rab": 6835,
      "alison": 6836,
      "item": 6837,
      "user": 6838,
      "clare": 6839,
      "profound": 6840,
      "johnny": 6841,
      "1969": 6842,
      "indication": 6843,
      "emotion": 6844,
      "judgement": 6845,
      "surrounded": 6846,
      "pushing": 6847,
      "radiation": 6848,
      "solicitor": 6849,
      "sauce": 6850,
      "bust": 6851,
      "scan": 6852,
      "sters": 6853,
      "leicester": 6854,
      "confront": 6855,
      "pron": 6856,
      "supporting": 6857,
      "practition": 6858,
      "silly": 6859,
      "azz": 6860,
      "bills": 6861,
      "gordon": 6862,
      "achievement": 6863,
      "cence": 6864,
      "dried": 6865,
      "wart": 6866,
      "loch": 6867,
      "boom": 6868,
      "ette": 6869,
      "ifications": 6870,
      "expense": 6871,
      "1968": 6872,
      "companion": 6873,
      "prisoners": 6874,
      "dressing": 6875,
      "scor": 6876,
      "assurance": 6877,
      "irs": 6878,
      "trace": 6879,
      "hamp": 6880,
      "differenti": 6881,
      "holds": 6882,
      "policemen": 6883,
      "bald": 6884,
      "cuit": 6885,
      "earliest": 6886,
      "attract": 6887,
      "adopt": 6888,
      "announce": 6889,
      "jacob": 6890,
      "variations": 6891,
      "mechanism": 6892,
      "lloyd": 6893,
      "excitement": 6894,
      "lum": 6895,
      "native": 6896,
      "shing": 6897,
      "dock": 6898,
      "tile": 6899,
      "foc": 6900,
      "emma": 6901,
      "angles": 6902,
      "puzz": 6903,
      "launch": 6904,
      "headquarters": 6905,
      "voters": 6906,
      "argues": 6907,
      "judges": 6908,
      "navy": 6909,
      "persuaded": 6910,
      "ritual": 6911,
      "dirty": 6912,
      "desirable": 6913,
      "kg": 6914,
      "oct": 6915,
      "aristo": 6916,
      "ghan": 6917,
      "bris": 6918,
      "cancer": 6919,
      "candidates": 6920,
      "corridor": 6921,
      "eh": 6922,
      "knight": 6923,
      "voc": 6924,
      "itative": 6925,
      "covers": 6926,
      "cooper": 6927,
      "poison": 6928,
      "shir": 6929,
      "notting": 6930,
      "pressures": 6931,
      "creatures": 6932,
      "closure": 6933,
      "generated": 6934,
      "naz": 6935,
      "bedrooms": 6936,
      "temple": 6937,
      "caspar": 6938,
      "paused": 6939,
      "pulling": 6940,
      "effectiveness": 6941,
      "summary": 6942,
      "millions": 6943,
      "specified": 6944,
      "samuel": 6945,
      "sympathy": 6946,
      "fancy": 6947,
      "sket": 6948,
      "stit": 6949,
      "mead": 6950,
      "sham": 6951,
      "aggress": 6952,
      "manor": 6953,
      "boswell": 6954,
      "curtain": 6955,
      "damp": 6956,
      "neighbourhood": 6957,
      "degrees": 6958,
      "hunt": 6959,
      "onic": 6960,
      "seeds": 6961,
      "bott": 6962,
      "thereby": 6963,
      "whenever": 6964,
      "overcome": 6965,
      "caster": 6966,
      "vien": 6967,
      "technic": 6968,
      "universal": 6969,
      "babies": 6970,
      "advertise": 6971,
      "orchestra": 6972,
      "mits": 6973,
      "iter": 6974,
      "nett": 6975,
      "ola": 6976,
      "backs": 6977,
      "labe": 6978,
      "votes": 6979,
      "harbour": 6980,
      "bench": 6981,
      "1950s": 6982,
      "gaining": 6983,
      "assumption": 6984,
      "weapon": 6985,
      "magnific": 6986,
      "fossil": 6987,
      "juris": 6988,
      "lothian": 6989,
      "dining": 6990,
      "rely": 6991,
      "oul": 6992,
      "astr": 6993,
      "rolling": 6994,
      "confer": 6995,
      "congreg": 6996,
      "render": 6997,
      "justified": 6998,
      "lessness": 6999,
      "organized": 7000,
      "ashes": 7001,
      "expectations": 7002,
      "anni": 7003,
      "tends": 7004,
      "colonial": 7005,
      "continental": 7006,
      "sighed": 7007,
      "atlantic": 7008,
      "78": 7009,
      "brow": 7010,
      "meter": 7011,
      "overwhel": 7012,
      "cricket": 7013,
      "responded": 7014,
      "balanced": 7015,
      "catalo": 7016,
      "punishment": 7017,
      "63": 7018,
      "91": 7019,
      "reign": 7020,
      "attain": 7021,
      "isle": 7022,
      "icting": 7023,
      "leis": 7024,
      "cooking": 7025,
      "trim": 7026,
      "brave": 7027,
      "fring": 7028,
      "buck": 7029,
      "checked": 7030,
      "gaze": 7031,
      "associations": 7032,
      "nament": 7033,
      "ruled": 7034,
      "satisfactory": 7035,
      "experimental": 7036,
      "vehicles": 7037,
      "monitoring": 7038,
      "ole": 7039,
      "alled": 7040,
      "indu": 7041,
      "ltd": 7042,
      "darling": 7043,
      "horror": 7044,
      "staying": 7045,
      "bull": 7046,
      "attacked": 7047,
      "boxes": 7048,
      "convention": 7049,
      "preserved": 7050,
      "delighted": 7051,
      "oly": 7052,
      "rally": 7053,
      "chances": 7054,
      "dox": 7055,
      "maria": 7056,
      "turkey": 7057,
      "lakes": 7058,
      "instant": 7059,
      "mount": 7060,
      "copper": 7061,
      "whispered": 7062,
      "artificial": 7063,
      "ience": 7064,
      "inspir": 7065,
      "bean": 7066,
      "cos": 7067,
      "cleared": 7068,
      "succession": 7069,
      "furthermore": 7070,
      "wondering": 7071,
      "advised": 7072,
      "prayer": 7073,
      "graham": 7074,
      "nia": 7075,
      "onie": 7076,
      "coinc": 7077,
      "novels": 7078,
      "ama": 7079,
      "straw": 7080,
      "engage": 7081,
      "medie": 7082,
      "lton": 7083,
      "glac": 7084,
      "monthly": 7085,
      "doub": 7086,
      "squad": 7087,
      "incere": 7088,
      "widow": 7089,
      "professionals": 7090,
      "gathering": 7091,
      "rag": 7092,
      "sending": 7093,
      "ensus": 7094,
      "roger": 7095,
      "ila": 7096,
      "acious": 7097,
      "convey": 7098,
      "hook": 7099,
      "commonly": 7100,
      "bisho": 7101,
      "climbed": 7102,
      "ignore": 7103,
      "theoretical": 7104,
      "roberts": 7105,
      "leys": 7106,
      "ado": 7107,
      "erson": 7108,
      "embass": 7109,
      "aux": 7110,
      "discourse": 7111,
      "disrup": 7112,
      "drunk": 7113,
      "politan": 7114,
      "harsh": 7115,
      "signal": 7116,
      "1964": 7117,
      "confused": 7118,
      "advisory": 7119,
      "insul": 7120,
      "certificate": 7121,
      "medieval": 7122,
      "bones": 7123,
      "caf": 7124,
      "ito": 7125,
      "lea": 7126,
      "semin": 7127,
      "ilit": 7128,
      "deals": 7129,
      "resign": 7130,
      "upstairs": 7131,
      "spare": 7132,
      "creature": 7133,
      "produces": 7134,
      "tale": 7135,
      "publicity": 7136,
      "recording": 7137,
      "bonds": 7138,
      "consul": 7139,
      "laughter": 7140,
      "elimin": 7141,
      "automatically": 7142,
      "assumptions": 7143,
      "leisure": 7144,
      "pity": 7145,
      "infer": 7146,
      "appren": 7147,
      "composed": 7148,
      "manipul": 7149,
      "bod": 7150,
      "wholly": 7151,
      "gene": 7152,
      "realistic": 7153,
      "protected": 7154,
      "influential": 7155,
      "device": 7156,
      "terrif": 7157,
      "mechanical": 7158,
      "integrated": 7159,
      "raf": 7160,
      "ortho": 7161,
      "alous": 7162,
      "stab": 7163,
      "therap": 7164,
      "braz": 7165,
      "failing": 7166,
      "minded": 7167,
      "wishes": 7168,
      "contribute": 7169,
      "gesture": 7170,
      "gorbac": 7171,
      "eldest": 7172,
      "cheek": 7173,
      "obliged": 7174,
      "ceremon": 7175,
      "compensation": 7176,
      "piano": 7177,
      "vulnerable": 7178,
      "gorbachev": 7179,
      "69": 7180,
      "lil": 7181,
      "yo": 7182,
      "ér": 7183,
      "blu": 7184,
      "relatives": 7185,
      "wanting": 7186,
      "anny": 7187,
      "productive": 7188,
      "imagined": 7189,
      "participants": 7190,
      "communications": 7191,
      "storage": 7192,
      "platform": 7193,
      "nottingham": 7194,
      "lau": 7195,
      "mate": 7196,
      "anony": 7197,
      "wolf": 7198,
      "discretion": 7199,
      "uding": 7200,
      "matches": 7201,
      "operated": 7202,
      "chapters": 7203,
      "collective": 7204,
      "employee": 7205,
      "yacht": 7206,
      "califor": 7207,
      "destruction": 7208,
      "pepper": 7209,
      "favoured": 7210,
      "dating": 7211,
      "iable": 7212,
      "nhs": 7213,
      "tical": 7214,
      "uno": 7215,
      "inhabit": 7216,
      "amate": 7217,
      "dismissed": 7218,
      "testing": 7219,
      "1966": 7220,
      "dimens": 7221,
      "quoted": 7222,
      "conviction": 7223,
      "lamb": 7224,
      "plo": 7225,
      "aye": 7226,
      "unhappy": 7227,
      "pope": 7228,
      "alling": 7229,
      "emissions": 7230,
      "intercourse": 7231,
      "shower": 7232,
      "studying": 7233,
      "findings": 7234,
      "ffield": 7235,
      "davies": 7236,
      "strip": 7237,
      "divisions": 7238,
      "promising": 7239,
      "coastal": 7240,
      "trousers": 7241,
      "fierce": 7242,
      "cinema": 7243,
      "dil": 7244,
      "lili": 7245,
      "rho": 7246,
      "error": 7247,
      "hey": 7248,
      "estates": 7249,
      "simpl": 7250,
      "electrical": 7251,
      "clerk": 7252,
      "breathing": 7253,
      "bronze": 7254,
      "pson": 7255,
      "padd": 7256,
      "rell": 7257,
      "tennis": 7258,
      "refuse": 7259,
      "blocks": 7260,
      "drif": 7261,
      "depending": 7262,
      "softly": 7263,
      "knee": 7264,
      "switched": 7265,
      "rd": 7266,
      "sincere": 7267,
      "infect": 7268,
      "chic": 7269,
      "vell": 7270,
      "immen": 7271,
      "motive": 7272,
      "pling": 7273,
      "solve": 7274,
      "incred": 7275,
      "attacks": 7276,
      "mistak": 7277,
      "washed": 7278,
      "excuse": 7279,
      "repeat": 7280,
      "consumers": 7281,
      "components": 7282,
      "800": 7283,
      "eign": 7284,
      "hin": 7285,
      "lists": 7286,
      "xide": 7287,
      "recon": 7288,
      "rog": 7289,
      "landing": 7290,
      "enses": 7291,
      "divine": 7292,
      "crimination": 7293,
      "gilbert": 7294,
      "sovereign": 7295,
      "bou": 7296,
      "rank": 7297,
      "xx": 7298,
      "enforce": 7299,
      "unemployed": 7300,
      "dean": 7301,
      "marcus": 7302,
      "logies": 7303,
      "secondly": 7304,
      "successive": 7305,
      "icially": 7306,
      "pilot": 7307,
      "breeding": 7308,
      "jumped": 7309,
      "icated": 7310,
      "ligent": 7311,
      "clam": 7312,
      "marshall": 7313,
      "continuous": 7314,
      "subsidi": 7315,
      ")—": 7316,
      "rust": 7317,
      "sions": 7318,
      "itude": 7319,
      "acre": 7320,
      "loo": 7321,
      "ghter": 7322,
      "weed": 7323,
      "haul": 7324,
      "boost": 7325,
      "lowest": 7326,
      "duck": 7327,
      "icked": 7328,
      "solved": 7329,
      "receiver": 7330,
      "circles": 7331,
      "researchers": 7332,
      "panel": 7333,
      "smoking": 7334,
      "tender": 7335,
      "dreams": 7336,
      "complaints": 7337,
      "psychological": 7338,
      "grateful": 7339,
      "lucien": 7340,
      "dens": 7341,
      "ske": 7342,
      "scept": 7343,
      "tide": 7344,
      "betray": 7345,
      "solar": 7346,
      "withdra": 7347,
      "mot": 7348,
      "shine": 7349,
      "generations": 7350,
      "gging": 7351,
      "summon": 7352,
      "camille": 7353,
      "sixty": 7354,
      "returns": 7355,
      "railways": 7356,
      "consequently": 7357,
      "quiries": 7358,
      "expertise": 7359,
      "spokesman": 7360,
      "58": 7361,
      "dent": 7362,
      "iest": 7363,
      "yers": 7364,
      "anor": 7365,
      "recalled": 7366,
      "reverse": 7367,
      "chis": 7368,
      "liar": 7369,
      "appra": 7370,
      "cigaret": 7371,
      "napole": 7372,
      "walker": 7373,
      "coverage": 7374,
      "170": 7375,
      "awful": 7376,
      "prints": 7377,
      "floating": 7378,
      "1945": 7379,
      "scrat": 7380,
      "vegetation": 7381,
      "restaurants": 7382,
      "migration": 7383,
      "festival": 7384,
      "acknowledged": 7385,
      "léonie": 7386,
      "cigarette": 7387,
      "bn": 7388,
      "ique": 7389,
      "abbey": 7390,
      "pecu": 7391,
      "byn": 7392,
      "exped": 7393,
      "females": 7394,
      "earned": 7395,
      "baron": 7396,
      "banking": 7397,
      "purity": 7398,
      "lawyer": 7399,
      "sorts": 7400,
      "ruling": 7401,
      "shaking": 7402,
      "agraph": 7403,
      "improvements": 7404,
      "grip": 7405,
      "powder": 7406,
      "regret": 7407,
      "61": 7408,
      "flies": 7409,
      "mps": 7410,
      "spat": 7411,
      "sized": 7412,
      "lawn": 7413,
      "surrey": 7414,
      "lesser": 7415,
      "searching": 7416,
      "slav": 7417,
      "organisms": 7418,
      "bbing": 7419,
      "christians": 7420,
      "devon": 7421,
      "evaluation": 7422,
      "spectacular": 7423,
      "elegant": 7424,
      "scarcely": 7425,
      "propag": 7426,
      "immense": 7427,
      "cze": 7428,
      "hare": 7429,
      "wages": 7430,
      "enabled": 7431,
      "roses": 7432,
      "shu": 7433,
      "bye": 7434,
      "feather": 7435,
      "boil": 7436,
      "anton": 7437,
      "strand": 7438,
      "crying": 7439,
      "medit": 7440,
      "summar": 7441,
      "define": 7442,
      "demanding": 7443,
      "establishing": 7444,
      "gains": 7445,
      "mutual": 7446,
      "melissa": 7447,
      "stretch": 7448,
      "acknowledge": 7449,
      "scholar": 7450,
      "pak": 7451,
      "feared": 7452,
      "essence": 7453,
      "hasn": 7454,
      "earnings": 7455,
      "shocked": 7456,
      "timber": 7457,
      "cription": 7458,
      "1960": 7459,
      "secution": 7460,
      "historic": 7461,
      "shapes": 7462,
      "implementation": 7463,
      "mystery": 7464,
      "isley": 7465,
      "grade": 7466,
      "izes": 7467,
      "solutions": 7468,
      "loyalty": 7469,
      "classroom": 7470,
      "directions": 7471,
      "anean": 7472,
      "specim": 7473,
      "1939": 7474,
      "emerge": 7475,
      "revolutionary": 7476,
      "purely": 7477,
      "reluctant": 7478,
      "ode": 7479,
      "ogue": 7480,
      "pad": 7481,
      "anno": 7482,
      "loving": 7483,
      "neil": 7484,
      "quot": 7485,
      "spon": 7486,
      "regiment": 7487,
      "archae": 7488,
      "lawyers": 7489,
      "swung": 7490,
      "crossing": 7491,
      "belfast": 7492,
      "innov": 7493,
      "dioxide": 7494,
      "64": 7495,
      "sheffield": 7496,
      "discrimination": 7497,
      "preference": 7498,
      "elabor": 7499,
      "letting": 7500,
      "relate": 7501,
      "steve": 7502,
      "easter": 7503,
      "expecting": 7504,
      "foods": 7505,
      "measured": 7506,
      "wedding": 7507,
      "restrictions": 7508,
      "shadows": 7509,
      "tracks": 7510,
      "accompl": 7511,
      "typically": 7512,
      "philosoph": 7513,
      "discussions": 7514,
      "recommendations": 7515,
      "gloria": 7516,
      "restored": 7517,
      "percentage": 7518,
      "fired": 7519,
      "karen": 7520,
      "pile": 7521,
      "scent": 7522,
      "èse": 7523,
      "acing": 7524,
      "trap": 7525,
      "manual": 7526,
      "plates": 7527,
      "sheer": 7528,
      "paragraph": 7529,
      "miser": 7530,
      "latent": 7531,
      "cattle": 7532,
      "sessions": 7533,
      "1930s": 7534,
      "conclusions": 7535,
      "folded": 7536,
      "craw": 7537,
      "approximately": 7538,
      "dull": 7539,
      "insect": 7540,
      "stance": 7541,
      "moor": 7542,
      "riers": 7543,
      "worship": 7544,
      "joke": 7545,
      "lessons": 7546,
      "consists": 7547,
      "bases": 7548,
      "responses": 7549,
      "shame": 7550,
      "bags": 7551,
      "appreciate": 7552,
      "convincing": 7553,
      "trends": 7554,
      "inherited": 7555,
      "evidently": 7556,
      "isolated": 7557,
      "random": 7558,
      "thoroughly": 7559,
      "chelsea": 7560,
      "81": 7561,
      "fry": 7562,
      "fond": 7563,
      "swee": 7564,
      "vine": 7565,
      "thér": 7566,
      "andy": 7567,
      "exem": 7568,
      "hob": 7569,
      "guards": 7570,
      "personally": 7571,
      "awk": 7572,
      "situated": 7573,
      "habits": 7574,
      "promises": 7575,
      "observation": 7576,
      "dictionary": 7577,
      "cousin": 7578,
      "thérèse": 7579,
      "bc": 7580,
      "jet": 7581,
      "rage": 7582,
      "sab": 7583,
      "sang": 7584,
      "infant": 7585,
      "orn": 7586,
      "nowhere": 7587,
      "gothic": 7588,
      "bother": 7589,
      "asted": 7590,
      "affection": 7591,
      "spur": 7592,
      "cake": 7593,
      "caring": 7594,
      "fraud": 7595,
      "engines": 7596,
      "subtle": 7597,
      "gery": 7598,
      "declined": 7599,
      "architects": 7600,
      "integration": 7601,
      "traditionally": 7602,
      "belonged": 7603,
      "divorce": 7604,
      "embassy": 7605,
      "faint": 7606,
      "saint": 7607,
      "script": 7608,
      "inth": 7609,
      "arc": 7610,
      "disappointed": 7611,
      "intermedi": 7612,
      "glou": 7613,
      "politically": 7614,
      "wheels": 7615,
      "bible": 7616,
      "oted": 7617,
      "soils": 7618,
      "peru": 7619,
      "homo": 7620,
      "mining": 7621,
      "creative": 7622,
      "carriage": 7623,
      "lecture": 7624,
      "simult": 7625,
      "balcon": 7626,
      "penal": 7627,
      "damaged": 7628,
      "intelligent": 7629,
      "avoided": 7630,
      "hungry": 7631,
      "learnt": 7632,
      "possessed": 7633,
      "withdrawal": 7634,
      "hans": 7635,
      "nasty": 7636,
      "slim": 7637,
      "zamb": 7638,
      "incent": 7639,
      "illy": 7640,
      "accent": 7641,
      "lobby": 7642,
      "cleo": 7643,
      "iculous": 7644,
      "obsc": 7645,
      "archbishop": 7646,
      "paisley": 7647,
      "risen": 7648,
      "claiming": 7649,
      "scrut": 7650,
      "physi": 7651,
      "ethnic": 7652,
      "ultimate": 7653,
      "rigid": 7654,
      "citizenship": 7655,
      "enjoying": 7656,
      "focused": 7657,
      "fene": 7658,
      "gut": 7659,
      "ingred": 7660,
      "roh": 7661,
      "heating": 7662,
      "terry": 7663,
      "residents": 7664,
      "clause": 7665,
      "guilt": 7666,
      "stocks": 7667,
      "lightly": 7668,
      "identification": 7669,
      "skip": 7670,
      "knocked": 7671,
      "zzer": 7672,
      "estimate": 7673,
      "suspected": 7674,
      "shakespe": 7675,
      "gloucester": 7676,
      "naked": 7677,
      "poured": 7678,
      "tub": 7679,
      "recovered": 7680,
      "beans": 7681,
      "whist": 7682,
      "coordin": 7683,
      "deem": 7684,
      "emily": 7685,
      "undertaken": 7686,
      "flew": 7687,
      "reflects": 7688,
      "birthday": 7689,
      "israeli": 7690,
      "maintaining": 7691,
      "ontane": 7692,
      "72": 7693,
      "thread": 7694,
      "amin": 7695,
      "ules": 7696,
      "bom": 7697,
      "afghan": 7698,
      "prest": 7699,
      "muz": 7700,
      "varieties": 7701,
      "keeps": 7702,
      "electoral": 7703,
      "regulation": 7704,
      "despair": 7705,
      "dawn": 7706,
      "separated": 7707,
      "bacter": 7708,
      "russians": 7709,
      "othy": 7710,
      "attach": 7711,
      "marginal": 7712,
      "penetr": 7713,
      "cav": 7714,
      "oning": 7715,
      "chim": 7716,
      "lomb": 7717,
      "una": 7718,
      "unted": 7719,
      "urged": 7720,
      "grants": 7721,
      "ortion": 7722,
      "sian": 7723,
      "mayor": 7724,
      "syl": 7725,
      "generate": 7726,
      "weekly": 7727,
      "sentences": 7728,
      "entering": 7729,
      "sympto": 7730,
      "surviving": 7731,
      "excited": 7732,
      "titles": 7733,
      "computers": 7734,
      "bridges": 7735,
      "founder": 7736,
      "lebanon": 7737,
      "genetic": 7738,
      "supreme": 7739,
      "simultane": 7740,
      "86": 7741,
      "].": 7742,
      "mcle": 7743,
      "repair": 7744,
      "ager": 7745,
      "acked": 7746,
      "tai": 7747,
      "visitor": 7748,
      "applies": 7749,
      "inclined": 7750,
      "universe": 7751,
      "capitalism": 7752,
      "panic": 7753,
      "bourgeo": 7754,
      "missions": 7755,
      "graphers": 7756,
      "inhibition": 7757,
      "tremend": 7758,
      "lb": 7759,
      "lach": 7760,
      "eric": 7761,
      "root": 7762,
      "consp": 7763,
      "absent": 7764,
      "ambig": 7765,
      "neth": 7766,
      "caut": 7767,
      "finn": 7768,
      "lining": 7769,
      "slaugh": 7770,
      "potentially": 7771,
      "suggesting": 7772,
      "judicial": 7773,
      "recognize": 7774,
      "formerly": 7775,
      "connections": 7776,
      "polytechnic": 7777,
      "estimates": 7778,
      "naval": 7779,
      "preserve": 7780,
      "resolved": 7781,
      "manifest": 7782,
      "sulphur": 7783,
      "orthodox": 7784,
      "zambia": 7785,
      "cure": 7786,
      "lain": 7787,
      "mason": 7788,
      "inadequate": 7789,
      "alfred": 7790,
      "leon": 7791,
      "seld": 7792,
      "melo": 7793,
      "coher": 7794,
      "conversion": 7795,
      "notable": 7796,
      "bry": 7797,
      "wyn": 7798,
      "suppliers": 7799,
      "sustained": 7800,
      "convenient": 7801,
      "delicate": 7802,
      "enhance": 7803,
      "palestinian": 7804,
      "mobile": 7805,
      "awkward": 7806,
      "fenella": 7807,
      "cpr": 7808,
      "inches": 7809,
      "uten": 7810,
      "deck": 7811,
      "urgent": 7812,
      "gran": 7813,
      "auth": 7814,
      "wells": 7815,
      "monu": 7816,
      "brooke": 7817,
      "knock": 7818,
      "douglas": 7819,
      "deficit": 7820,
      "murm": 7821,
      "planted": 7822,
      "collections": 7823,
      "accidents": 7824,
      "valued": 7825,
      "throwing": 7826,
      "replacement": 7827,
      "desperate": 7828,
      "brazil": 7829,
      "shakespeare": 7830,
      "‘...": 7831,
      "arbit": 7832,
      "irrit": 7833,
      "shoot": 7834,
      "compat": 7835,
      "compli": 7836,
      "superintend": 7837,
      "initiatives": 7838,
      "exclusive": 7839,
      "louise": 7840,
      "palestine": 7841,
      "62": 7842,
      "bak": 7843,
      "hated": 7844,
      "oven": 7845,
      "punch": 7846,
      "robyn": 7847,
      "chro": 7848,
      "nold": 7849,
      "defect": 7850,
      "shy": 7851,
      "keith": 7852,
      "endless": 7853,
      "spection": 7854,
      "shooting": 7855,
      "mato": 7856,
      "considerations": 7857,
      "trains": 7858,
      "sterling": 7859,
      "1965": 7860,
      "acceler": 7861,
      "reserves": 7862,
      "rolls": 7863,
      "uncertainty": 7864,
      "tools": 7865,
      "dles": 7866,
      "gur": 7867,
      "ov": 7868,
      "tb": 7869,
      "stressed": 7870,
      "suited": 7871,
      "resigned": 7872,
      "agenda": 7873,
      "elite": 7874,
      "carpet": 7875,
      "talent": 7876,
      "logically": 7877,
      "gazzer": 7878,
      "horn": 7879,
      "steadily": 7880,
      "vietnam": 7881,
      "capitalist": 7882,
      "sufferer": 7883,
      "grief": 7884,
      "doubts": 7885,
      "bourgeois": 7886,
      "ptive": 7887,
      "sate": 7888,
      "thames": 7889,
      "acres": 7890,
      "antarctic": 7891,
      "tley": 7892,
      "polish": 7893,
      "ucking": 7894,
      "deny": 7895,
      "midlands": 7896,
      "swiss": 7897,
      "achieving": 7898,
      "lively": 7899,
      "competence": 7900,
      "sadly": 7901,
      "expanded": 7902,
      "metaphor": 7903,
      "splendid": 7904,
      "superintendent": 7905,
      "51": 7906,
      "73": 7907,
      "84": 7908,
      "hull": 7909,
      "eries": 7910,
      "recover": 7911,
      "noble": 7912,
      "somer": 7913,
      "amic": 7914,
      "shit": 7915,
      "nearest": 7916,
      "resent": 7917,
      "outline": 7918,
      "handsome": 7919,
      "economics": 7920,
      "reporting": 7921,
      "styles": 7922,
      "references": 7923,
      "sandwich": 7924,
      "eaten": 7925,
      "consultation": 7926,
      "excessive": 7927,
      "tammuz": 7928,
      "holland": 7929,
      "hollywood": 7930,
      "amateur": 7931,
      "pakistan": 7932,
      "bast": 7933,
      "bble": 7934,
      "reen": 7935,
      "ensuring": 7936,
      "ark": 7937,
      "stain": 7938,
      "stability": 7939,
      "whip": 7940,
      "liability": 7941,
      "propri": 7942,
      "ulf": 7943,
      "rescue": 7944,
      "gods": 7945,
      "matt": 7946,
      "happily": 7947,
      "geographical": 7948,
      "equipped": 7949,
      "complained": 7950,
      "rohmer": 7951,
      "%.": 7952,
      "batt": 7953,
      "jump": 7954,
      "thunder": 7955,
      "memo": 7956,
      "solo": 7957,
      "constrain": 7958,
      "impose": 7959,
      "displayed": 7960,
      "sery": 7961,
      "torn": 7962,
      "sixteen": 7963,
      "julie": 7964,
      "strikes": 7965,
      "warmth": 7966,
      "fashioned": 7967,
      "nicholas": 7968,
      "isolation": 7969,
      "clouds": 7970,
      "captured": 7971,
      "hort": 7972,
      "jury": 7973,
      "lion": 7974,
      "lover": 7975,
      "ignor": 7976,
      "wars": 7977,
      "walks": 7978,
      "thorn": 7979,
      "happiness": 7980,
      "painter": 7981,
      "dedicated": 7982,
      "1957": 7983,
      "regarding": 7984,
      "russell": 7985,
      "tourist": 7986,
      "biography": 7987,
      "excluded": 7988,
      "nursery": 7989,
      "spotted": 7990,
      "desktop": 7991,
      "harmony": 7992,
      "awards": 7993,
      "kiss": 7994,
      "rhe": 7995,
      "lex": 7996,
      "loco": 7997,
      "iris": 7998,
      "shre": 7999,
      "prus": 8000,
      "earn": 8001,
      "seless": 8002,
      "appearing": 8003,
      "socialism": 8004,
      "judged": 8005,
      "protein": 8006,
      "attempting": 8007,
      "oxy": 8008,
      "vertical": 8009,
      "graduate": 8010,
      "anonymous": 8011,
      "mediterr": 8012,
      "dd": 8013,
      "knit": 8014,
      "altered": 8015,
      "argent": 8016,
      "icide": 8017,
      "sue": 8018,
      "booking": 8019,
      "workshop": 8020,
      "counties": 8021,
      "airy": 8022,
      "inton": 8023,
      "lesson": 8024,
      "serves": 8025,
      "iana": 8026,
      "singer": 8027,
      "concert": 8028,
      "welcomed": 8029,
      "files": 8030,
      "judgment": 8031,
      "respectively": 8032,
      "physically": 8033,
      "territories": 8034,
      "flexibility": 8035,
      "enhanced": 8036,
      "prosecut": 8037,
      "aggressive": 8038,
      "magnificent": 8039,
      "mediterranean": 8040,
      "fon": 8041,
      "gill": 8042,
      "moist": 8043,
      "shallow": 8044,
      "pless": 8045,
      "1950": 8046,
      "brus": 8047,
      "marvell": 8048,
      "wherever": 8049,
      "scored": 8050,
      "fourteen": 8051,
      "relieved": 8052,
      "1962": 8053,
      "spirits": 8054,
      "coup": 8055,
      "imagin": 8056,
      "enthusiastic": 8057,
      "stroke": 8058,
      "manufacturer": 8059,
      "texts": 8060,
      "fascinating": 8061,
      "acquisition": 8062,
      "napoleon": 8063,
      "gib": 8064,
      "lorton": 8065,
      "pave": 8066,
      "smart": 8067,
      "remarks": 8068,
      "ende": 8069,
      "asc": 8070,
      "asks": 8071,
      "forcing": 8072,
      "cox": 8073,
      "unnecessary": 8074,
      "conced": 8075,
      "absur": 8076,
      "geoff": 8077,
      "traged": 8078,
      "counts": 8079,
      "omor": 8080,
      "finite": 8081,
      "jean": 8082,
      "calend": 8083,
      "colin": 8084,
      "norfolk": 8085,
      "casts": 8086,
      "skilled": 8087,
      "pursuit": 8088,
      "policing": 8089,
      "muslim": 8090,
      "mistress": 8091,
      "drinks": 8092,
      "commander": 8093,
      "eyed": 8094,
      "scenes": 8095,
      "hazard": 8096,
      "phenomenon": 8097,
      "lounge": 8098,
      "metr": 8099,
      "riven": 8100,
      "disgust": 8101,
      "fulfil": 8102,
      "angled": 8103,
      "underground": 8104,
      "nah": 8105,
      "hamilton": 8106,
      "venture": 8107,
      "bloom": 8108,
      "sexuality": 8109,
      "manufacture": 8110,
      "racial": 8111,
      "federation": 8112,
      "functional": 8113,
      "demonstration": 8114,
      "pacific": 8115,
      "removal": 8116,
      "motivation": 8117,
      "zuway": 8118,
      "vienna": 8119,
      "oeu": 8120,
      "beating": 8121,
      "lime": 8122,
      "amph": 8123,
      "weep": 8124,
      "rip": 8125,
      "indul": 8126,
      "caution": 8127,
      "circular": 8128,
      "sciences": 8129,
      "plif": 8130,
      "analo": 8131,
      "1948": 8132,
      "madame": 8133,
      "pascoe": 8134,
      "straightforward": 8135,
      "crystal": 8136,
      "campbell": 8137,
      "analyst": 8138,
      "observations": 8139,
      "fragment": 8140,
      "desperately": 8141,
      "grinned": 8142,
      "entertainment": 8143,
      "refugees": 8144,
      "controversi": 8145,
      "adapted": 8146,
      "sympathetic": 8147,
      "california": 8148,
      "seldom": 8149,
      "authors": 8150,
      "fence": 8151,
      "kur": 8152,
      "aled": 8153,
      "soap": 8154,
      "kee": 8155,
      "indies": 8156,
      "prague": 8157,
      "astro": 8158,
      "evans": 8159,
      "glam": 8160,
      "definitely": 8161,
      "baxter": 8162,
      "guns": 8163,
      "explore": 8164,
      "hostile": 8165,
      "celebrated": 8166,
      "pensions": 8167,
      "chopped": 8168,
      "inhabitants": 8169,
      "53": 8170,
      "rating": 8171,
      "aly": 8172,
      "neur": 8173,
      "teed": 8174,
      "permit": 8175,
      "hotels": 8176,
      "igation": 8177,
      "articul": 8178,
      "guest": 8179,
      "jealous": 8180,
      "curve": 8181,
      "wrapped": 8182,
      "trials": 8183,
      "publicly": 8184,
      "refusal": 8185,
      "palm": 8186,
      "nonconform": 8187,
      "ticket": 8188,
      "1959": 8189,
      "balls": 8190,
      "buyers": 8191,
      "stuart": 8192,
      "promoted": 8193,
      "franca": 8194,
      "progressive": 8195,
      "maxim": 8196,
      "quantities": 8197,
      "dollar": 8198,
      "tackle": 8199,
      "yuan": 8200,
      "doctrine": 8201,
      "oeuv": 8202,
      "gla": 8203,
      "lamp": 8204,
      "mour": 8205,
      "nois": 8206,
      "amend": 8207,
      "moss": 8208,
      "neu": 8209,
      "prophe": 8210,
      "manus": 8211,
      "gospe": 8212,
      "thereafter": 8213,
      "oles": 8214,
      "blank": 8215,
      "crash": 8216,
      "icker": 8217,
      "highland": 8218,
      "tons": 8219,
      "basket": 8220,
      "passes": 8221,
      "dougal": 8222,
      "approaching": 8223,
      "lieuten": 8224,
      "origins": 8225,
      "1953": 8226,
      "popularity": 8227,
      "emotions": 8228,
      "injured": 8229,
      "eighteen": 8230,
      "guaranteed": 8231,
      "suspicion": 8232,
      "satell": 8233,
      "dare": 8234,
      "pump": 8235,
      "rics": 8236,
      "ales": 8237,
      "allied": 8238,
      "sul": 8239,
      "limin": 8240,
      "unning": 8241,
      "perception": 8242,
      "upwards": 8243,
      "1919": 8244,
      "fras": 8245,
      "surfaces": 8246,
      "highlight": 8247,
      "legend": 8248,
      "restoration": 8249,
      "greenhouse": 8250,
      "locally": 8251,
      "combine": 8252,
      "promoting": 8253,
      "snapped": 8254,
      "cheaper": 8255,
      "attendance": 8256,
      "pursue": 8257,
      "detective": 8258,
      "shorter": 8259,
      "pir": 8260,
      "uli": 8261,
      "wag": 8262,
      "’:": 8263,
      "beef": 8264,
      "accus": 8265,
      "consolid": 8266,
      "aboration": 8267,
      "nets": 8268,
      "compromise": 8269,
      "llen": 8270,
      "spit": 8271,
      "invitation": 8272,
      "publish": 8273,
      "province": 8274,
      "complement": 8275,
      "payable": 8276,
      "drawings": 8277,
      "sweat": 8278,
      "hurried": 8279,
      "biological": 8280,
      "morton": 8281,
      "advisers": 8282,
      "priorities": 8283,
      "hungary": 8284,
      "74": 8285,
      "kath": 8286,
      "pause": 8287,
      "sory": 8288,
      "inal": 8289,
      "inser": 8290,
      "gray": 8291,
      "1920": 8292,
      "istically": 8293,
      "okes": 8294,
      "rena": 8295,
      "desired": 8296,
      "charm": 8297,
      "invasion": 8298,
      "warrant": 8299,
      "reflection": 8300,
      "circuit": 8301,
      "acquire": 8302,
      "indicates": 8303,
      "hurry": 8304,
      "connect": 8305,
      "picking": 8306,
      "audit": 8307,
      "crowded": 8308,
      "nurse": 8309,
      "roughly": 8310,
      "absurd": 8311,
      "incur": 8312,
      "albert": 8313,
      "altar": 8314,
      "bee": 8315,
      "brut": 8316,
      "disabled": 8317,
      "landed": 8318,
      "invari": 8319,
      "barn": 8320,
      "lasting": 8321,
      "waist": 8322,
      "controlling": 8323,
      "evelyn": 8324,
      "1956": 8325,
      "1958": 8326,
      "separation": 8327,
      "christianity": 8328,
      "sussex": 8329,
      "installed": 8330,
      "interpreted": 8331,
      "legitimate": 8332,
      "interrupted": 8333,
      "aesthetic": 8334,
      "peculiar": 8335,
      "mcleish": 8336,
      "fans": 8337,
      "gau": 8338,
      "movie": 8339,
      "prog": 8340,
      "plun": 8341,
      "predomin": 8342,
      "officially": 8343,
      "carries": 8344,
      "tenants": 8345,
      "subur": 8346,
      "fael": 8347,
      "mala": 8348,
      "eleanor": 8349,
      "populations": 8350,
      "brig": 8351,
      "crops": 8352,
      "boundaries": 8353,
      "robinson": 8354,
      "magazines": 8355,
      "vegetables": 8356,
      "quantity": 8357,
      "calculated": 8358,
      "varying": 8359,
      "diplomatic": 8360,
      "exploration": 8361,
      "murmured": 8362,
      "82": 8363,
      "bere": 8364,
      "kens": 8365,
      "pud": 8366,
      "uation": 8367,
      "inspection": 8368,
      "loom": 8369,
      "peo": 8370,
      "exagger": 8371,
      "usively": 8372,
      "dose": 8373,
      "newcastle": 8374,
      "intosh": 8375,
      "receip": 8376,
      "1961": 8377,
      "villa": 8378,
      "declar": 8379,
      "reveals": 8380,
      "creditors": 8381,
      "conditioning": 8382,
      "concepts": 8383,
      "decorated": 8384,
      "atomic": 8385,
      "cassie": 8386,
      "symptoms": 8387,
      "qq": 8388,
      "chess": 8389,
      "sums": 8390,
      "deen": 8391,
      "depression": 8392,
      "abling": 8393,
      "nether": 8394,
      "ulster": 8395,
      "evangel": 8396,
      "miner": 8397,
      "litre": 8398,
      "kenneth": 8399,
      "wald": 8400,
      "youngest": 8401,
      "scattered": 8402,
      "broadly": 8403,
      "honor": 8404,
      "scrap": 8405,
      "wisdom": 8406,
      "stanley": 8407,
      "kuwait": 8408,
      "dynamic": 8409,
      "remedy": 8410,
      "choosing": 8411,
      "bishops": 8412,
      ")(": 8413,
      "76": 8414,
      "cf": 8415,
      "omin": 8416,
      "vat": 8417,
      "encounter": 8418,
      "arre": 8419,
      "rope": 8420,
      "chart": 8421,
      "deeper": 8422,
      "abund": 8423,
      "illa": 8424,
      "agno": 8425,
      "quis": 8426,
      "prejud": 8427,
      "interviews": 8428,
      "specially": 8429,
      "ignment": 8430,
      "shots": 8431,
      "stores": 8432,
      "tonnes": 8433,
      "realize": 8434,
      "winners": 8435,
      "distress": 8436,
      "120": 8437,
      "flows": 8438,
      "introducing": 8439,
      "safely": 8440,
      "customs": 8441,
      "hesitated": 8442,
      "satisfy": 8443,
      "jenny": 8444,
      "absorbed": 8445,
      "premium": 8446,
      "derek": 8447,
      "aberdeen": 8448,
      "biz": 8449,
      "tha": 8450,
      "input": 8451,
      "retri": 8452,
      "enclosed": 8453,
      "lever": 8454,
      "acute": 8455,
      "indians": 8456,
      "tyr": 8457,
      "centred": 8458,
      "pharm": 8459,
      "coln": 8460,
      "fails": 8461,
      "producers": 8462,
      "lifetime": 8463,
      "topic": 8464,
      "productivity": 8465,
      "collar": 8466,
      "trop": 8467,
      "soldier": 8468,
      "academy": 8469,
      "nursing": 8470,
      "correctly": 8471,
      "patience": 8472,
      "mexico": 8473,
      "defeated": 8474,
      "conspic": 8475,
      "controversial": 8476,
      "np": 8477,
      "oli": 8478,
      "revel": 8479,
      "reactions": 8480,
      "allies": 8481,
      "cogn": 8482,
      "liable": 8483,
      "implies": 8484,
      "pockets": 8485,
      "notor": 8486,
      "estone": 8487,
      "1900": 8488,
      "cling": 8489,
      "phony": 8490,
      "flash": 8491,
      "stewart": 8492,
      "publications": 8493,
      "harvest": 8494,
      "allowance": 8495,
      "drivers": 8496,
      "moderate": 8497,
      "planting": 8498,
      "prevented": 8499,
      "distributed": 8500,
      "struggling": 8501,
      "journalists": 8502,
      "assuming": 8503,
      "ancest": 8504,
      "hir": 8505,
      "lur": 8506,
      "rin": 8507,
      "sain": 8508,
      "vor": 8509,
      "yl": 8510,
      "album": 8511,
      "ceased": 8512,
      "moz": 8513,
      "allen": 8514,
      "plough": 8515,
      "bragg": 8516,
      "interaction": 8517,
      "counted": 8518,
      "attending": 8519,
      "takeover": 8520,
      "voting": 8521,
      "milan": 8522,
      "sentiment": 8523,
      "exceptional": 8524,
      "commented": 8525,
      "variable": 8526,
      "passenger": 8527,
      "sponsor": 8528,
      "sincerely": 8529,
      ";(": 8530,
      "hil": 8531,
      "jin": 8532,
      "reno": 8533,
      "seized": 8534,
      "accompany": 8535,
      "forbid": 8536,
      "neath": 8537,
      "tips": 8538,
      "monster": 8539,
      "dyson": 8540,
      "questioned": 8541,
      "taxation": 8542,
      "breaks": 8543,
      "respective": 8544,
      "slept": 8545,
      "debts": 8546,
      "complexity": 8547,
      "lancash": 8548,
      "predicted": 8549,
      "prompted": 8550,
      "robin": 8551,
      "coalition": 8552,
      "memorial": 8553,
      "anticipated": 8554,
      "zuwaya": 8555,
      "aer": 8556,
      "aun": 8557,
      "figh": 8558,
      "ht": 8559,
      "vivid": 8560,
      "reas": 8561,
      "rebe": 8562,
      "asset": 8563,
      "chen": 8564,
      "sored": 8565,
      "eves": 8566,
      "surge": 8567,
      "deciding": 8568,
      "cules": 8569,
      "actively": 8570,
      "superb": 8571,
      "shake": 8572,
      "daniel": 8573,
      "synthesis": 8574,
      "hughes": 8575,
      "metropolitan": 8576,
      "lancashire": 8577,
      "brows": 8578,
      "arising": 8579,
      "stained": 8580,
      "iona": 8581,
      "decent": 8582,
      "illusion": 8583,
      "outlined": 8584,
      "19th": 8585,
      "disgu": 8586,
      "justify": 8587,
      "jewell": 8588,
      "glen": 8589,
      "versary": 8590,
      "refers": 8591,
      "organisational": 8592,
      "owen": 8593,
      "sisters": 8594,
      "agreements": 8595,
      "flee": 8596,
      "collabor": 8597,
      "opinions": 8598,
      "complaint": 8599,
      "ideological": 8600,
      "ussr": 8601,
      "component": 8602,
      "aristocr": 8603,
      "oxygen": 8604,
      "ik": 8605,
      "nap": 8606,
      "oy": 8607,
      "itted": 8608,
      "poets": 8609,
      "ifies": 8610,
      "parted": 8611,
      "frances": 8612,
      "downstairs": 8613,
      "handful": 8614,
      "charming": 8615,
      "consensus": 8616,
      "designer": 8617,
      "suggestions": 8618,
      "broader": 8619,
      "conception": 8620,
      "compete": 8621,
      "eagle": 8622,
      "marxist": 8623,
      "autonomy": 8624,
      "overwhelming": 8625,
      "tremendous": 8626,
      "ees": 8627,
      "fain": 8628,
      "mund": 8629,
      "lev": 8630,
      "sectors": 8631,
      "illegal": 8632,
      "agne": 8633,
      "redund": 8634,
      "whereby": 8635,
      "fried": 8636,
      "lincoln": 8637,
      "wilder": 8638,
      "nonsense": 8639,
      "explaining": 8640,
      "grandmother": 8641,
      "aethel": 8642,
      "photography": 8643,
      "variation": 8644,
      "ozone": 8645,
      "revival": 8646,
      "crazy": 8647,
      "willingness": 8648,
      "disputes": 8649,
      "reinforced": 8650,
      "feminist": 8651,
      "surveys": 8652,
      "constituency": 8653,
      "kirk": 8654,
      "disposal": 8655,
      "apprais": 8656,
      "arbitr": 8657,
      "somerset": 8658,
      "marvellous": 8659,
      "56": 8660,
      "dat": 8661,
      "spark": 8662,
      "inland": 8663,
      "depri": 8664,
      "neys": 8665,
      "llers": 8666,
      "fertil": 8667,
      "prelimin": 8668,
      "overnight": 8669,
      "longed": 8670,
      "signals": 8671,
      "volumes": 8672,
      "successor": 8673,
      "slid": 8674,
      "windsur": 8675,
      "sensit": 8676,
      "accuracy": 8677,
      "schedule": 8678,
      "catalogue": 8679,
      "fers": 8680,
      "hitch": 8681,
      "rh": 8682,
      "remarked": 8683,
      "perip": 8684,
      "manoeuv": 8685,
      "ounce": 8686,
      "plu": 8687,
      "woke": 8688,
      "presby": 8689,
      "formally": 8690,
      "finest": 8691,
      "factories": 8692,
      "mercur": 8693,
      "davis": 8694,
      "favourable": 8695,
      "commissioned": 8696,
      "1929": 8697,
      "climb": 8698,
      "wildlife": 8699,
      "suspended": 8700,
      "virtue": 8701,
      "prospects": 8702,
      "sweden": 8703,
      "abstract": 8704,
      "encountered": 8705,
      "invariably": 8706,
      "83": 8707,
      "ients": 8708,
      "wic": 8709,
      "tops": 8710,
      "geomor": 8711,
      "ulous": 8712,
      "wning": 8713,
      "1918": 8714,
      "1913": 8715,
      "emin": 8716,
      "blake": 8717,
      "clothing": 8718,
      "cylind": 8719,
      "politician": 8720,
      "powered": 8721,
      "transformed": 8722,
      "painful": 8723,
      "arguing": 8724,
      "discussing": 8725,
      "threats": 8726,
      "believing": 8727,
      "polls": 8728,
      "kyo": 8729,
      "achievements": 8730,
      "jackson": 8731,
      "temperatures": 8732,
      "slope": 8733,
      "remarkably": 8734,
      "shouting": 8735,
      "tanks": 8736,
      "aspir": 8737,
      "chicken": 8738,
      "escaped": 8739,
      "spheric": 8740,
      "tis": 8741,
      "anthro": 8742,
      "stub": 8743,
      "sein": 8744,
      "segment": 8745,
      "ambul": 8746,
      "frozen": 8747,
      "irect": 8748,
      "everyday": 8749,
      "tribun": 8750,
      "lawrence": 8751,
      "browning": 8752,
      "troubles": 8753,
      "precious": 8754,
      "murdered": 8755,
      "ckingham": 8756,
      "fashionable": 8757,
      "channels": 8758,
      "severely": 8759,
      "resolve": 8760,
      "twisted": 8761,
      "substitute": 8762,
      "opponents": 8763,
      "potatoes": 8764,
      "recruitment": 8765,
      "brussels": 8766,
      "dile": 8767,
      "rous": 8768,
      "waved": 8769,
      "onna": 8770,
      "loaded": 8771,
      "ami": 8772,
      "usage": 8773,
      "herit": 8774,
      "1910": 8775,
      "sights": 8776,
      "sizes": 8777,
      "turk": 8778,
      "obst": 8779,
      "producer": 8780,
      "provin": 8781,
      "viewed": 8782,
      "lawful": 8783,
      "lawson": 8784,
      "drops": 8785,
      "1949": 8786,
      "christine": 8787,
      "masses": 8788,
      "issance": 8789,
      "fatal": 8790,
      "alike": 8791,
      "republican": 8792,
      "descend": 8793,
      "ludens": 8794,
      "seventeenth": 8795,
      "cprw": 8796,
      "lieutenant": 8797,
      "5m": 8798,
      "ias": 8799,
      "nun": 8800,
      "bears": 8801,
      "lihood": 8802,
      "fame": 8803,
      "certainty": 8804,
      "dependence": 8805,
      "testament": 8806,
      "damn": 8807,
      "liberation": 8808,
      "ranks": 8809,
      "comfortably": 8810,
      "nonetheless": 8811,
      "lodge": 8812,
      "canadian": 8813,
      "exhausted": 8814,
      "partial": 8815,
      "maureen": 8816,
      "incorporated": 8817,
      "cen": 8818,
      "ara": 8819,
      "stere": 8820,
      "crude": 8821,
      "corners": 8822,
      "turno": 8823,
      "lectures": 8824,
      "timing": 8825,
      "rushed": 8826,
      "expenses": 8827,
      "boring": 8828,
      "diver": 8829,
      "freely": 8830,
      "postmodern": 8831,
      "funeral": 8832,
      "stern": 8833,
      "describing": 8834,
      "botan": 8835,
      "locations": 8836,
      "architectural": 8837,
      "devast": 8838,
      "leaning": 8839,
      "compulsory": 8840,
      "sponsored": 8841,
      "philosophical": 8842,
      "constraints": 8843,
      "peripher": 8844,
      "mals": 8845,
      "maps": 8846,
      "chlor": 8847,
      "adds": 8848,
      "admission": 8849,
      "abra": 8850,
      "pets": 8851,
      "shiver": 8852,
      "prosecution": 8853,
      "frost": 8854,
      "shelf": 8855,
      "disappointment": 8856,
      "cave": 8857,
      "handled": 8858,
      "tempt": 8859,
      "basically": 8860,
      "ibly": 8861,
      "programs": 8862,
      "accordingly": 8863,
      "1926": 8864,
      "sandy": 8865,
      "frequency": 8866,
      "griev": 8867,
      "backing": 8868,
      "worrying": 8869,
      "rubber": 8870,
      "switzer": 8871,
      "café": 8872,
      "subsidiary": 8873,
      "annoy": 8874,
      ")).": 8875,
      "dm": 8876,
      "tort": 8877,
      "tics": 8878,
      "tune": 8879,
      "admi": 8880,
      "covent": 8881,
      "abul": 8882,
      "boo": 8883,
      "canter": 8884,
      "mineral": 8885,
      "backwards": 8886,
      "justification": 8887,
      "jehan": 8888,
      "leslie": 8889,
      "barrier": 8890,
      "versions": 8891,
      "doorway": 8892,
      "swan": 8893,
      "slide": 8894,
      "laying": 8895,
      "greece": 8896,
      "bias": 8897,
      "wicked": 8898,
      "ambass": 8899,
      "cornwall": 8900,
      "composer": 8901,
      "strictly": 8902,
      "bankruptcy": 8903,
      "1st": 8904,
      "2m": 8905,
      "96": 8906,
      "jail": 8907,
      "ras": 8908,
      "vial": 8909,
      "stum": 8910,
      "secular": 8911,
      "beard": 8912,
      "heated": 8913,
      "depressed": 8914,
      "trapped": 8915,
      "grasp": 8916,
      "1930": 8917,
      "disas": 8918,
      "disper": 8919,
      "diseas": 8920,
      "workshops": 8921,
      "compare": 8922,
      "glory": 8923,
      "advise": 8924,
      "ashley": 8925,
      "annie": 8926,
      "northampton": 8927,
      "taxi": 8928,
      "bands": 8929,
      "terminal": 8930,
      "respects": 8931,
      "locke": 8932,
      "emerging": 8933,
      "tightly": 8934,
      "genuinely": 8935,
      "mysterious": 8936,
      "slaughter": 8937,
      "tbsp": 8938,
      "switzerland": 8939,
      "aa": 8940,
      "edwards": 8941,
      "ouch": 8942,
      "alumin": 8943,
      "esy": 8944,
      "toss": 8945,
      "angu": 8946,
      "genius": 8947,
      "requiring": 8948,
      "hamed": 8949,
      "salmon": 8950,
      "midnight": 8951,
      "grammar": 8952,
      "decisive": 8953,
      "garage": 8954,
      "representing": 8955,
      "touching": 8956,
      "apartment": 8957,
      "participate": 8958,
      "dimension": 8959,
      "cooked": 8960,
      "correspondence": 8961,
      "appreciated": 8962,
      "seventy": 8963,
      "pursued": 8964,
      "modified": 8965,
      "envelope": 8966,
      "cable": 8967,
      "fist": 8968,
      "hv": 8969,
      "inver": 8970,
      "istr": 8971,
      "acles": 8972,
      "sut": 8973,
      "devil": 8974,
      "conting": 8975,
      "ifer": 8976,
      "hollow": 8977,
      "tily": 8978,
      "bored": 8979,
      "indirect": 8980,
      "odds": 8981,
      "berry": 8982,
      "contacts": 8983,
      "guild": 8984,
      "surgery": 8985,
      "curios": 8986,
      "medal": 8987,
      "basin": 8988,
      "profitable": 8989,
      "passive": 8990,
      "refre": 8991,
      "blown": 8992,
      "mask": 8993,
      "yeah": 8994,
      "1935": 8995,
      "peaceful": 8996,
      "adoption": 8997,
      "bike": 8998,
      "ratio": 8999,
      "luxury": 9000,
      "hampshire": 9001,
      "gospel": 9002,
      "turnover": 9003,
      "57": 9004,
      "97": 9005,
      "dangers": 9006,
      "hint": 9007,
      "mates": 9008,
      "sne": 9009,
      "heir": 9010,
      "vern": 9011,
      "peat": 9012,
      "perpet": 9013,
      "clust": 9014,
      "ferry": 9015,
      "prey": 9016,
      "carter": 9017,
      "evenings": 9018,
      "porters": 9019,
      "directive": 9020,
      "clearing": 9021,
      "transactions": 9022,
      "static": 9023,
      "collaboration": 9024,
      "lowered": 9025,
      "1921": 9026,
      "climbing": 9027,
      "prompt": 9028,
      "adviser": 9029,
      "challenged": 9030,
      "disturbed": 9031,
      "predictable": 9032,
      "renewed": 9033,
      "opponent": 9034,
      "lonely": 9035,
      "appraisal": 9036,
      "aluminium": 9037,
      "aero": 9038,
      "bicy": 9039,
      "faded": 9040,
      "rea": 9041,
      "tomato": 9042,
      "tokyo": 9043,
      "arose": 9044,
      "suits": 9045,
      "confron": 9046,
      "amid": 9047,
      "withdraw": 9048,
      "neo": 9049,
      "resid": 9050,
      "1912": 9051,
      "wholes": 9052,
      "miners": 9053,
      "cart": 9054,
      "guine": 9055,
      "checking": 9056,
      "goodbye": 9057,
      "governing": 9058,
      "burned": 9059,
      "blacks": 9060,
      "magistr": 9061,
      "hearts": 9062,
      "1938": 9063,
      "alternatives": 9064,
      "guardian": 9065,
      "journalist": 9066,
      "hatred": 9067,
      "exercises": 9068,
      "2nd": 9069,
      "aids": 9070,
      "borders": 9071,
      "ckey": 9072,
      "enchant": 9073,
      "arse": 9074,
      "kel": 9075,
      "reef": 9076,
      "interference": 9077,
      "undertaking": 9078,
      "surplus": 9079,
      "instantly": 9080,
      "remembering": 9081,
      "gardening": 9082,
      "substances": 9083,
      "ridiculous": 9084,
      "ranging": 9085,
      "vanished": 9086,
      "hostility": 9087,
      "cuba": 9088,
      "rivals": 9089,
      "ambitious": 9090,
      "simultaneously": 9091,
      "peoples": 9092,
      "59": 9093,
      "dul": 9094,
      "fü": 9095,
      "ji": 9096,
      "ante": 9097,
      "rection": 9098,
      "resur": 9099,
      "isles": 9100,
      "toward": 9101,
      "locks": 9102,
      "verbal": 9103,
      "util": 9104,
      "impris": 9105,
      "rily": 9106,
      "nez": 9107,
      "prostit": 9108,
      "trum": 9109,
      "percept": 9110,
      "parks": 9111,
      "ideology": 9112,
      "forecast": 9113,
      "applying": 9114,
      "nationalism": 9115,
      "patri": 9116,
      "fordshire": 9117,
      "graphics": 9118,
      "cupboard": 9119,
      "journ": 9120,
      "explosion": 9121,
      "races": 9122,
      "nitro": 9123,
      "tube": 9124,
      "stimuli": 9125,
      "frankie": 9126,
      "errors": 9127,
      "dragged": 9128,
      "contempt": 9129,
      "cycling": 9130,
      "lachlan": 9131,
      "\".": 9132,
      "52": 9133,
      "54": 9134,
      "67": 9135,
      "fucking": 9136,
      "gies": 9137,
      "ige": 9138,
      "kal": 9139,
      "envis": 9140,
      "enabling": 9141,
      "conspir": 9142,
      "ammed": 9143,
      "shining": 9144,
      "illumin": 9145,
      "blew": 9146,
      "rendered": 9147,
      "tenham": 9148,
      "intri": 9149,
      "guided": 9150,
      "needle": 9151,
      "mighty": 9152,
      "socio": 9153,
      "pulse": 9154,
      "extending": 9155,
      "privately": 9156,
      "dealer": 9157,
      "tickets": 9158,
      "1963": 9159,
      "flowing": 9160,
      "trusted": 9161,
      "nicola": 9162,
      "1931": 9163,
      "primitive": 9164,
      "transp": 9165,
      "austria": 9166,
      "accessible": 9167,
      "gloom": 9168,
      "investigations": 9169,
      "kov": 9170,
      "multiple": 9171,
      "routes": 9172,
      "embarrassed": 9173,
      "enemies": 9174,
      "mammals": 9175,
      "privatisation": 9176,
      "imprisonment": 9177,
      "bund": 9178,
      "uated": 9179,
      "rosa": 9180,
      "solit": 9181,
      "shade": 9182,
      "agers": 9183,
      "esty": 9184,
      "upright": 9185,
      "opard": 9186,
      "elt": 9187,
      "crafts": 9188,
      "corrup": 9189,
      "buckingham": 9190,
      "supper": 9191,
      "portray": 9192,
      "systematic": 9193,
      "divide": 9194,
      "nearer": 9195,
      "modular": 9196,
      "departmental": 9197,
      "lengths": 9198,
      "boundary": 9199,
      "registration": 9200,
      "comparable": 9201,
      "fantasy": 9202,
      "clergy": 9203,
      "symbolic": 9204,
      "gifts": 9205,
      "dollars": 9206,
      "speculation": 9207,
      "publishers": 9208,
      "fringe": 9209,
      "obscure": 9210,
      ":(": 9211,
      "bia": 9212,
      "tat": 9213,
      "iner": 9214,
      "ena": 9215,
      "stic": 9216,
      "hector": 9217,
      "acies": 9218,
      "conv": 9219,
      "exile": 9220,
      "frowned": 9221,
      "derry": 9222,
      "offensive": 9223,
      "undertake": 9224,
      "colm": 9225,
      "submitted": 9226,
      "decay": 9227,
      "writings": 9228,
      "northum": 9229,
      "namely": 9230,
      "unionist": 9231,
      "unionists": 9232,
      "owed": 9233,
      "trustee": 9234,
      "messages": 9235,
      "nationally": 9236,
      "limitations": 9237,
[...]
