{
  "version": "1.0",
  "truncation": null,
  "padding": null,
  "added_tokens": [
    {
      "id": 0,
      "content": "<pad>",
      "single_word": false,
      "lstrip": false,
      "rstrip": false,
      "normalized": false,
      "special": true
    },
    {
      "id": 1,
      "content": "<s>",
      "single_word": false,
      "lstrip": false,
      "rstrip": false,
      "normalized": false,
      "special": true
    },
    {
      "id": 2,
      "content": "</s>",
      "single_word": false,
      "lstrip": false,
      "rstrip": false,
      "normalized": false,
      "special": true
    },
    {
      "id": 3,
      "content": "<unk>",
      "single_word": false,
      "lstrip": false,
      "rstrip": false,
      "normalized": false,
      "special": true
    },
    {
      "id": 4,
      "content": "<mask>",
      "single_word": false,
      "lstrip": false,
      "rstrip": false,
      "normalized": false,
      "special": true
    },
    {
      "id": 5,
      "content": "<sep>",
      "single_word": false,
      "lstrip": false,
      "rstrip": false,
      "normalized": false,
      "special": true
    }
  ],
  "normalizer": {
    "type": "NFKC"
  },
  "pre_tokenizer": {
    "type": "Whitespace"
  },
  "post_processor": null,
  "decoder": null,
  "model": {
    "type": "BPE",
    "dropout": null,
    "unk_token": null,
    "continuing_subword_prefix": null,
    "end_of_word_suffix": null,
    "fuse_unk": false,
    "byte_fallback": false,
    "ignore_merges": false,
    "vocab": {
      "<pad>": 0,
      "<s>": 1,
      "</s>": 2,
      "<unk>": 3,
      "<mask>": 4,
      "<sep>": 5,
      "!": 6,
      "\"": 7,
      "#": 8,
      "$": 9,
      "%": 10,
      "&": 11,
      "'": 12,
      "(": 13,
      ")": 14,
      "*": 15,
      "+": 16,
      ",": 17,
      "-": 18,
      ".": 19,
      "/": 20,
      "0": 21,
      "1": 22,
      "2": 23,
      "3": 24,
      "4": 25,
      "5": 26,
      "6": 27,
      "7": 28,
      "8": 29,
      "9": 30,
      ":": 31,
      ";": 32,
      "<": 33,
      "=": 34,
      ">": 35,
      "?": 36,
      "@": 37,
      "C": 38,
      "E": 39,
      "H": 40,
      "M": 41,
      "N": 42,
      "P": 43,
      "Q": 44,
      "R": 45,
      "T": 46,
      "Z": 47,
      "[": 48,
      "\\": 49,
      "]": 50,
      "^": 51,
      "_": 52,
      "`": 53,
      "a": 54,
      "b": 55,
      "c": 56,
      "d": 57,
      "e": 58,
      "f": 59,
      "g": 60,
      "h": 61,
      "i": 62,
      "j": 63,
      "k": 64,
      "l": 65,
      "m": 66,
      "n": 67,
      "o": 68,
      "p": 69,
      "q": 70,
      "r": 71,
      "s": 72,
      "t": 73,
      "u": 74,
      "v": 75,
      "w": 76,
      "x": 77,
      "y": 78,
      "z": 79,
      "{": 80,
      "|": 81,
      "}": 82,
      "~": 83,
      "¡": 84,
      "¢": 85,
      "£": 86,
      "¥": 87,
      "¦": 88,
      "§": 89,
      "«": 90,
      "¬": 91,
      "­": 92,
      "®": 93,
      "°": 94,
      "±": 95,
      "¶": 96,
      "·": 97,
      "»": 98,
      "¿": 99,
      "×": 100,
      "ß": 101,
      "à": 102,
      "á": 103,
      "â": 104,
      "ã": 105,
      "ä": 106,
      "å": 107,
      "æ": 108,
      "ç": 109,
      "è": 110,
      "é": 111,
      "ê": 112,
      "ë": 113,
      "ì": 114,
      "í": 115,
      "î": 116,
      "ï": 117,
      "ð": 118,
      "ñ": 119,
      "ò": 120,
      "ó": 121,
      "ô": 122,
      "õ": 123,
      "ö": 124,
      "÷": 125,
      "ø": 126,
      "ù": 127,
      "ú": 128,
      "û": 129,
      "ü": 130,
      "ý": 131,
      "þ": 132,
      "ÿ": 133,
      "ā": 134,
      "ă": 135,
      "ą": 136,
      "ć": 137,
      "ĉ": 138,
      "ċ": 139,
      "č": 140,
      "ď": 141,
      "đ": 142,
      "ē": 143,
      "ĕ": 144,
      "ė": 145,
      "ę": 146,
      "ě": 147,
      "ĝ": 148,
      "ğ": 149,
      "ġ": 150,
      "ģ": 151,
      "ĥ": 152,
      "ħ": 153,
      "ĩ": 154,
      "ī": 155,
      "ĭ": 156,
      "į": 157,
      "ı": 158,
      "ĵ": 159,
      "ķ": 160,
      "ĺ": 161,
      "ļ": 162,
      "ľ": 163,
      "ł": 164,
      "ń": 165,
      "ņ": 166,
      "ň": 167,
      "ŋ": 168,
      "ō": 169,
      "ŏ": 170,
      "ő": 171,
      "œ": 172,
      "ŗ": 173,
      "ř": 174,
      "ś": 175,
      "ŝ": 176,
      "ş": 177,
      "š": 178,
      "ţ": 179,
      "ť": 180,
      "ũ": 181,
      "ū": 182,
      "ŭ": 183,
      "ů": 184,
      "ű": 185,
      "ų": 186,
      "ŵ": 187,
      "ŷ": 188,
      "ź": 189,
      "ż": 190,
      "ž": 191,
      "ƒ": 192,
      "ƙ": 193,
      "ơ": 194,
      "ư": 195,
      "ƹ": 196,
      "ƿ": 197,
      "ǀ": 198,
      "ǁ": 199,
      "ǃ": 200,
      "ǎ": 201,
      "ǐ": 202,
      "ǒ": 203,
      "ǔ": 204,
      "ǣ": 205,
      "ǧ": 206,
      "ǩ": 207,
      "ǫ": 208,
      "ǰ": 209,
      "ǵ": 210,
      "ǹ": 211,
      "ǿ": 212,
      "ș": 213,
      "ț": 214,
      "ȝ": 215,
      "ȳ": 216,
      "ɑ": 217,
      "ɒ": 218,
      "ɓ": 219,
      "ɔ": 220,
      "ɕ": 221,
      "ɖ": 222,
      "ɗ": 223,
      "ɘ": 224,
      "ə": 225,
      "ɛ": 226,
      "ɡ": 227,
      "ɣ": 228,
      "ɦ": 229,
      "ɨ": 230,
      "ɪ": 231,
      "ɬ": 232,
      "ɭ": 233,
      "ɯ": 234,
      "ɲ": 235,
      "ɴ": 236,
      "ɸ": 237,
      "ɹ": 238,
      "ɾ": 239,
      "ʀ": 240,
      "ʁ": 241,
      "ʂ": 242,
      "ʃ": 243,
      "ʊ": 244,
      "ʋ": 245,
      "ʒ": 246,
      "ʔ": 247,
      "ʕ": 248,
      "ʞ": 249,
      "ʤ": 250,
      "ʧ": 251,
      "ʻ": 252,
      "ʼ": 253,
      "ʽ": 254,
      "ʾ": 255,
      "ʿ": 256,
      "ˀ": 257,
      "ˁ": 258,
      "ˈ": 259,
      "ˎ": 260,
      "ˏ": 261,
      "ː": 262,
      "̀": 263,
      "́": 264,
      "̂": 265,
      "̃": 266,
      "̄": 267,
      "̆": 268,
      "̇": 269,
      "̈": 270,
      "̊": 271,
      "̋": 272,
      "̌": 273,
      "̍": 274,
      "̎": 275,
      "̏": 276,
      "̐": 277,
      "̑": 278,
      "̒": 279,
      "̓": 280,
      "̔": 281,
      "̖": 282,
      "̗": 283,
      "̘": 284,
      "̙": 285,
      "̜": 286,
      "̝": 287,
      "̞": 288,
      "̟": 289,
      "̠": 290,
      "̡": 291,
      "̤": 292,
      "̥": 293,
      "̨": 294,
      "̩": 295,
      "̪": 296,
      "̫": 297,
      "̬": 298,
      "̮": 299,
      "̯": 300,
      "̱": 301,
      "̲": 302,
      "̳": 303,
      "̴": 304,
      "̵": 305,
      "̶": 306,
      "̹": 307,
      "̺": 308,
      "̻": 309,
      "̽": 310,
      "̿": 311,
      "ͅ": 312,
      "͆": 313,
      "͇": 314,
      "͈": 315,
      "͉": 316,
      "͊": 317,
      "͋": 318,
      "͌": 319,
      "͍": 320,
      "͎": 321,
      "͐": 322,
      "͑": 323,
      "͒": 324,
      "͓": 325,
      "͔": 326,
      "͕": 327,
      "͖": 328,
      "͗": 329,
      "͙": 330,
      "͚": 331,
      "͜": 332,
      "͞": 333,
      "͟": 334,
      "͠": 335,
      "͡": 336,
      "͢": 337,
      "ͣ": 338,
      "ͤ": 339,
      "ͥ": 340,
      "ͧ": 341,
      "ͬ": 342,
      "ΐ": 343,
      "ά": 344,
      "έ": 345,
      "ή": 346,
      "ί": 347,
      "α": 348,
      "β": 349,
      "γ": 350,
      "δ": 351,
      "ε": 352,
      "ζ": 353,
      "η": 354,
      "θ": 355,
      "ι": 356,
      "κ": 357,
      "λ": 358,
      "μ": 359,
      "ν": 360,
      "ξ": 361,
      "ο": 362,
      "π": 363,
      "ρ": 364,
      "ς": 365,
      "σ": 366,
      "τ": 367,
      "υ": 368,
      "φ": 369,
      "χ": 370,
      "ψ": 371,
      "ω": 372,
      "ό": 373,
      "ύ": 374,
      "ώ": 375,
      "ϛ": 376,
      "ϝ": 377,
      "ϣ": 378,
      "ϩ": 379,
      "а": 380,
      "б": 381,
      "в": 382,
      "г": 383,
      "д": 384,
      "е": 385,
      "ж": 386,
      "з": 387,
      "и": 388,
      "й": 389,
      "к": 390,
      "л": 391,
      "м": 392,
      "н": 393,
      "о": 394,
      "п": 395,
      "р": 396,
      "с": 397,
      "т": 398,
      "у": 399,
      "х": 400,
      "ц": 401,
      "ч": 402,
      "ш": 403,
      "щ": 404,
      "ъ": 405,
      "ы": 406,
      "ь": 407,
      "э": 408,
      "ю": 409,
      "я": 410,
      "ё": 411,
      "ђ": 412,
      "є": 413,
      "і": 414,
      "ј": 415,
      "љ": 416,
      "њ": 417,
      "ћ": 418,
      "ќ": 419,
      "џ": 420,
      "҅": 421,
      "ҹ": 422,
      "ә": 423,
      "ӝ": 424,
      "ա": 425,
      "գ": 426,
      "դ": 427,
      "ե": 428,
      "է": 429,
      "ը": 430,
      "ի": 431,
      "լ": 432,
      "հ": 433,
      "ղ": 434,
      "մ": 435,
      "յ": 436,
      "ն": 437,
      "շ": 438,
      "ո": 439,
      "ս": 440,
      "վ": 441,
      "տ": 442,
      "ր": 443,
      "ց": 444,
      "ւ": 445,
      "ք": 446,
      "ְ": 447,
      "ֲ": 448,
      "ִ": 449,
      "ֵ": 450,
      "ֶ": 451,
      "ַ": 452,
      "ָ": 453,
      "ֹ": 454,
      "ּ": 455,
      "ׁ": 456,
      "ׂ": 457,
      "א": 458,
      "ב": 459,
      "ג": 460,
      "ד": 461,
      "ה": 462,
      "ו": 463,
      "ז": 464,
      "ח": 465,
      "ט": 466,
      "י": 467,
      "ך": 468,
      "כ": 469,
      "ל": 470,
      "ם": 471,
      "מ": 472,
      "ן": 473,
      "נ": 474,
      "ס": 475,
      "ע": 476,
      "פ": 477,
      "צ": 478,
      "ק": 479,
      "ר": 480,
      "ש": 481,
      "ת": 482,
      "װ": 483,
      "׳": 484,
      "״": 485,
      "ء": 486,
      "آ": 487,
      "أ": 488,
      "ا": 489,
      "ب": 490,
      "ة": 491,
      "ت": 492,
      "ث": 493,
      "ج": 494,
      "ح": 495,
      "خ": 496,
      "د": 497,
      "ر": 498,
      "ز": 499,
      "س": 500,
      "ش": 501,
      "ص": 502,
      "ط": 503,
      "ظ": 504,
      "ع": 505,
      "غ": 506,
      "ـ": 507,
      "ف": 508,
      "ق": 509,
      "ك": 510,
      "ل": 511,
      "م": 512,
      "ن": 513,
      "ه": 514,
      "و": 515,
      "ى": 516,
      "ي": 517,
      "َ": 518,
      "ُ": 519,
      "ِ": 520,
      "ّ": 521,
      "ْ": 522,
      "ٰ": 523,
      "ٱ": 524,
      "ڌ": 525,
      "ک": 526,
      "گ": 527,
      "ہ": 528,
      "ی": 529,
      "ۖ": 530,
      "۝": 531,
      "۞": 532,
      "ܐ": 533,
      "ܘ": 534,
      "ܝ": 535,
      "ܡ": 536,
      "ܢ": 537,
      "ܣ": 538,
      "ܩ": 539,
      "ܪ": 540,
      "ܰ": 541,
      "ܳ": 542,
      "ं": 543,
      "अ": 544,
      "आ": 545,
      "ए": 546,
      "क": 547,
      "ख": 548,
      "ग": 549,
      "ज": 550,
      "ञ": 551,
      "ट": 552,
      "ठ": 553,
      "ड": 554,
      "ढ": 555,
      "ण": 556,
      "त": 557,
      "थ": 558,
      "द": 559,
      "ध": 560,
      "न": 561,
      "प": 562,
      "ब": 563,
      "म": 564,
      "य": 565,
      "र": 566,
      "ऱ": 567,
      "ळ": 568,
      "व": 569,
      "श": 570,
      "ष": 571,
      "स": 572,
      "ह": 573,
      "ा": 574,
      "ि": 575,
      "ी": 576,
      "ु": 577,
      "ू": 578,
      "ृ": 579,
      "े": 580,
      "ै": 581,
      "ो": 582,
      "्": 583,
      "।": 584,
      "॥": 585,
      "ং": 586,
      "ঃ": 587,
      "অ": 588,
      "আ": 589,
      "ই": 590,
      "এ": 591,
      "ও": 592,
      "ক": 593,
      "গ": 594,
      "চ": 595,
      "ছ": 596,
      "ণ": 597,
      "ত": 598,
      "থ": 599,
      "দ": 600,
      "ধ": 601,
      "ন": 602,
      "প": 603,
      "ব": 604,
      "ভ": 605,
      "ম": 606,
      "য": 607,
      "র": 608,
      "ল": 609,
      "শ": 610,
      "ষ": 611,
      "স": 612,
      "হ": 613,
      "়": 614,
      "া": 615,
      "ি": 616,
      "ী": 617,
      "ু": 618,
      "ৃ": 619,
      "ে": 620,
      "ো": 621,
      "্": 622,
      "ਂ": 623,
      "ਅ": 624,
      "ਆ": 625,
      "ਇ": 626,
      "ਈ": 627,
      "ਕ": 628,
      "ਗ": 629,
      "ਜ": 630,
      "ਢ": 631,
      "ਤ": 632,
      "ਦ": 633,
      "ਧ": 634,
      "ਨ": 635,
      "ਪ": 636,
      "ਰ": 637,
      "ਲ": 638,
      "ਵ": 639,
      "ਸ": 640,
      "ਹ": 641,
      "਼": 642,
      "ਾ": 643,
      "ਿ": 644,
      "ੀ": 645,
      "ੁ": 646,
      "ੂ": 647,
      "ੇ": 648,
      "ੈ": 649,
      "ੌ": 650,
      "੍": 651,
      "ੜ": 652,
      "ੰ": 653,
      "அ": 654,
      "இ": 655,
      "உ": 656,
      "க": 657,
      "ட": 658,
      "த": 659,
      "ன": 660,
      "ப": 661,
      "ம": 662,
      "ய": 663,
      "ர": 664,
      "ல": 665,
      "வ": 666,
      "ா": 667,
      "ி": 668,
      "ு": 669,
      "ெ": 670,
      "ை": 671,
      "ோ": 672,
      "்": 673,
      "ం": 674,
      "ః": 675,
      "ఖ": 676,
      "డ": 677,
      "మ": 678,
      "ల": 679,
      "వ": 680,
      "ా": 681,
      "ి": 682,
      "ీ": 683,
      "ు": 684,
      "ూ": 685,
      "ృ": 686,
      "ౄ": 687,
      "ె": 688,
      "ే": 689,
      "ై": 690,
      "ొ": 691,
      "ో": 692,
      "ౌ": 693,
      "్": 694,
      "ಅ": 695,
      "ಕ": 696,
      "ಗ": 697,
      "ನ": 698,
      "ಬ": 699,
      "ರ": 700,
      "ವ": 701,
      "ಾ": 702,
      "ಿ": 703,
      "್": 704,
      "ഏ": 705,
      "ക": 706,
      "ച": 707,
      "ട": 708,
      "ണ": 709,
      "ത": 710,
      "ന": 711,
      "പ": 712,
      "മ": 713,
      "യ": 714,
      "ര": 715,
      "ഴ": 716,
      "ാ": 717,
      "ി": 718,
      "ു": 719,
      "ൂ": 720,
      "്": 721,
      "ൽ": 722,
      "ก": 723,
      "จ": 724,
      "ต": 725,
      "น": 726,
      "พ": 727,
      "ม": 728,
      "ร": 729,
      "ส": 730,
      "ห": 731,
      "อ": 732,
      "ะ": 733,
      "ุ": 734,
      "ฺ": 735,
      "฿": 736,
      "เ": 737,
      "ไ": 738,
      "่": 739,
      "ํ": 740,
      "་": 741,
      "།": 742,
      "ག": 743,
      "ང": 744,
      "པ": 745,
      "ཙ": 746,
      "ས": 747,
      "ེ": 748,
      "ོ": 749,
      "ა": 750,
      "ვ": 751,
      "თ": 752,
      "ი": 753,
      "ლ": 754,
      "ნ": 755,
      "ო": 756,
      "რ": 757,
      "ფ": 758,
      "ღ": 759,
      "ხ": 760,
      "ሴ": 761,
      "ᐱ": 762,
      "ᐳ": 763,
      "ᐸ": 764,
      "ᑎ": 765,
      "ᑐ": 766,
      "ᑕ": 767,
      "ᛏ": 768,
      "ᛟ": 769,
      "᷊": 770,
      "ḇ": 771,
      "ḍ": 772,
      "ḏ": 773,
      "ḗ": 774,
      "ḟ": 775,
      "ḡ": 776,
      "ḣ": 777,
      "ḥ": 778,
      "ḩ": 779,
      "ḫ": 780,
      "ḯ": 781,
      "ḱ": 782,
      "ḳ": 783,
      "ḵ": 784,
      "ḷ": 785,
      "ḻ": 786,
      "ḿ": 787,
      "ṁ": 788,
      "ṃ": 789,
      "ṅ": 790,
      "ṇ": 791,
      "ṑ": 792,
      "ṓ": 793,
      "ṕ": 794,
      "ṛ": 795,
      "ṟ": 796,
      "ṣ": 797,
      "ṫ": 798,
      "ṭ": 799,
      "ṯ": 800,
      "ẑ": 801,
      "ẓ": 802,
      "ẖ": 803,
      "ạ": 804,
      "ả": 805,
      "ấ": 806,
      "ầ": 807,
      "ẩ": 808,
      "ẫ": 809,
      "ậ": 810,
      "ắ": 811,
      "ằ": 812,
      "ẹ": 813,
      "ẽ": 814,
      "ế": 815,
      "ề": 816,
      "ễ": 817,
      "ệ": 818,
      "ỉ": 819,
      "ị": 820,
      "ọ": 821,
      "ỏ": 822,
      "ố": 823,
      "ồ": 824,
      "ổ": 825,
      "ộ": 826,
      "ớ": 827,
      "ờ": 828,
      "ở": 829,
      "ợ": 830,
      "ụ": 831,
      "ủ": 832,
      "ừ": 833,
      "ử": 834,
      "ữ": 835,
      "ỳ": 836,
      "ἀ": 837,
      "ἁ": 838,
      "ἂ": 839,
      "ἄ": 840,
      "ἅ": 841,
      "ἆ": 842,
      "ἐ": 843,
      "ἑ": 844,
      "ἔ": 845,
      "ἕ": 846,
      "ἠ": 847,
      "ἡ": 848,
      "ἥ": 849,
      "ἦ": 850,
      "ἰ": 851,
      "ἱ": 852,
      "ἲ": 853,
      "ἵ": 854,
      "ἶ": 855,
      "ὀ": 856,
      "ὁ": 857,
      "ὄ": 858,
      "ὅ": 859,
      "ὐ": 860,
      "ὑ": 861,
      "ὔ": 862,
      "ὕ": 863,
      "ὖ": 864,
      "ὗ": 865,
      "ὦ": 866,
      "ὰ": 867,
      "ὲ": 868,
      "ὴ": 869,
      "ὶ": 870,
      "ὺ": 871,
      "ᾰ": 872,
      "ᾱ": 873,
      "ᾶ": 874,
      "ῆ": 875,
      "ῖ": 876,
      "ῥ": 877,
      "ῦ": 878,
      "ῶ": 879,
      "‌": 880,
      "‍": 881,
      "‎": 882,
      "‏": 883,
      "‐": 884,
      "‒": 885,
      "–": 886,
      "—": 887,
      "―": 888,
      "‖": 889,
      "‘": 890,
      "’": 891,
      "‛": 892,
      "“": 893,
      "”": 894,
      "„": 895,
      "†": 896,
      "‡": 897,
      "•": 898,
      "‰": 899,
      "′": 900,
      "‹": 901,
      "›": 902,
      "⁄": 903,
      "⁠": 904,
      "₠": 905,
      "₣": 906,
      "₦": 907,
      "€": 908,
      "₯": 909,
      "₱": 910,
      "₹": 911,
      "₽": 912,
      "℔": 913,
      "℘": 914,
      "℩": 915,
      "ↀ": 916,
      "←": 917,
      "→": 918,
      "↔": 919,
      "↦": 920,
      "⇄": 921,
      "⇒": 922,
      "⇔": 923,
      "∀": 924,
      "∂": 925,
      "∅": 926,
      "∆": 927,
      "∇": 928,
      "∈": 929,
      "∉": 930,
      "∎": 931,
      "∏": 932,
      "∑": 933,
      "−": 934,
      "∗": 935,
      "∘": 936,
      "∙": 937,
      "√": 938,
      "∝": 939,
      "∞": 940,
      "∠": 941,
      "∧": 942,
      "∨": 943,
      "∩": 944,
      "∪": 945,
      "∫": 946,
      "∴": 947,
      "∶": 948,
      "∸": 949,
      "∼": 950,
      "≃": 951,
      "≈": 952,
      "≘": 953,
      "≠": 954,
      "≡": 955,
      "≤": 956,
      "≥": 957,
      "≫": 958,
      "≲": 959,
      "≼": 960,
      "≽": 961,
      "⊂": 962,
      "⊃": 963,
      "⊆": 964,
      "⊇": 965,
      "⊊": 966,
      "⊕": 967,
      "⊗": 968,
      "⊢": 969,
      "⊦": 970,
      "⊨": 971,
      "⋃": 972,
      "⋅": 973,
      "⋍": 974,
      "⋖": 975,
      "⌀": 976,
      "⍋": 977,
      "⍌": 978,
      "⍍": 979,
      "⎯": 980,
      "⏑": 981,
      "⏨": 982,
      "␣": 983,
      "─": 984,
      "┌": 985,
      "┐": 986,
      "╥": 987,
      "╨": 988,
      "□": 989,
      "△": 990,
      "◆": 991,
      "●": 992,
      "★": 993,
      "☺": 994,
      "♠": 995,
      "♣": 996,
      "♥": 997,
      "♦": 998,
      "♭": 999,
      "♯": 1000,
      "✸": 1001,
      "⟨": 1002,
      "⟩": 1003,
      "ⱑ": 1004,
      "ⱷ": 1005,
      "ⲁ": 1006,
      "ⲏ": 1007,
      "ⲓ": 1008,
      "ⲕ": 1009,
      "ⲙ": 1010,
      "ⲛ": 1011,
      "ⲟ": 1012,
      "ⲣ": 1013,
      "ⲫ": 1014,
      "⸬": 1015,
      "、": 1016,
      "。": 1017,
      "《": 1018,
      "》": 1019,
      "〮": 1020,
      "〯": 1021,
      "い": 1022,
      "ぇ": 1023,
      "が": 1024,
      "す": 1025,
      "ち": 1026,
      "ぢ": 1027,
      "っ": 1028,
      "づ": 1029,
      "で": 1030,
      "と": 1031,
      "に": 1032,
      "は": 1033,
      "へ": 1034,
      "ほ": 1035,
      "め": 1036,
      "も": 1037,
      "り": 1038,
      "る": 1039,
      "ろ": 1040,
      "わ": 1041,
      "を": 1042,
      "ん": 1043,
      "イ": 1044,
      "ウ": 1045,
      "ェ": 1046,
      "オ": 1047,
      "カ": 1048,
      "キ": 1049,
      "コ": 1050,
      "サ": 1051,
      "ザ": 1052,
      "シ": 1053,
      "ジ": 1054,
      "ス": 1055,
      "ズ": 1056,
      "セ": 1057,
      "ソ": 1058,
      "タ": 1059,
      "ダ": 1060,
      "チ": 1061,
      "ッ": 1062,
      "ツ": 1063,
      "デ": 1064,
      "ト": 1065,
      "ド": 1066,
      "ネ": 1067,
      "マ": 1068,
      "ャ": 1069,
      "ヤ": 1070,
      "ョ": 1071,
      "ヨ": 1072,
      "レ": 1073,
      "ワ": 1074,
      "ン": 1075,
      "ー": 1076,
      "ヽ": 1077,
      "ヾ": 1078,
      "ㄅ": 1079,
      "ㄆ": 1080,
      "ㄇ": 1081,
      "ㄈ": 1082,
      "ㄌ": 1083,
      "ㄛ": 1084,
      "ㄢ": 1085,
      "ㄨ": 1086,
      "一": 1087,
      "万": 1088,
      "上": 1089,
      "下": 1090,
      "不": 1091,
      "专": 1092,
      "世": 1093,
      "中": 1094,
      "丸": 1095,
      "之": 1096,
      "书": 1097,
      "乾": 1098,
      "产": 1099,
      "人": 1100,
      "亿": 1101,
      "仕": 1102,
      "代": 1103,
      "令": 1104,
      "伊": 1105,
      "体": 1106,
      "來": 1107,
      "俥": 1108,
      "修": 1109,
      "倚": 1110,
      "倭": 1111,
      "側": 1112,
      "傌": 1113,
      "元": 1114,
      "兆": 1115,
      "先": 1116,
      "兌": 1117,
      "兩": 1118,
      "八": 1119,
      "兵": 1120,
      "内": 1121,
      "冬": 1122,
      "凡": 1123,
      "刀": 1124,
      "刑": 1125,
      "力": 1126,
      "動": 1127,
      "勢": 1128,
      "北": 1129,
      "千": 1130,
      "卒": 1131,
      "卧": 1132,
      "卿": 1133,
      "原": 1134,
      "厳": 1135,
      "史": 1136,
      "后": 1137,
      "向": 1138,
      "吒": 1139,
      "君": 1140,
      "周": 1141,
      "命": 1142,
      "哪": 1143,
      "哲": 1144,
      "唐": 1145,
      "啲": 1146,
      "嘅": 1147,
      "国": 1148,
      "國": 1149,
      "土": 1150,
      "增": 1151,
      "士": 1152,
      "大": 1153,
      "天": 1154,
      "太": 1155,
      "头": 1156,
      "奇": 1157,
      "套": 1158,
      "奶": 1159,
      "好": 1160,
      "妈": 1161,
      "娘": 1162,
      "婆": 1163,
      "媛": 1164,
      "子": 1165,
      "字": 1166,
      "學": 1167,
      "安": 1168,
      "定": 1169,
      "实": 1170,
      "室": 1171,
      "宫": 1172,
      "寇": 1173,
      "寶": 1174,
      "射": 1175,
      "少": 1176,
      "山": 1177,
      "峨": 1178,
      "崑": 1179,
      "嵯": 1180,
      "帝": 1181,
      "幡": 1182,
      "年": 1183,
      "序": 1184,
      "廟": 1185,
      "当": 1186,
      "影": 1187,
      "很": 1188,
      "徒": 1189,
      "御": 1190,
      "思": 1191,
      "性": 1192,
      "恒": 1193,
      "慶": 1194,
      "我": 1195,
      "房": 1196,
      "手": 1197,
      "把": 1198,
      "振": 1199,
      "提": 1200,
      "摩": 1201,
      "撞": 1202,
      "支": 1203,
      "攻": 1204,
      "政": 1205,
      "文": 1206,
      "斯": 1207,
      "斷": 1208,
      "方": 1209,
      "无": 1210,
      "日": 1211,
      "星": 1212,
      "昭": 1213,
      "是": 1214,
      "時": 1215,
      "智": 1216,
      "月": 1217,
      "期": 1218,
      "木": 1219,
      "本": 1220,
      "来": 1221,
      "板": 1222,
      "染": 1223,
      "桃": 1224,
      "森": 1225,
      "極": 1226,
      "橋": 1227,
      "橘": 1228,
      "機": 1229,
      "次": 1230,
      "正": 1231,
      "殻": 1232,
      "殿": 1233,
      "毒": 1234,
      "水": 1235,
      "治": 1236,
      "法": 1237,
      "津": 1238,
      "流": 1239,
      "海": 1240,
      "済": 1241,
      "源": 1242,
      "漫": 1243,
      "火": 1244,
      "炮": 1245,
      "燈": 1246,
      "爆": 1247,
      "版": 1248,
      "物": 1249,
      "犬": 1250,
      "狐": 1251,
      "王": 1252,
      "珍": 1253,
      "理": 1254,
      "瓦": 1255,
      "生": 1256,
      "画": 1257,
      "略": 1258,
      "當": 1259,
      "疎": 1260,
      "白": 1261,
      "百": 1262,
      "的": 1263,
      "皇": 1264,
      "石": 1265,
      "砲": 1266,
      "祈": 1267,
      "票": 1268,
      "程": 1269,
      "童": 1270,
      "紀": 1271,
      "紹": 1272,
      "經": 1273,
      "緑": 1274,
      "縄": 1275,
      "縣": 1276,
      "级": 1277,
      "结": 1278,
      "继": 1279,
      "续": 1280,
      "羽": 1281,
      "聰": 1282,
      "肇": 1283,
      "肚": 1284,
      "至": 1285,
      "臺": 1286,
      "芋": 1287,
      "花": 1288,
      "苦": 1289,
      "莲": 1290,
      "葛": 1291,
      "蔣": 1292,
      "薩": 1293,
      "藏": 1294,
      "藤": 1295,
      "蘇": 1296,
      "虎": 1297,
      "蜀": 1298,
      "街": 1299,
      "衛": 1300,
      "親": 1301,
      "觀": 1302,
      "記": 1303,
      "語": 1304,
      "誦": 1305,
      "諷": 1306,
      "论": 1307,
      "谈": 1308,
      "貞": 1309,
      "賢": 1310,
      "赫": 1311,
      "走": 1312,
      "跳": 1313,
      "車": 1314,
      "載": 1315,
      "车": 1316,
      "达": 1317,
      "通": 1318,
      "道": 1319,
      "遠": 1320,
      "那": 1321,
      "郎": 1322,
      "部": 1323,
      "郭": 1324,
      "酸": 1325,
      "重": 1326,
      "金": 1327,
      "鐘": 1328,
      "镭": 1329,
      "長": 1330,
      "闕": 1331,
      "闹": 1332,
      "阶": 1333,
      "阿": 1334,
      "降": 1335,
      "隊": 1336,
      "難": 1337,
      "雷": 1338,
      "青": 1339,
      "静": 1340,
      "革": 1341,
      "頭": 1342,
      "頼": 1343,
      "食": 1344,
      "香": 1345,
      "馬": 1346,
      "駒": 1347,
      "马": 1348,
      "高": 1349,
      "鬼": 1350,
      "魂": 1351,
      "魔": 1352,
      "鸽": 1353,
      "黃": 1354,
      "黎": 1355,
      "龙": 1356,
      "ꜣ": 1357,
      "ꜥ": 1358,
      "ꞌ": 1359,
      "가": 1360,
      "거": 1361,
      "공": 1362,
      "꽃": 1363,
      "날": 1364,
      "년": 1365,
      "는": 1366,
      "단": 1367,
      "동": 1368,
      "들": 1369,
      "라": 1370,
      "럼": 1371,
      "르": 1372,
      "른": 1373,
      "리": 1374,
      "릿": 1375,
      "망": 1376,
      "뭐": 1377,
      "민": 1378,
      "방": 1379,
      "배": 1380,
      "백": 1381,
      "불": 1382,
      "빛": 1383,
      "설": 1384,
      "소": 1385,
      "솔": 1386,
      "수": 1387,
      "승": 1388,
      "실": 1389,
      "아": 1390,
      "야": 1391,
      "양": 1392,
      "여": 1393,
      "오": 1394,
      "요": 1395,
      "우": 1396,
      "원": 1397,
      "을": 1398,
      "의": 1399,
      "이": 1400,
      "인": 1401,
      "일": 1402,
      "잎": 1403,
      "장": 1404,
      "절": 1405,
      "져": 1406,
      "중": 1407,
      "지": 1408,
      "처": 1409,
      "측": 1410,
      "치": 1411,
      "판": 1412,
      "푸": 1413,
      "피": 1414,
      "하": 1415,
      "해": 1416,
      "혼": 1417,
      "�": 1418,
      "𐌀": 1419,
      "𐌄": 1420,
      "𐌅": 1421,
      "𐌉": 1422,
      "𐌋": 1423,
      "𐌠": 1424,
      "𐌡": 1425,
      "𐌢": 1426,
      "𐌣": 1427,
      "𐌰": 1428,
      "𐌹": 1429,
      "𐌻": 1430,
      "𐌿": 1431,
      "𐍅": 1432,
      "𐍆": 1433,
      "𐐨": 1434,
      "𐐬": 1435,
      "𐐯": 1436,
      "𐐲": 1437,
      "𐐶": 1438,
      "𐐷": 1439,
      "𐐸": 1440,
      "𐐹": 1441,
      "𐐺": 1442,
      "𐐻": 1443,
      "𐐽": 1444,
      "𐐾": 1445,
      "𐑀": 1446,
      "𐑁": 1447,
      "𐑄": 1448,
      "𐑆": 1449,
      "𐑉": 1450,
      "𐑎": 1451,
      "𐑏": 1452,
      "𒀀": 1453,
      "𒀸": 1454,
      "𒁲": 1455,
      "𒄀": 1456,
      "𒄒": 1457,
      "𒈦": 1458,
      "𒈬": 1459,
      "𒉣": 1460,
      "𒉺": 1461,
      "𒊑": 1462,
      "𒋡": 1463,
      "𒌓": 1464,
      "𝄆": 1465,
      "🚲": 1466,
      "𦻙": 1467,
      "th": 1468,
      "in": 1469,
      "the": 1470,
      "an": 1471,
      "er": 1472,
      "on": 1473,
      "re": 1474,
      "at": 1475,
      "en": 1476,
      "ed": 1477,
      "al": 1478,
      "or": 1479,
      "st": 1480,
      "of": 1481,
      "ar": 1482,
      "and": 1483,
      "is": 1484,
      "as": 1485,
      "es": 1486,
      "it": 1487,
      "ic": 1488,
      "to": 1489,
      "ing": 1490,
      "ion": 1491,
      "ro": 1492,
      "le": 1493,
      "ou": 1494,
      "ent": 1495,
      "ch": 1496,
      "se": 1497,
      "de": 1498,
      "ly": 1499,
      "om": 1500,
      "ct": 1501,
      "be": 1502,
      "am": 1503,
      "il": 1504,
      "for": 1505,
      "ol": 1506,
      "ve": 1507,
      "ad": 1508,
      "ce": 1509,
      "ation": 1510,
      "un": 1511,
      "im": 1512,
      "ur": 1513,
      "con": 1514,
      "wh": 1515,
      "ver": 1516,
      "ig": 1517,
      "us": 1518,
      "ir": 1519,
      "lo": 1520,
      "was": 1521,
      "ter": 1522,
      "wi": 1523,
      "ul": 1524,
      "ra": 1525,
      "la": 1526,
      "mo": 1527,
      "id": 1528,
      "by": 1529,
      "pro": 1530,
      "he": 1531,
      "with": 1532,
      "te": 1533,
      "ge": 1534,
      "su": 1535,
      "ist": 1536,
      "com": 1537,
      "ma": 1538,
      "that": 1539,
      "po": 1540,
      "pe": 1541,
      "no": 1542,
      "are": 1543,
      "res": 1544,
      "ne": 1545,
      "ri": 1546,
      "ut": 1547,
      "ab": 1548,
      "per": 1549,
      "li": 1550,
      "we": 1551,
      "ac": 1552,
      "rom": 1553,
      "ex": 1554,
      "ment": 1555,
      "ther": 1556,
      "di": 1557,
      "19": 1558,
      "ate": 1559,
      "so": 1560,
      "em": 1561,
      "ap": 1562,
      "um": 1563,
      "oun": 1564,
      "ers": 1565,
      "ci": 1566,
      "ere": 1567,
      "ity": 1568,
      "qu": 1569,
      "from": 1570,
      "ts": 1571,
      "all": 1572,
      "co": 1573,
      "ld": 1574,
      "par": 1575,
      "sh": 1576,
      "ag": 1577,
      "et": 1578,
      "man": 1579,
      "his": 1580,
      "ich": 1581,
      "20": 1582,
      "ph": 1583,
      "cl": 1584,
      "ess": 1585,
      "ive": 1586,
      "ies": 1587,
      "ical": 1588,
      "ta": 1589,
      "fe": 1590,
      "igh": 1591,
      "ated": 1592,
      "du": 1593,
      "wor": 1594,
      "ha": 1595,
      "ant": 1596,
      "ish": 1597,
      "bo": 1598,
      "which": 1599,
      "ian": 1600,
      "der": 1601,
      "ay": 1602,
      "ber": 1603,
      "one": 1604,
      "por": 1605,
      "were": 1606,
      "gh": 1607,
      "ke": 1608,
      "act": 1609,
      "ear": 1610,
      "tr": 1611,
      "form": 1612,
      "end": 1613,
      "not": 1614,
      "op": 1615,
      "ard": 1616,
      "au": 1617,
      "this": 1618,
      "vi": 1619,
      "ill": 1620,
      "af": 1621,
      "ll": 1622,
      "od": 1623,
      "ary": 1624,
      "ine": 1625,
      "ame": 1626,
      "ions": 1627,
      "ure": 1628,
      "str": 1629,
      "up": 1630,
      "its": 1631,
      "wn": 1632,
      "other": 1633,
      "if": 1634,
      "me": 1635,
      "ally": 1636,
      "ud": 1637,
      "br": 1638,
      "but": 1639,
      "our": 1640,
      "ia": 1641,
      "out": 1642,
      "pl": 1643,
      "ted": 1644,
      "\",": 1645,
      "over": 1646,
      "ous": 1647,
      "low": 1648,
      "ass": 1649,
      "cent": 1650,
      "pla": 1651,
      "ong": 1652,
      "pres": 1653,
      "iv": 1654,
      "ast": 1655,
      "have": 1656,
      "ans": 1657,
      "part": 1658,
      "had": 1659,
      "red": 1660,
      "ence": 1661,
      "mar": 1662,
      "has": 1663,
      "can": 1664,
      "also": 1665,
      "gu": 1666,
      "comm": 1667,
      "ck": 1668,
      "iz": 1669,
      "00": 1670,
      "pr": 1671,
      "sy": 1672,
      "fer": 1673,
      "ho": 1674,
      "ser": 1675,
      "ev": 1676,
      "ome": 1677,
      "age": 1678,
      "ip": 1679,
      "comp": 1680,
      "ations": 1681,
      "ign": 1682,
      "ction": 1683,
      "their": 1684,
      "cor": 1685,
      "fir": 1686,
      "do": 1687,
      "bl": 1688,
      "land": 1689,
      "\".": 1690,
      "ition": 1691,
      "inter": 1692,
      "tim": 1693,
      "pos": 1694,
      "cre": 1695,
      "gen": 1696,
      "ould": 1697,
      "pa": 1698,
      "fo": 1699,
      "pre": 1700,
      "port": 1701,
      "ial": 1702,
      "dis": 1703,
      "new": 1704,
      "cont": 1705,
      "ound": 1706,
      "est": 1707,
      "king": 1708,
      "first": 1709,
      "ced": 1710,
      "ach": 1711,
      "ult": 1712,
      "av": 1713,
      "col": 1714,
      "ree": 1715,
      "ight": 1716,
      "ater": 1717,
      "min": 1718,
      "tw": 1719,
      "ates": 1720,
      "des": 1721,
      "most": 1722,
      "spe": 1723,
      "og": 1724,
      "ory": 1725,
      "who": 1726,
      "they": 1727,
      "coun": 1728,
      "pt": 1729,
      "able": 1730,
      "used": 1731,
      "ance": 1732,
      "ice": 1733,
      "incl": 1734,
      "been": 1735,
      "int": 1736,
      "ren": 1737,
      "year": 1738,
      "si": 1739,
      "rit": 1740,
      "el": 1741,
      "ces": 1742,
      "gr": 1743,
      "after": 1744,
      "some": 1745,
      "fin": 1746,
      "more": 1747,
      "pol": 1748,
      "ele": 1749,
      "such": 1750,
      "gro": 1751,
      "ks": 1752,
      "ten": 1753,
      "ins": 1754,
      "18": 1755,
      "reg": 1756,
      "tra": 1757,
      "pu": 1758,
      "cess": 1759,
      "ty": 1760,
      "eng": 1761,
      "there": 1762,
      "je": 1763,
      "ile": 1764,
      "vers": 1765,
      "nor": 1766,
      "two": 1767,
      "uring": 1768,
      "ain": 1769,
      "ational": 1770,
      "fic": 1771,
      "ough": 1772,
      "ie": 1773,
      "many": 1774,
      "ding": 1775,
      "ite": 1776,
      "mon": 1777,
      "war": 1778,
      "bec": 1779,
      "ugh": 1780,
      "rel": 1781,
      "her": 1782,
      "car": 1783,
      "ved": 1784,
      "bet": 1785,
      "ited": 1786,
      "ger": 1787,
      "go": 1788,
      "time": 1789,
      "when": 1790,
      "into": 1791,
      "200": 1792,
      "fl": 1793,
      "ble": 1794,
      "only": 1795,
      "med": 1796,
      "son": 1797,
      "publ": 1798,
      "ors": 1799,
      "may": 1800,
      "than": 1801,
      "ase": 1802,
      "ism": 1803,
      "ple": 1804,
      "ran": 1805,
      "art": 1806,
      "produ": 1807,
      "ular": 1808,
      "ric": 1809,
      "jo": 1810,
      "ry": 1811,
      "oc": 1812,
      "fa": 1813,
      "201": 1814,
      "ens": 1815,
      "cur": 1816,
      "sa": 1817,
      "rough": 1818,
      "ari": 1819,
      "use": 1820,
      "under": 1821,
      "lar": 1822,
      "during": 1823,
      "cons": 1824,
      "these": 1825,
      "sub": 1826,
      "ca": 1827,
      "ased": 1828,
      "vis": 1829,
      "ire": 1830,
      "cted": 1831,
      "play": 1832,
      "gan": 1833,
      "ef": 1834,
      "kno": 1835,
      "includ": 1836,
      "fore": 1837,
      "ust": 1838,
      "att": 1839,
      "stem": 1840,
      "sp": 1841,
      "ot": 1842,
      "cal": 1843,
      "ative": 1844,
      "les": 1845,
      "would": 1846,
      "world": 1847,
      "way": 1848,
      "stru": 1849,
      "national": 1850,
      "work": 1851,
      "ween": 1852,
      "ual": 1853,
      "num": 1854,
      "between": 1855,
      "system": 1856,
      "main": 1857,
      "ident": 1858,
      "tain": 1859,
      "old": 1860,
      "ics": 1861,
      "any": 1862,
      "ak": 1863,
      "tem": 1864,
      "trans": 1865,
      "ok": 1866,
      "them": 1867,
      "gener": 1868,
      "sch": 1869,
      "olog": 1870,
      "cy": 1871,
      "soci": 1872,
      "dif": 1873,
      "though": 1874,
      "char": 1875,
      "ack": 1876,
      "ments": 1877,
      "gre": 1878,
      "pop": 1879,
      "chan": 1880,
      "ue": 1881,
      "gover": 1882,
      "arch": 1883,
      "day": 1884,
      "high": 1885,
      "ating": 1886,
      "fol": 1887,
      "bu": 1888,
      "amer": 1889,
      "led": 1890,
      "ities": 1891,
      "velo": 1892,
      "cr": 1893,
      "val": 1894,
      "ide": 1895,
      "through": 1896,
      "while": 1897,
      "hist": 1898,
      "fil": 1899,
      "und": 1900,
      "ents": 1901,
      "call": 1902,
      "cond": 1903,
      "him": 1904,
      "199": 1905,
      "ury": 1906,
      "where": 1907,
      "state": 1908,
      "sou": 1909,
      "sup": 1910,
      "ob": 1911,
      "eu": 1912,
      "tri": 1913,
      "ful": 1914,
      "ms": 1915,
      "ste": 1916,
      "ince": 1917,
      "lan": 1918,
      "tur": 1919,
      "large": 1920,
      "very": 1921,
      "sel": 1922,
      "develo": 1923,
      "set": 1924,
      "os": 1925,
      "well": 1926,
      "govern": 1927,
      "ward": 1928,
      "leg": 1929,
      "vol": 1930,
      "years": 1931,
      "then": 1932,
      "lin": 1933,
      "americ": 1934,
      "states": 1935,
      "bor": 1936,
      "mem": 1937,
      "about": 1938,
      "west": 1939,
      "ann": 1940,
      "my": 1941,
      "iss": 1942,
      "cer": 1943,
      "follow": 1944,
      "develop": 1945,
      "cri": 1946,
      "uni": 1947,
      "ving": 1948,
      "speci": 1949,
      "air": 1950,
      "ished": 1951,
      "wer": 1952,
      "als": 1953,
      "sho": 1954,
      "known": 1955,
      "public": 1956,
      "vid": 1957,
      "ys": 1958,
      "howe": 1959,
      "ict": 1960,
      "ind": 1961,
      "however": 1962,
      "mus": 1963,
      "city": 1964,
      "ific": 1965,
      "sim": 1966,
      "dist": 1967,
      "found": 1968,
      "ject": 1969,
      "cap": 1970,
      "ution": 1971,
      "vel": 1972,
      "ship": 1973,
      "ists": 1974,
      "add": 1975,
      "fr": 1976,
      "like": 1977,
      "bro": 1978,
      "later": 1979,
      "serv": 1980,
      "peri": 1981,
      "writ": 1982,
      "oper": 1983,
      "she": 1984,
      "both": 1985,
      "dep": 1986,
      "sur": 1987,
      "ause": 1988,
      "peop": 1989,
      "group": 1990,
      "century": 1991,
      "united": 1992,
      "cle": 1993,
      "early": 1994,
      "made": 1995,
      "again": 1996,
      "ings": 1997,
      "three": 1998,
      "ude": 1999,
      "ss": 2000,
      "government": 2001,
      "ital": 2002,
      "sm": 2003,
      "ft": 2004,
      "off": 2005,
      "ise": 2006,
      "ws": 2007,
      "ually": 2008,
      "sign": 2009,
      "vari": 2010,
      "ized": 2011,
      "ically": 2012,
      "tre": 2013,
      "elect": 2014,
      "requ": 2015,
      "ures": 2016,
      "differ": 2017,
      "indi": 2018,
      "called": 2019,
      "being": 2020,
      "ton": 2021,
      "ature": 2022,
      "number": 2023,
      "nam": 2024,
      "cla": 2025,
      "euro": 2026,
      "sol": 2027,
      "became": 2028,
      "ied": 2029,
      "people": 2030,
      "present": 2031,
      "0s": 2032,
      "ven": 2033,
      "ose": 2034,
      "198": 2035,
      "sever": 2036,
      "long": 2037,
      "ath": 2038,
      "ep": 2039,
      "since": 2040,
      "including": 2041,
      "ds": 2042,
      "fect": 2043,
      "met": 2044,
      "jor": 2045,
      "ib": 2046,
      "ning": 2047,
      "ural": 2048,
      "pon": 2049,
      "orig": 2050,
      "ga": 2051,
      "second": 2052,
      "exam": 2053,
      "contin": 2054,
      "ves": 2055,
      "pri": 2056,
      "mil": 2057,
      "langu": 2058,
      "io": 2059,
      "europe": 2060,
      "unt": 2061,
      "vie": 2062,
      "ility": 2063,
      "dire": 2064,
      "000": 2065,
      "gra": 2066,
      "197": 2067,
      "ban": 2068,
      "ern": 2069,
      "lead": 2070,
      "sing": 2071,
      "stand": 2072,
      "brit": 2073,
      "ters": 2074,
      "mer": 2075,
      "stit": 2076,
      "bers": 2077,
      "vent": 2078,
      "less": 2079,
      "ages": 2080,
      "hum": 2081,
      "ered": 2082,
      "chr": 2083,
      "major": 2084,
      "net": 2085,
      "power": 2086,
      "cept": 2087,
      "polit": 2088,
      "partic": 2089,
      "appe": 2090,
      "clo": 2091,
      "buil": 2092,
      "because": 2093,
      "17": 2094,
      "origin": 2095,
      "gy": 2096,
      "ons": 2097,
      "dom": 2098,
      "commun": 2099,
      "na": 2100,
      "comple": 2101,
      "ress": 2102,
      "own": 2103,
      "ick": 2104,
      "will": 2105,
      "organ": 2106,
      "fam": 2107,
      "ii": 2108,
      "fact": 2109,
      "several": 2110,
      "vo": 2111,
      "ulation": 2112,
      "10": 2113,
      "tal": 2114,
      "ula": 2115,
      "self": 2116,
      "mat": 2117,
      "come": 2118,
      "often": 2119,
      "cu": 2120,
      "star": 2121,
      "four": 2122,
      "each": 2123,
      "turn": 2124,
      "vil": 2125,
      "contro": 2126,
      "east": 2127,
      "hy": 2128,
      "ium": 2129,
      "mal": 2130,
      "15": 2131,
      "mu": 2132,
      "life": 2133,
      "ged": 2134,
      "class": 2135,
      "press": 2136,
      "196": 2137,
      "try": 2138,
      "dy": 2139,
      "same": 2140,
      "equ": 2141,
      "test": 2142,
      "bi": 2143,
      "cording": 2144,
      "gram": 2145,
      "har": 2146,
      "before": 2147,
      "suc": 2148,
      "urch": 2149,
      "ru": 2150,
      "ines": 2151,
      "incre": 2152,
      "american": 2153,
      "mill": 2154,
      "univers": 2155,
      "ield": 2156,
      "trad": 2157,
      "could": 2158,
      "emp": 2159,
      "spa": 2160,
      "exp": 2161,
      "flu": 2162,
      "ians": 2163,
      "econ": 2164,
      "fun": 2165,
      "econom": 2166,
      "bur": 2167,
      "consid": 2168,
      "based": 2169,
      "back": 2170,
      "against": 2171,
      "film": 2172,
      "bar": 2173,
      "north": 2174,
      "xt": 2175,
      "ology": 2176,
      "ily": 2177,
      "lim": 2178,
      "pra": 2179,
      "cro": 2180,
      "mark": 2181,
      "south": 2182,
      "depend": 2183,
      "sci": 2184,
      "lish": 2185,
      "amp": 2186,
      "cour": 2187,
      "although": 2188,
      "design": 2189,
      "minist": 2190,
      "ting": 2191,
      "name": 2192,
      "16": 2193,
      "rele": 2194,
      "different": 2195,
      "using": 2196,
      "rad": 2197,
      "ired": 2198,
      "non": 2199,
      "ang": 2200,
      "uss": 2201,
      "tion": 2202,
      "include": 2203,
      "struct": 2204,
      "ended": 2205,
      "bre": 2206,
      "sk": 2207,
      "until": 2208,
      "men": 2209,
      "general": 2210,
      "law": 2211,
      "let": 2212,
      "lit": 2213,
      "ild": 2214,
      "hn": 2215,
      "moder": 2216,
      "christ": 2217,
      "appro": 2218,
      "descri": 2219,
      "cult": 2220,
      "line": 2221,
      "island": 2222,
      "president": 2223,
      "ool": 2224,
      "prim": 2225,
      "person": 2226,
      "tech": 2227,
      "blo": 2228,
      "offic": 2229,
      "order": 2230,
      "period": 2231,
      "even": 2232,
      "allow": 2233,
      "small": 2234,
      "pass": 2235,
      "following": 2236,
      "..": 2237,
      "den": 2238,
      "ner": 2239,
      "giv": 2240,
      "stud": 2241,
      "ral": 2242,
      "respon": 2243,
      "effect": 2244,
      "ls": 2245,
      "common": 2246,
      "country": 2247,
      "mi": 2248,
      "charact": 2249,
      "according": 2250,
      "success": 2251,
      "bal": 2252,
      "ason": 2253,
      "process": 2254,
      "bas": 2255,
      "ety": 2256,
      "did": 2257,
      "plan": 2258,
      "pat": 2259,
      "around": 2260,
      "indu": 2261,
      "ined": 2262,
      "que": 2263,
      "field": 2264,
      "ious": 2265,
      "vision": 2266,
      "ore": 2267,
      "bed": 2268,
      "ps": 2269,
      "colle": 2270,
      "ken": 2271,
      "dec": 2272,
      "ref": 2273,
      "mber": 2274,
      "mor": 2275,
      "history": 2276,
      "refer": 2277,
      "example": 2278,
      "church": 2279,
      "ped": 2280,
      "head": 2281,
      "school": 2282,
      "place": 2283,
      "stri": 2284,
      "direct": 2285,
      "formula": 2286,
      "ina": 2287,
      "those": 2288,
      "techn": 2289,
      "among": 2290,
      "wa": 2291,
      "lack": 2292,
      "don": 2293,
      "ames": 2294,
      "program": 2295,
      "continu": 2296,
      "modern": 2297,
      "cas": 2298,
      "mid": 2299,
      "john": 2300,
      "gn": 2301,
      "water": 2302,
      "recor": 2303,
      "another": 2304,
      "series": 2305,
      "ale": 2306,
      "posed": 2307,
      "british": 2308,
      "phil": 2309,
      "uary": 2310,
      "milit": 2311,
      "itions": 2312,
      "music": 2313,
      "194": 2314,
      "party": 2315,
      "ges": 2316,
      "vir": 2317,
      "hou": 2318,
      "within": 2319,
      "german": 2320,
      "ared": 2321,
      "due": 2322,
      "12": 2323,
      "import": 2324,
      "sco": 2325,
      "estab": 2326,
      "just": 2327,
      "atic": 2328,
      "what": 2329,
      "position": 2330,
      "cra": 2331,
      "ars": 2332,
      "last": 2333,
      "hel": 2334,
      "ices": 2335,
      "began": 2336,
      "beli": 2337,
      "put": 2338,
      "now": 2339,
      "ort": 2340,
      "ised": 2341,
      "thern": 2342,
      "loc": 2343,
      "ze": 2344,
      "term": 2345,
      "much": 2346,
      "hand": 2347,
      "ox": 2348,
      "language": 2349,
      "crit": 2350,
      "app": 2351,
      "light": 2352,
      "cover": 2353,
      "tit": 2354,
      "histor": 2355,
      "international": 2356,
      "miss": 2357,
      "ribut": 2358,
      "search": 2359,
      "point": 2360,
      "human": 2361,
      "population": 2362,
      "read": 2363,
      "auth": 2364,
      "death": 2365,
      "win": 2366,
      "plic": 2367,
      "dra": 2368,
      "ba": 2369,
      "view": 2370,
      "sum": 2371,
      "typ": 2372,
      "down": 2373,
      "open": 2374,
      "fur": 2375,
      "influ": 2376,
      "run": 2377,
      "phy": 2378,
      "hal": 2379,
      "tro": 2380,
      "van": 2381,
      "political": 2382,
      "ization": 2383,
      "bus": 2384,
      "great": 2385,
      "near": 2386,
      "inte": 2387,
      "liam": 2388,
      "team": 2389,
      "nat": 2390,
      "million": 2391,
      "sequ": 2392,
      "game": 2393,
      "rece": 2394,
      "popular": 2395,
      "lat": 2396,
      "ord": 2397,
      "band": 2398,
      "cts": 2399,
      "ional": 2400,
      "mic": 2401,
      "area": 2402,
      "university": 2403,
      "claim": 2404,
      "195": 2405,
      "ences": 2406,
      "move": 2407,
      "14": 2408,
      "show": 2409,
      "support": 2410,
      "formed": 2411,
      "curren": 2412,
      "sen": 2413,
      "house": 2414,
      "gest": 2415,
      "thod": 2416,
      "formula_": 2417,
      "members": 2418,
      "ived": 2419,
      "side": 2420,
      "pal": 2421,
      "ilar": 2422,
      "dr": 2423,
      "sw": 2424,
      "remain": 2425,
      "tle": 2426,
      "defin": 2427,
      "13": 2428,
      "hol": 2429,
      "similar": 2430,
      "rest": 2431,
      "ately": 2432,
      "lu": 2433,
      "military": 2434,
      "result": 2435,
      "book": 2436,
      "mode": 2437,
      "ported": 2438,
      "ham": 2439,
      "wom": 2440,
      "late": 2441,
      "ade": 2442,
      "ness": 2443,
      "addition": 2444,
      "gree": 2445,
      "real": 2446,
      "child": 2447,
      "def": 2448,
      "rench": 2449,
      "cing": 2450,
      "issu": 2451,
      "wide": 2452,
      "ron": 2453,
      "still": 2454,
      "tradition": 2455,
      "sible": 2456,
      "relig": 2457,
      "home": 2458,
      "gin": 2459,
      "bra": 2460,
      "ith": 2461,
      "sc": 2462,
      "social": 2463,
      "along": 2464,
      "ster": 2465,
      "ju": 2466,
      "cut": 2467,
      "fran": 2468,
      "cast": 2469,
      "force": 2470,
      "ley": 2471,
      "prote": 2472,
      "roman": 2473,
      "ball": 2474,
      "wil": 2475,
      "represent": 2476,
      "ize": 2477,
      "development": 2478,
      "loy": 2479,
      "ator": 2480,
      "far": 2481,
      "uc": 2482,
      "god": 2483,
      "ese": 2484,
      "ants": 2485,
      "english": 2486,
      "bon": 2487,
      "ute": 2488,
      "french": 2489,
      "ights": 2490,
      "bs": 2491,
      "mit": 2492,
      "jan": 2493,
      "ability": 2494,
      "stu": 2495,
      "thir": 2496,
      "ently": 2497,
      "ash": 2498,
      "provid": 2499,
      "cial": 2500,
      "ood": 2501,
      "tern": 2502,
      "associ": 2503,
      "tele": 2504,
      "ded": 2505,
      "particular": 2506,
      "ives": 2507,
      "character": 2508,
      "ah": 2509,
      "omet": 2510,
      "ctive": 2511,
      "said": 2512,
      "roy": 2513,
      "prof": 2514,
      "sal": 2515,
      "comb": 2516,
      "formation": 2517,
      "level": 2518,
      "space": 2519,
      "pur": 2520,
      "pract": 2521,
      "post": 2522,
      "193": 2523,
      "author": 2524,
      "ially": 2525,
      "get": 2526,
      "ories": 2527,
      "une": 2528,
      "vide": 2529,
      "ports": 2530,
      "research": 2531,
      "ctions": 2532,
      "top": 2533,
      "every": 2534,
      "treat": 2535,
      "important": 2536,
      "exist": 2537,
      "western": 2538,
      "fac": 2539,
      "european": 2540,
      "kes": 2541,
      "considered": 2542,
      "published": 2543,
      "central": 2544,
      "local": 2545,
      "ling": 2546,
      "mass": 2547,
      "army": 2548,
      "ata": 2549,
      "afric": 2550,
      "gar": 2551,
      "ination": 2552,
      "cell": 2553,
      "family": 2554,
      "given": 2555,
      "pen": 2556,
      "ctor": 2557,
      "lon": 2558,
      "works": 2559,
      "alth": 2560,
      "init": 2561,
      "control": 2562,
      "see": 2563,
      "free": 2564,
      "prin": 2565,
      "independ": 2566,
      "tries": 2567,
      "ail": 2568,
      "ris": 2569,
      "return": 2570,
      "ency": 2571,
      "ben": 2572,
      "right": 2573,
      "held": 2574,
      "intro": 2575,
      "wal": 2576,
      "mb": 2577,
      "make": 2578,
      "cir": 2579,
      "times": 2580,
      "dan": 2581,
      "various": 2582,
      "sour": 2583,
      "took": 2584,
      "key": 2585,
      "ified": 2586,
      "fed": 2587,
      "developed": 2588,
      "thus": 2589,
      "event": 2590,
      "clear": 2591,
      "sty": 2592,
      "viet": 2593,
      "introdu": 2594,
      "without": 2595,
      "ats": 2596,
      "uses": 2597,
      "ier": 2598,
      "left": 2599,
      "pot": 2600,
      "change": 2601,
      "standard": 2602,
      "dro": 2603,
      "production": 2604,
      "company": 2605,
      "mult": 2606,
      "union": 2607,
      "constit": 2608,
      "super": 2609,
      "current": 2610,
      "argu": 2611,
      "countries": 2612,
      "ked": 2613,
      "further": 2614,
      "gress": 2615,
      "civil": 2616,
      "former": 2617,
      "studi": 2618,
      "cil": 2619,
      "ler": 2620,
      "ways": 2621,
      "five": 2622,
      "poin": 2623,
      "ka": 2624,
      "stat": 2625,
      "proper": 2626,
      "become": 2627,
      "method": 2628,
      "systems": 2629,
      "river": 2630,
      "single": 2631,
      "included": 2632,
      "phys": 2633,
      "signific": 2634,
      "tor": 2635,
      "xim": 2636,
      "ones": 2637,
      "largest": 2638,
      "released": 2639,
      "ither": 2640,
      "need": 2641,
      "batt": 2642,
      "wards": 2643,
      "50": 2644,
      "hip": 2645,
      "ths": 2646,
      "court": 2647,
      "black": 2648,
      "wing": 2649,
      "educ": 2650,
      "forms": 2651,
      "activ": 2652,
      "action": 2653,
      "vest": 2654,
      "usually": 2655,
      "cul": 2656,
      "short": 2657,
      "case": 2658,
      "ried": 2659,
      "ient": 2660,
      "invol": 2661,
      "face": 2662,
      "ace": 2663,
      "six": 2664,
      "11": 2665,
      "stre": 2666,
      "py": 2667,
      "anim": 2668,
      "redu": 2669,
      "ork": 2670,
      "wro": 2671,
      "gust": 2672,
      "cam": 2673,
      "ener": 2674,
      "republic": 2675,
      "block": 2676,
      "imes": 2677,
      "original": 2678,
      "bert": 2679,
      "conne": 2680,
      "ub": 2681,
      "individ": 2682,
      "rul": 2683,
      "anal": 2684,
      "region": 2685,
      "town": 2686,
      "best": 2687,
      "mean": 2688,
      "da": 2689,
      "season": 2690,
      "cogn": 2691,
      "word": 2692,
      "istic": 2693,
      "feder": 2694,
      "wrote": 2695,
      "occur": 2696,
      "gl": 2697,
      "theory": 2698,
      "ground": 2699,
      "dest": 2700,
      "bit": 2701,
      "ples": 2702,
      "body": 2703,
      "demo": 2704,
      "care": 2705,
      "ext": 2706,
      "bel": 2707,
      "service": 2708,
      "forces": 2709,
      "ogra": 2710,
      "tic": 2711,
      "function": 2712,
      "jap": 2713,
      "che": 2714,
      "ration": 2715,
      "economic": 2716,
      "nu": 2717,
      "ched": 2718,
      "thing": 2719,
      "special": 2720,
      "individual": 2721,
      "third": 2722,
      "isl": 2723,
      "produced": 2724,
      "version": 2725,
      "lished": 2726,
      "ned": 2727,
      "russ": 2728,
      "established": 2729,
      "york": 2730,
      "few": 2731,
      "named": 2732,
      "women": 2733,
      "ological": 2734,
      "japan": 2735,
      "mag": 2736,
      "should": 2737,
      "building": 2738,
      "mater": 2739,
      "ential": 2740,
      "must": 2741,
      "cho": 2742,
      "ably": 2743,
      "ont": 2744,
      "role": 2745,
      "fre": 2746,
      "came": 2747,
      "significant": 2748,
      "hor": 2749,
      "list": 2750,
      "medi": 2751,
      "sure": 2752,
      "ured": 2753,
      "sent": 2754,
      "sla": 2755,
      "having": 2756,
      "tour": 2757,
      "ality": 2758,
      "eth": 2759,
      "white": 2760,
      "take": 2761,
      "rock": 2762,
      "30": 2763,
      "ius": 2764,
      "attem": 2765,
      "natural": 2766,
      "sea": 2767,
      "games": 2768,
      "august": 2769,
      "bill": 2770,
      "proble": 2771,
      "written": 2772,
      "fi": 2773,
      "cou": 2774,
      "project": 2775,
      "areas": 2776,
      "25": 2777,
      "uk": 2778,
      "pers": 2779,
      "good": 2780,
      "groups": 2781,
      "range": 2782,
      "bir": 2783,
      "mis": 2784,
      "feat": 2785,
      "sug": 2786,
      "rich": 2787,
      "others": 2788,
      "separ": 2789,
      "termin": 2790,
      "march": 2791,
      "meas": 2792,
      "idence": 2793,
      "stant": 2794,
      "stral": 2795,
      "placed": 2796,
      "dece": 2797,
      "total": 2798,
      "strong": 2799,
      "reach": 2800,
      "does": 2801,
      "alb": 2802,
      "oso": 2803,
      "never": 2804,
      "christian": 2805,
      "ison": 2806,
      "type": 2807,
      "appear": 2808,
      "half": 2809,
      "engine": 2810,
      "possible": 2811,
      "struction": 2812,
      "earth": 2813,
      "ril": 2814,
      "you": 2815,
      "cially": 2816,
      "compe": 2817,
      "moun": 2818,
      "san": 2819,
      "song": 2820,
      "suggest": 2821,
      "instit": 2822,
      "jud": 2823,
      "text": 2824,
      "nav": 2825,
      "contra": 2826,
      "stead": 2827,
      "sun": 2828,
      "suf": 2829,
      "ues": 2830,
      "official": 2831,
      "ides": 2832,
      "material": 2833,
      "object": 2834,
      "won": 2835,
      "created": 2836,
      "built": 2837,
      "kingdom": 2838,
      "described": 2839,
      "broad": 2840,
      "board": 2841,
      "cup": 2842,
      "sit": 2843,
      "wood": 2844,
      "played": 2845,
      "energy": 2846,
      "study": 2847,
      "ony": 2848,
      "council": 2849,
      "gal": 2850,
      "grad": 2851,
      "bes": 2852,
      "tar": 2853,
      "sep": 2854,
      "how": 2855,
      "sam": 2856,
      "somet": 2857,
      "empire": 2858,
      "craft": 2859,
      "vious": 2860,
      "fra": 2861,
      "espe": 2862,
      "species": 2863,
      "territ": 2864,
      "ae": 2865,
      "close": 2866,
      "father": 2867,
      "stra": 2868,
      "compu": 2869,
      "tained": 2870,
      "member": 2871,
      "pan": 2872,
      "either": 2873,
      "bc": 2874,
      "interest": 2875,
      "january": 2876,
      "sex": 2877,
      "rather": 2878,
      "lied": 2879,
      "road": 2880,
      "data": 2881,
      "polic": 2882,
      "syn": 2883,
      "octo": 2884,
      "vin": 2885,
      "continued": 2886,
      "anti": 2887,
      "october": 2888,
      "mand": 2889,
      "tember": 2890,
      "ids": 2891,
      "itive": 2892,
      "lower": 2893,
      "frequ": 2894,
      "liter": 2895,
      "labor": 2896,
      "children": 2897,
      "canad": 2898,
      "concer": 2899,
      "sof": 2900,
      "tens": 2901,
      "say": 2902,
      "hold": 2903,
      "kill": 2904,
      "soviet": 2905,
      "verse": 2906,
      "austral": 2907,
      "ming": 2908,
      "ply": 2909,
      "youn": 2910,
      "eved": 2911,
      "sto": 2912,
      "science": 2913,
      "received": 2914,
      "fort": 2915,
      "iness": 2916,
      "december": 2917,
      "sometimes": 2918,
      "album": 2919,
      "ime": 2920,
      "ti": 2921,
      "september": 2922,
      "21": 2923,
      "earli": 2924,
      "recogn": 2925,
      "moved": 2926,
      "germany": 2927,
      "june": 2928,
      "generally": 2929,
      "served": 2930,
      "tains": 2931,
      "trade": 2932,
      "chem": 2933,
      "liber": 2934,
      "ining": 2935,
      "whe": 2936,
      "know": 2937,
      "fri": 2938,
      "july": 2939,
      "employ": 2940,
      "nic": 2941,
      "structure": 2942,
      "cost": 2943,
      "revol": 2944,
      "fall": 2945,
      "making": 2946,
      "rate": 2947,
      "iled": 2948,
      "command": 2949,
      "relation": 2950,
      "nal": 2951,
      "regard": 2952,
      "aries": 2953,
      "lands": 2954,
      "begin": 2955,
      "ni": 2956,
      "ring": 2957,
      "lies": 2958,
      "asing": 2959,
      "certain": 2960,
      "via": 2961,
      "scient": 2962,
      "administ": 2963,
      "fig": 2964,
      "ption": 2965,
      "bour": 2966,
      "rights": 2967,
      "lay": 2968,
      "languages": 2969,
      "acy": 2970,
      "philoso": 2971,
      "ama": 2972,
      "radio": 2973,
      "chines": 2974,
      "france": 2975,
      "abo": 2976,
      "ague": 2977,
      "express": 2978,
      "base": 2979,
      "invest": 2980,
      "nove": 2981,
      "resul": 2982,
      "ases": 2983,
      "northern": 2984,
      "ends": 2985,
      "market": 2986,
      "graph": 2987,
      "avail": 2988,
      "boo": 2989,
      "dri": 2990,
      "ense": 2991,
      "england": 2992,
      "foreign": 2993,
      "ging": 2994,
      "ino": 2995,
      "quest": 2996,
      "cit": 2997,
      "start": 2998,
      "hard": 2999,
      "throughout": 3000,
      "princi": 3001,
      "william": 3002,
      "count": 3003,
      "november": 3004,
      "commit": 3005,
      "next": 3006,
      "previous": 3007,
      "april": 3008,
      "hab": 3009,
      "wee": 3010,
      "days": 3011,
      "sil": 3012,
      "recent": 3013,
      "especially": 3014,
      "exper": 3015,
      "mission": 3016,
      "ible": 3017,
      "aren": 3018,
      "capital": 3019,
      "ker": 3020,
      "fle": 3021,
      "olic": 3022,
      "poly": 3023,
      "tax": 3024,
      "hon": 3025,
      "final": 3026,
      "profess": 3027,
      "pted": 3028,
      "complex": 3029,
      "complete": 3030,
      "gold": 3031,
      "coast": 3032,
      "covered": 3033,
      "style": 3034,
      "stic": 3035,
      "experi": 3036,
      "dou": 3037,
      "education": 3038,
      "china": 3039,
      "enced": 3040,
      "parts": 3041,
      "ending": 3042,
      "24": 3043,
      "movement": 3044,
      "tt": 3045,
      "dev": 3046,
      "exe": 3047,
      "culture": 3048,
      "arab": 3049,
      "sat": 3050,
      "hen": 3051,
      "battle": 3052,
      "dam": 3053,
      "aged": 3054,
      "constitution": 3055,
      "sound": 3056,
      "ival": 3057,
      "america": 3058,
      "domin": 3059,
      "dle": 3060,
      "ana": 3061,
      "ided": 3062,
      "instead": 3063,
      "quar": 3064,
      "inst": 3065,
      "impro": 3066,
      "toge": 3067,
      "religious": 3068,
      "card": 3069,
      "ounced": 3070,
      "upon": 3071,
      "temper": 3072,
      "nel": 3073,
      "society": 3074,
      "ross": 3075,
      "ops": 3076,
      "together": 3077,
      "estim": 3078,
      "inv": 3079,
      "ships": 3080,
      "seen": 3081,
      "rail": 3082,
      "higher": 3083,
      "southern": 3084,
      "died": 3085,
      "successful": 3086,
      "glo": 3087,
      "geor": 3088,
      "...": 3089,
      "lines": 3090,
      "priv": 3091,
      "lled": 3092,
      "nom": 3093,
      "award": 3094,
      "information": 3095,
      "ney": 3096,
      "anci": 3097,
      "quo": 3098,
      "corpor": 3099,
      "span": 3100,
      "acc": 3101,
      "center": 3102,
      "aver": 3103,
      "psy": 3104,
      "terms": 3105,
      "gs": 3106,
      "ax": 3107,
      "vict": 3108,
      "ches": 3109,
      "decl": 3110,
      "outs": 3111,
      "related": 3112,
      "flo": 3113,
      "ene": 3114,
      "active": 3115,
      "ange": 3116,
      "stry": 3117,
      "cath": 3118,
      "host": 3119,
      "located": 3120,
      "gun": 3121,
      "attack": 3122,
      "consist": 3123,
      "himself": 3124,
      "ators": 3125,
      "subject": 3126,
      "full": 3127,
      "ram": 3128,
      "health": 3129,
      "eastern": 3130,
      "available": 3131,
      "mig": 3132,
      "ray": 3133,
      "applic": 3134,
      "bud": 3135,
      "fire": 3136,
      "once": 3137,
      "sis": 3138,
      "100": 3139,
      "ane": 3140,
      "agree": 3141,
      "ission": 3142,
      "food": 3143,
      "ental": 3144,
      "business": 3145,
      "fem": 3146,
      "desp": 3147,
      "league": 3148,
      "middle": 3149,
      "squ": 3150,
      "secre": 3151,
      "ances": 3152,
      "television": 3153,
      "introduced": 3154,
      "ko": 3155,
      "fund": 3156,
      "respe": 3157,
      "lling": 3158,
      "enter": 3159,
      "traditional": 3160,
      "cat": 3161,
      "ification": 3162,
      "story": 3163,
      "office": 3164,
      "communic": 3165,
      "ki": 3166,
      "log": 3167,
      "consider": 3168,
      "hom": 3169,
      "indic": 3170,
      "legal": 3171,
      "islands": 3172,
      "commer": 3173,
      "compan": 3174,
      "ford": 3175,
      "despite": 3176,
      "dav": 3177,
      "hit": 3178,
      "han": 3179,
      "micro": 3180,
      "minister": 3181,
      "feature": 3182,
      "offer": 3183,
      "pher": 3184,
      "viol": 3185,
      "specific": 3186,
      "grow": 3187,
      "least": 3188,
      "followed": 3189,
      "zer": 3190,
      "greek": 3191,
      "nation": 3192,
      "uel": 3193,
      "asse": 3194,
      "taken": 3195,
      "almost": 3196,
      "london": 3197,
      "election": 3198,
      "za": 3199,
      "forman": 3200,
      "record": 3201,
      "schol": 3202,
      "adop": 3203,
      "evidence": 3204,
      "pts": 3205,
      "row": 3206,
      "lect": 3207,
      "istan": 3208,
      "means": 3209,
      "sib": 3210,
      "critic": 3211,
      "seven": 3212,
      "bul": 3213,
      "hib": 3214,
      "arily": 3215,
      "little": 3216,
      "inc": 3217,
      "front": 3218,
      "foot": 3219,
      "influence": 3220,
      "royal": 3221,
      "envir": 3222,
      "mp": 3223,
      "febr": 3224,
      "access": 3225,
      "itself": 3226,
      "words": 3227,
      "fair": 3228,
      "events": 3229,
      "february": 3230,
      "camp": 3231,
      "arian": 3232,
      "era": 3233,
      "oto": 3234,
      "amoun": 3235,
      "laun": 3236,
      "environ": 3237,
      "model": 3238,
      "adv": 3239,
      "relative": 3240,
      "sed": 3241,
      "ping": 3242,
      "23": 3243,
      "india": 3244,
      "community": 3245,
      "performan": 3246,
      "advan": 3247,
      "anted": 3248,
      "went": 3249,
      "above": 3250,
      "icle": 3251,
      "40": 3252,
      "rule": 3253,
      "across": 3254,
      "wel": 3255,
      "rome": 3256,
      "numbers": 3257,
      "wish": 3258,
      "parliam": 3259,
      "born": 3260,
      "rap": 3261,
      "cross": 3262,
      "live": 3263,
      "pred": 3264,
      "2010": 3265,
      "computer": 3266,
      "numer": 3267,
      "novel": 3268,
      "ateg": 3269,
      "network": 3270,
      "ties": 3271,
      "xed": 3272,
      "gas": 3273,
      "coming": 3274,
      "working": 3275,
      "docu": 3276,
      "fav": 3277,
      "tex": 3278,
      "saw": 3279,
      "bin": 3280,
      "imp": 3281,
      "ery": 3282,
      "acks": 3283,
      "ff": 3284,
      "night": 3285,
      "tempor": 3286,
      "entire": 3287,
      "vention": 3288,
      "expe": 3289,
      "regular": 3290,
      "parliament": 3291,
      "source": 3292,
      "ancient": 3293,
      "station": 3294,
      "increased": 3295,
      "inal": 3296,
      "construction": 3297,
      "contain": 3298,
      "concept": 3299,
      "paign": 3300,
      "isra": 3301,
      "remained": 3302,
      "22": 3303,
      "elements": 3304,
      "scal": 3305,
      "colon": 3306,
      "chinese": 3307,
      "cities": 3308,
      "arm": 3309,
      "evol": 3310,
      "campaign": 3311,
      "reported": 3312,
      "meet": 3313,
      "eventually": 3314,
      "pread": 3315,
      "lost": 3316,
      "emer": 3317,
      "speed": 3318,
      "ky": 3319,
      "ceed": 3320,
      "value": 3321,
      "dig": 3322,
      "audi": 3323,
      "disc": 3324,
      "auto": 3325,
      "federal": 3326,
      "ush": 3327,
      "types": 3328,
      "grand": 3329,
      "condu": 3330,
      "thought": 3331,
      "park": 3332,
      "dar": 3333,
      "green": 3334,
      "lic": 3335,
      "associated": 3336,
      "mechan": 3337,
      "2000": 3338,
      "80": 3339,
      "particularly": 3340,
      "industri": 3341,
      "ns": 3342,
      "mental": 3343,
      "brid": 3344,
      "big": 3345,
      "services": 3346,
      "hun": 3347,
      "today": 3348,
      "lou": 3349,
      "distribut": 3350,
      "mach": 3351,
      "writing": 3352,
      "young": 3353,
      "los": 3354,
      "foc": 3355,
      "aut": 3356,
      "ago": 3357,
      "secret": 3358,
      "2008": 3359,
      "democr": 3360,
      "nature": 3361,
      "distin": 3362,
      "code": 3363,
      "college": 3364,
      "ror": 3365,
      "acade": 3366,
      "leading": 3367,
      "pose": 3368,
      "26": 3369,
      "pit": 3370,
      "industry": 3371,
      "nations": 3372,
      "contribut": 3373,
      "revolution": 3374,
      "required": 3375,
      "gain": 3376,
      "whose": 3377,
      "aw": 3378,
      "teach": 3379,
      "ensive": 3380,
      "increasing": 3381,
      "economy": 3382,
      "allowed": 3383,
      "past": 3384,
      "depart": 3385,
      "2011": 3386,
      "percent": 3387,
      "fla": 3388,
      "ief": 3389,
      "size": 3390,
      "appeared": 3391,
      "too": 3392,
      "ades": 3393,
      "beginning": 3394,
      "africa": 3395,
      "ever": 3396,
      "atom": 3397,
      "prob": 3398,
      "mother": 3399,
      "ify": 3400,
      "establish": 3401,
      "announced": 3402,
      "gave": 3403,
      "brother": 3404,
      "approxim": 3405,
      "claimed": 3406,
      "experim": 3407,
      "latin": 3408,
      "az": 3409,
      "fish": 3410,
      "mos": 3411,
      "pay": 3412,
      "films": 3413,
      "lot": 3414,
      "ought": 3415,
      "deb": 3416,
      "190": 3417,
      "sess": 3418,
      "quote": 3419,
      "occup": 3420,
      "hydro": 3421,
      "clim": 3422,
      "cases": 3423,
      "majority": 3424,
      "policy": 3425,
      "operation": 3426,
      "provide": 3427,
      "prime": 3428,
      "bri": 3429,
      "limited": 3430,
      "promo": 3431,
      "2009": 3432,
      "diffic": 3433,
      "atory": 3434,
      "difficult": 3435,
      "started": 3436,
      "approach": 3437,
      "electron": 3438,
      "mad": 3439,
      "pun": 3440,
      "electric": 3441,
      "60": 3442,
      "average": 3443,
      "provided": 3444,
      "fest": 3445,
      "except": 3446,
      "27": 3447,
      "2007": 3448,
      "transport": 3449,
      "cript": 3450,
      "subsequ": 3451,
      "knowled": 3452,
      "color": 3453,
      "mun": 3454,
      "rup": 3455,
      "arri": 3456,
      "actions": 3457,
      "technology": 3458,
      "hest": 3459,
      "jer": 3460,
      "dut": 3461,
      "typically": 3462,
      "quant": 3463,
      "media": 3464,
      "independent": 3465,
      "leaders": 3466,
      "spanish": 3467,
      "months": 3468,
      "personal": 3469,
      "wat": 3470,
      "instru": 3471,
      "stone": 3472,
      "heav": 3473,
      "champ": 3474,
      "might": 3475,
      "peace": 3476,
      "defined": 3477,
      "necess": 3478,
      "believed": 3479,
      "acce": 3480,
      "augh": 3481,
      "28": 3482,
      "ior": 3483,
      "unit": 3484,
      "rought": 3485,
      "counter": 3486,
      "points": 3487,
      "hu": 3488,
      "mathem": 3489,
      "chief": 3490,
      "teen": 3491,
      "fut": 3492,
      "plement": 3493,
      "outside": 3494,
      "manu": 3495,
      "referred": 3496,
      "vic": 3497,
      "decis": 3498,
      "wall": 3499,
      "ink": 3500,
      "changes": 3501,
      "integr": 3502,
      "spo": 3503,
      "aircraft": 3504,
      "tan": 3505,
      "spir": 3506,
      "hig": 3507,
      "blockquote": 3508,
      "2012": 3509,
      "usion": 3510,
      "commission": 3511,
      "eli": 3512,
      "manufact": 3513,
      "ils": 3514,
      "books": 3515,
      "extens": 3516,
      "execut": 3517,
      "mas": 3518,
      "ilities": 3519,
      "mc": 3520,
      "acqu": 3521,
      "19th": 3522,
      "stated": 3523,
      "ising": 3524,
      "189": 3525,
      "catholic": 3526,
      "tage": 3527,
      "capt": 3528,
      "particip": 3529,
      "nia": 3530,
      "emper": 3531,
      "track": 3532,
      "living": 3533,
      "jour": 3534,
      "lor": 3535,
      "nar": 3536,
      "round": 3537,
      "bran": 3538,
      "physical": 3539,
      "cause": 3540,
      "congress": 3541,
      "growth": 3542,
      "leng": 3543,
      "ready": 3544,
      "onom": 3545,
      "hour": 3546,
      "increase": 3547,
      "nes": 3548,
      "pi": 3549,
      "phen": 3550,
      "secur": 3551,
      "symb": 3552,
      "designed": 3553,
      "private": 3554,
      "standing": 3555,
      "away": 3556,
      "comes": 3557,
      "gor": 3558,
      "mir": 3559,
      "divid": 3560,
      "features": 3561,
      "pie": 3562,
      "utes": 3563,
      "meaning": 3564,
      "flow": 3565,
      "bell": 3566,
      "elected": 3567,
      "ordin": 3568,
      "nuclear": 3569,
      "lear": 3570,
      "title": 3571,
      "ively": 3572,
      "includes": 3573,
      "29": 3574,
      "conf": 3575,
      "african": 3576,
      "paul": 3577,
      "selves": 3578,
      "determin": 3579,
      "multip": 3580,
      "altern": 3581,
      "dim": 3582,
      "names": 3583,
      "canada": 3584,
      "cali": 3585,
      "bank": 3586,
      "founded": 3587,
      "help": 3588,
      "player": 3589,
      "2006": 3590,
      "cis": 3591,
      "constant": 3592,
      "tu": 3593,
      "cry": 3594,
      "interpre": 3595,
      "surface": 3596,
      "bound": 3597,
      "produce": 3598,
      "division": 3599,
      "therefore": 3600,
      "bow": 3601,
      "whether": 3602,
      "effects": 3603,
      "students": 3604,
      "20th": 3605,
      "issue": 3606,
      "psych": 3607,
      "soon": 3608,
      "highest": 3609,
      "rid": 3610,
      "returned": 3611,
      "epis": 3612,
      "studies": 3613,
      "practice": 3614,
      "atives": 3615,
      "2014": 3616,
      "primary": 3617,
      "russian": 3618,
      "tact": 3619,
      "indian": 3620,
      "sec": 3621,
      "fel": 3622,
      "james": 3623,
      "pow": 3624,
      "finan": 3625,
      "fast": 3626,
      "eval": 3627,
      "earlier": 3628,
      "caused": 3629,
      "britain": 3630,
      "islam": 3631,
      "bom": 3632,
      "widely": 3633,
      "jewish": 3634,
      "itor": 3635,
      "oney": 3636,
      "conserv": 3637,
      "utions": 3638,
      "2015": 3639,
      "brought": 3640,
      "cop": 3641,
      "egy": 3642,
      "burg": 3643,
      "security": 3644,
      "pointed": 3645,
      "club": 3646,
      "2013": 3647,
      "hall": 3648,
      "2016": 3649,
      "sele": 3650,
      "larger": 3651,
      "performance": 3652,
      "gi": 3653,
      "vert": 3654,
      "mur": 3655,
      "loss": 3656,
      "mart": 3657,
      "minor": 3658,
      "colum": 3659,
      "themselves": 3660,
      "hi": 3661,
      "techni": 3662,
      "ington": 3663,
      "apt": 3664,
      "oil": 3665,
      "charles": 3666,
      "recorded": 3667,
      "cand": 3668,
      "cultural": 3669,
      "uries": 3670,
      "cru": 3671,
      "japanese": 3672,
      "bish": 3673,
      "thre": 3674,
      "report": 3675,
      "antic": 3676,
      "george": 3677,
      "sor": 3678,
      "muse": 3679,
      "ites": 3680,
      "commonly": 3681,
      "distric": 3682,
      "pir": 3683,
      "territory": 3684,
      "greater": 3685,
      "release": 3686,
      "originally": 3687,
      "kar": 3688,
      "proposed": 3689,
      "love": 3690,
      "egypt": 3691,
      "asia": 3692,
      "ering": 3693,
      "likely": 3694,
      "break": 3695,
      "mes": 3696,
      "deal": 3697,
      "career": 3698,
      "players": 3699,
      "ems": 3700,
      "added": 3701,
      "stor": 3702,
      "avi": 3703,
      "video": 3704,
      "protest": 3705,
      "australia": 3706,
      "thom": 3707,
      "prior": 3708,
      "italian": 3709,
      "cele": 3710,
      "rema": 3711,
      "require": 3712,
      "archite": 3713,
      "alex": 3714,
      "2005": 3715,
      "organization": 3716,
      "dict": 3717,
      "analys": 3718,
      "site": 3719,
      "tware": 3720,
      "wit": 3721,
      "sus": 3722,
      "tru": 3723,
      "rat": 3724,
      "fif": 3725,
      "software": 3726,
      "oid": 3727,
      "emperor": 3728,
      "mob": 3729,
      "sett": 3730,
      "future": 3731,
      "ference": 3732,
      "replaced": 3733,
      "forced": 3734,
      "transl": 3735,
      "ny": 3736,
      "concl": 3737,
      "eas": 3738,
      "museum": 3739,
      "results": 3740,
      "aring": 3741,
      "schools": 3742,
      "ols": 3743,
      "resist": 3744,
      "rain": 3745,
      "involved": 3746,
      "wash": 3747,
      "reason": 3748,
      "va": 3749,
      "tee": 3750,
      "product": 3751,
      "mot": 3752,
      "istics": 3753,
      "pressure": 3754,
      "historical": 3755,
      "2018": 3756,
      "birth": 3757,
      "units": 3758,
      "dre": 3759,
      "confl": 3760,
      "scientific": 3761,
      "del": 3762,
      "2017": 3763,
      "ali": 3764,
      "muslim": 3765,
      "commercial": 3766,
      "sold": 3767,
      "neg": 3768,
      "onic": 3769,
      "week": 3770,
      "eight": 3771,
      "sources": 3772,
      "cust": 3773,
      "conditions": 3774,
      "ode": 3775,
      "length": 3776,
      "ond": 3777,
      "always": 3778,
      "spect": 3779,
      "independence": 3780,
      "numerous": 3781,
      "changed": 3782,
      "italy": 3783,
      "variety": 3784,
      "ously": 3785,
      "longer": 3786,
      "keep": 3787,
      "david": 3788,
      "implement": 3789,
      "demand": 3790,
      "native": 3791,
      "187": 3792,
      "chemical": 3793,
      "remains": 3794,
      "lie": 3795,
      "lif": 3796,
      "ography": 3797,
      "citiz": 3798,
      "hind": 3799,
      "pac": 3800,
      "plat": 3801,
      "situ": 3802,
      "plant": 3803,
      "issues": 3804,
      "supported": 3805,
      "henry": 3806,
      "legisl": 3807,
      "assist": 3808,
      "aking": 3809,
      "date": 3810,
      "iting": 3811,
      "blue": 3812,
      "document": 3813,
      "ston": 3814,
      "religion": 3815,
      "problems": 3816,
      "beha": 3817,
      "letter": 3818,
      "champion": 3819,
      "bey": 3820,
      "characters": 3821,
      "rect": 3822,
      "demon": 3823,
      "centre": 3824,
      "greg": 3825,
      "governor": 3826,
      "path": 3827,
      "amount": 3828,
      "idea": 3829,
      "mostly": 3830,
      "agric": 3831,
      "marri": 3832,
      "urban": 3833,
      "dise": 3834,
      "izing": 3835,
      "fight": 3836,
      "fiction": 3837,
      "largely": 3838,
      "directly": 3839,
      "expla": 3840,
      "ai": 3841,
      "edition": 3842,
      "expand": 3843,
      "pope": 3844,
      "attempt": 3845,
      "weap": 3846,
      "circ": 3847,
      "extre": 3848,
      "multiple": 3849,
      "metal": 3850,
      "hood": 3851,
      "element": 3852,
      "friend": 3853,
      "prison": 3854,
      "2019": 3855,
      "share": 3856,
      "done": 3857,
      "operations": 3858,
      "products": 3859,
      "specif": 3860,
      "companies": 3861,
      "mole": 3862,
      "industrial": 3863,
      "mathemat": 3864,
      "hous": 3865,
      "stage": 3866,
      "settle": 3867,
      "billion": 3868,
      "proto": 3869,
      "zo": 3870,
      "ened": 3871,
      "problem": 3872,
      "ards": 3873,
      "magnet": 3874,
      "approximately": 3875,
      "treaty": 3876,
      "spr": 3877,
      "survi": 3878,
      "ention": 3879,
      "plann": 3880,
      "architect": 3881,
      "authority": 3882,
      "gue": 3883,
      "pair": 3884,
      "knowledge": 3885,
      "examples": 3886,
      "carbon": 3887,
      "louis": 3888,
      "ret": 3889,
      "agricult": 3890,
      "bay": 3891,
      "prevent": 3892,
      "gaz": 3893,
      "pul": 3894,
      "relationship": 3895,
      "estimated": 3896,
      "paren": 3897,
      "regions": 3898,
      "views": 3899,
      "response": 3900,
      "ica": 3901,
      "rot": 3902,
      "measure": 3903,
      "towards": 3904,
      "destroy": 3905,
      "repe": 3906,
      "leav": 3907,
      "laws": 3908,
      "temporary": 3909,
      "dru": 3910,
      "kind": 3911,
      "ey": 3912,
      "association": 3913,
      "divided": 3914,
      "behavi": 3915,
      "blood": 3916,
      "better": 3917,
      "broadcast": 3918,
      "correspon": 3919,
      "bat": 3920,
      "already": 3921,
      "perform": 3922,
      "berg": 3923,
      "ov": 3924,
      "186": 3925,
      "travel": 3926,
      "prom": 3927,
      "deta": 3928,
      "acts": 3929,
      "classical": 3930,
      "tun": 3931,
      "global": 3932,
      "scale": 3933,
      "imper": 3934,
      "gg": 3935,
      "reed": 3936,
      "lying": 3937,
      "killed": 3938,
      "create": 3939,
      "reached": 3940,
      "agreement": 3941,
      "spirit": 3942,
      "speak": 3943,
      "separate": 3944,
      "temperature": 3945,
      "mich": 3946,
      "ograph": 3947,
      "status": 3948,
      "nearly": 3949,
      "analysis": 3950,
      "photo": 3951,
      "compon": 3952,
      "ira": 3953,
      "performed": 3954,
      "taking": 3955,
      "extra": 3956,
      "true": 3957,
      "israel": 3958,
      "smaller": 3959,
      "cape": 3960,
      "ulated": 3961,
      "scre": 3962,
      "mel": 3963,
      "nine": 3964,
      "bia": 3965,
      "kore": 3966,
      "summer": 3967,
      "paris": 3968,
      "street": 3969,
      "give": 3970,
      "ses": 3971,
      "simple": 3972,
      "theat": 3973,
      "wealth": 3974,
      "villa": 3975,
      "iation": 3976,
      "crim": 3977,
      "bol": 3978,
      "concent": 3979,
      "custom": 3980,
      "dies": 3981,
      "additional": 3982,
      "formal": 3983,
      "activity": 3984,
      "wife": 3985,
      "alexand": 3986,
      "mex": 3987,
      "immedi": 3988,
      "manage": 3989,
      "adopted": 3990,
      "ners": 3991,
      "phere": 3992,
      "volum": 3993,
      "equip": 3994,
      "decla": 3995,
      "fully": 3996,
      "highly": 3997,
      "celebr": 3998,
      "mess": 3999,
      "democratic": 4000,
      "tv": 4001,
      "relations": 4002,
      ".,": 4003,
      "eve": 4004,
      "section": 4005,
      "effic": 4006,
      "course": 4007,
      "icted": 4008,
      "2004": 4009,
      "worked": 4010,
      "188": 4011,
      "poet": 4012,
      "address": 4013,
      "levels": 4014,
      "poor": 4015,
      "quick": 4016,
      "robert": 4017,
      "motion": 4018,
      "icles": 4019,
      "passed": 4020,
      "veh": 4021,
      "leader": 4022,
      "mut": 4023,
      "possib": 4024,
      "daugh": 4025,
      "categ": 4026,
      "forest": 4027,
      "border": 4028,
      "famil": 4029,
      "below": 4030,
      "decre": 4031,
      "married": 4032,
      "mexic": 4033,
      "sac": 4034,
      "basis": 4035,
      "enough": 4036,
      "room": 4037,
      "lake": 4038,
      "medical": 4039,
      "ec": 4040,
      "mary": 4041,
      "yl": 4042,
      "tom": 4043,
      "ald": 4044,
      "arts": 4045,
      "yet": 4046,
      "1980s": 4047,
      "opened": 4048,
      "mitted": 4049,
      "hill": 4050,
      "suffer": 4051,
      "parties": 4052,
      "starting": 4053,
      "belief": 4054,
      "shows": 4055,
      "financial": 4056,
      "transfer": 4057,
      "joined": 4058,
      "property": 4059,
      "appointed": 4060,
      "2001": 4061,
      "candid": 4062,
      "inde": 4063,
      "quality": 4064,
      "basic": 4065,
      "isation": 4066,
      "neigh": 4067,
      "county": 4068,
      "ape": 4069,
      "libr": 4070,
      "progress": 4071,
      "stop": 4072,
      "functions": 4073,
      "football": 4074,
      "thro": 4075,
      "strict": 4076,
      "centuries": 4077,
      "pression": 4078,
      "2020": 4079,
      "compet": 4080,
      "discuss": 4081,
      "bridge": 4082,
      "defe": 4083,
      "latter": 4084,
      "playing": 4085,
      "itude": 4086,
      "assemb": 4087,
      "police": 4088,
      "navy": 4089,
      "race": 4090,
      "committee": 4091,
      "califor": 4092,
      "training": 4093,
      "occas": 4094,
      "methods": 4095,
      "ister": 4096,
      "initially": 4097,
      "cting": 4098,
      "load": 4099,
      "stein": 4100,
      "iter": 4101,
      "discovered": 4102,
      "russia": 4103,
      "swit": 4104,
      "alle": 4105,
      "reser": 4106,
      "iii": 4107,
      "prov": 4108,
      "happ": 4109,
      "ching": 4110,
      "powers": 4111,
      "ultim": 4112,
      "records": 4113,
      "washington": 4114,
      "wise": 4115,
      "theast": 4116,
      "jected": 4117,
      "climate": 4118,
      "resol": 4119,
      "rapid": 4120,
      "bing": 4121,
      "department": 4122,
      "stal": 4123,
      "whom": 4124,
      "month": 4125,
      "female": 4126,
      "mou": 4127,
      "stream": 4128,
      "mention": 4129,
      "money": 4130,
      "oce": 4131,
      "aff": 4132,
      "box": 4133,
      "potential": 4134,
      "ech": 4135,
      "ini": 4136,
      "ado": 4137,
      "deep": 4138,
      "theore": 4139,
      "signed": 4140,
      "kh": 4141,
      "liver": 4142,
      "famous": 4143,
      "500": 4144,
      "habit": 4145,
      "sexual": 4146,
      "cannot": 4147,
      "troops": 4148,
      "cies": 4149,
      "creation": 4150,
      "observ": 4151,
      "question": 4152,
      "dead": 4153,
      "contains": 4154,
      "accept": 4155,
      "regional": 4156,
      "article": 4157,
      "asons": 4158,
      "1970s": 4159,
      "account": 4160,
      "experience": 4161,
      "whole": 4162,
      "maxim": 4163,
      "freed": 4164,
      "director": 4165,
      "heavy": 4166,
      "location": 4167,
      "here": 4168,
      "magaz": 4169,
      "kets": 4170,
      "vote": 4171,
      "reli": 4172,
      "marriage": 4173,
      "lived": 4174,
      "philosophy": 4175,
      "california": 4176,
      "resour": 4177,
      "kistan": 4178,
      "thesis": 4179,
      "iron": 4180,
      "iles": 4181,
      "mainly": 4182,
      "mac": 4183,
      "electr": 4184,
      "sense": 4185,
      "spread": 4186,
      "fant": 4187,
      "conver": 4188,
      "saint": 4189,
      "rules": 4190,
      "neut": 4191,
      "news": 4192,
      "investig": 4193,
      "respective": 4194,
      "extreme": 4195,
      "thous": 4196,
      "wave": 4197,
      "cred": 4198,
      "musical": 4199,
      "promin": 4200,
      "ots": 4201,
      "relatively": 4202,
      "contrast": 4203,
      "demonstr": 4204,
      "administration": 4205,
      "ables": 4206,
      "sequence": 4207,
      "prop": 4208,
      "fail": 4209,
      "shown": 4210,
      "spain": 4211,
      "pse": 4212,
      "winter": 4213,
      "dete": 4214,
      "influenced": 4215,
      "fal": 4216,
      "excl": 4217,
      "ored": 4218,
      "sens": 4219,
      "pped": 4220,
      "attra": 4221,
      "notable": 4222,
      "find": 4223,
      "ires": 4224,
      "ku": 4225,
      "scholars": 4226,
      "primarily": 4227,
      "philip": 4228,
      "ivity": 4229,
      "acid": 4230,
      "igned": 4231,
      "literature": 4232,
      "ctors": 4233,
      "upper": 4234,
      "rise": 4235,
      "programs": 4236,
      "jes": 4237,
      "compared": 4238,
      "vit": 4239,
      "thousand": 4240,
      "1990s": 4241,
      "completed": 4242,
      "suit": 4243,
      "square": 4244,
      "die": 4245,
      "wind": 4246,
      "decided": 4247,
      "tas": 4248,
      "ulations": 4249,
      "woman": 4250,
      "properties": 4251,
      "richard": 4252,
      "elections": 4253,
      "matter": 4254,
      "argued": 4255,
      "paint": 4256,
      "normal": 4257,
      "aim": 4258,
      "dome": 4259,
      "currently": 4260,
      "threat": 4261,
      "swed": 4262,
      "positive": 4263,
      "definition": 4264,
      "oral": 4265,
      "assembly": 4266,
      "internet": 4267,
      "achi": 4268,
      "sey": 4269,
      "35": 4270,
      "izations": 4271,
      "finally": 4272,
      "stock": 4273,
      "ert": 4274,
      "stren": 4275,
      "machine": 4276,
      "31": 4277,
      "resulting": 4278,
      "initial": 4279,
      "70": 4280,
      "degree": 4281,
      "llig": 4282,
      "noted": 4283,
      "pil": 4284,
      "1960s": 4285,
      "alternative": 4286,
      "carry": 4287,
      "otto": 4288,
      "emph": 4289,
      "necessary": 4290,
      "table": 4291,
      "intellig": 4292,
      "ises": 4293,
      "ques": 4294,
      "ethnic": 4295,
      "coal": 4296,
      "agreed": 4297,
      "treatment": 4298,
      "budd": 4299,
      "brand": 4300,
      "convention": 4301,
      "cles": 4302,
      "sym": 4303,
      "provides": 4304,
      "chall": 4305,
      "needed": 4306,
      "paper": 4307,
      "minim": 4308,
      "accepted": 4309,
      "improve": 4310,
      "imperial": 4311,
      "tical": 4312,
      "streng": 4313,
      "nast": 4314,
      "pic": 4315,
      "previously": 4316,
      "thomas": 4317,
      "hop": 4318,
      "wed": 4319,
      "cells": 4320,
      "slo": 4321,
      "possess": 4322,
      "image": 4323,
      "2003": 4324,
      "pha": 4325,
      "fourth": 4326,
      "behind": 4327,
      "applied": 4328,
      "suggested": 4329,
      "magnetic": 4330,
      "plays": 4331,
      "soldi": 4332,
      "sports": 4333,
      "critical": 4334,
      "professional": 4335,
      "armed": 4336,
      "sky": 4337,
      "coura": 4338,
      "bass": 4339,
      "carried": 4340,
      "memory": 4341,
      "individuals": 4342,
      "compound": 4343,
      "covery": 4344,
      "look": 4345,
      "content": 4346,
      "makes": 4347,
      "pack": 4348,
      "zi": 4349,
      "inated": 4350,
      "resident": 4351,
      "distance": 4352,
      "animals": 4353,
      "ays": 4354,
      "medic": 4355,
      "collection": 4356,
      "multi": 4357,
      "gian": 4358,
      "alleg": 4359,
      "equal": 4360,
      "fill": 4361,
      "mod": 4362,
      "applications": 4363,
      "ocean": 4364,
      "2002": 4365,
      "intended": 4366,
      "frame": 4367,
      "gent": 4368,
      "district": 4369,
      "appears": 4370,
      "astr": 4371,
      "sin": 4372,
      "jul": 4373,
      "stan": 4374,
      "jur": 4375,
      "fuel": 4376,
      "tes": 4377,
      "peter": 4378,
      "thr": 4379,
      "aging": 4380,
      "flight": 4381,
      "songs": 4382,
      "emphas": 4383,
      "ya": 4384,
      "probably": 4385,
      "electro": 4386,
      "evolution": 4387,
      "values": 4388,
      "defense": 4389,
      "launched": 4390,
      "orial": 4391,
      "expected": 4392,
      "bishop": 4393,
      "declared": 4394,
      "management": 4395,
      "weak": 4396,
      "cens": 4397,
      "phone": 4398,
      "lad": 4399,
      "aled": 4400,
      "etic": 4401,
      "serve": 4402,
      "rare": 4403,
      "stars": 4404,
      "expans": 4405,
      "dimens": 4406,
      "sell": 4407,
      "charge": 4408,
      "running": 4409,
      "frank": 4410,
      "forts": 4411,
      "composed": 4412,
      "reduced": 4413,
      "shif": 4414,
      "ingu": 4415,
      "moving": 4416,
      "ireland": 4417,
      "cav": 4418,
      "positions": 4419,
      "annual": 4420,
      "lam": 4421,
      "opposition": 4422,
      "185": 4423,
      "spl": 4424,
      "refle": 4425,
      "stories": 4426,
      "conflict": 4427,
      "pattern": 4428,
      "workers": 4429,
      "simply": 4430,
      "closed": 4431,
      "hours": 4432,
      "gam": 4433,
      "plane": 4434,
      "jews": 4435,
      "gradu": 4436,
      "aspe": 4437,
      "affe": 4438,
      "failed": 4439,
      "script": 4440,
      "daughter": 4441,
      "sets": 4442,
      "rates": 4443,
      "marked": 4444,
      "reve": 4445,
      "ji": 4446,
      "direction": 4447,
      "tel": 4448,
      "dol": 4449,
      "nit": 4450,
      "184": 4451,
      "brown": 4452,
      "div": 4453,
      "isms": 4454,
      "sole": 4455,
      "bad": 4456,
      "teams": 4457,
      "featured": 4458,
      "1999": 4459,
      "operating": 4460,
      "windo": 4461,
      "ave": 4462,
      "rian": 4463,
      "writer": 4464,
      "prince": 4465,
      "reference": 4466,
      "supre": 4467,
      "vation": 4468,
      "sumed": 4469,
      "activities": 4470,
      "presence": 4471,
      "portion": 4472,
      "90": 4473,
      "bot": 4474,
      "wol": 4475,
      "chest": 4476,
      "incorpor": 4477,
      "ensity": 4478,
      "zil": 4479,
      "smith": 4480,
      "double": 4481,
      "journal": 4482,
      "lord": 4483,
      "existence": 4484,
      "bring": 4485,
      "objects": 4486,
      "review": 4487,
      "versions": 4488,
      "publish": 4489,
      "calcul": 4490,
      "jun": 4491,
      "fit": 4492,
      "explo": 4493,
      "distribution": 4494,
      "len": 4495,
      "cks": 4496,
      "humans": 4497,
      "risk": 4498,
      "institute": 4499,
      "remaining": 4500,
      "mers": 4501,
      "allows": 4502,
      "combined": 4503,
      "carri": 4504,
      "rative": 4505,
      "marine": 4506,
      "visit": 4507,
      "boy": 4508,
      "ogy": 4509,
      "represented": 4510,
      "hund": 4511,
      "extended": 4512,
      "vot": 4513,
      "freedom": 4514,
      "ware": 4515,
      "derived": 4516,
      "male": 4517,
      "compar": 4518,
      "fields": 4519,
      "portu": 4520,
      "environment": 4521,
      "decision": 4522,
      "contemporary": 4523,
      "cade": 4524,
      "ano": 4525,
      "accoun": 4526,
      "internal": 4527,
      "1998": 4528,
      "comment": 4529,
      "polish": 4530,
      "equival": 4531,
      "oxy": 4532,
      "purch": 4533,
      "atl": 4534,
      "frequently": 4535,
      "consists": 4536,
      "hypo": 4537,
      "maintain": 4538,
      "preser": 4539,
      "conce": 4540,
      "core": 4541,
      "gene": 4542,
      "irish": 4543,
      "ideas": 4544,
      "claims": 4545,
      "slow": 4546,
      "hundred": 4547,
      "pap": 4548,
      "liberal": 4549,
      "disease": 4550,
      "sand": 4551,
      "becoming": 4552,
      "solution": 4553,
      "faith": 4554,
      "turned": 4555,
      "cli": 4556,
      "limit": 4557,
      "earliest": 4558,
      "responsible": 4559,
      "province": 4560,
      "master": 4561,
      "ville": 4562,
      "airport": 4563,
      "zy": 4564,
      "festival": 4565,
      "\";": 4566,
      "speech": 4567,
      "voc": 4568,
      "cham": 4569,
      "oly": 4570,
      "initi": 4571,
      "cher": 4572,
      "magn": 4573,
      "arms": 4574,
      "kin": 4575,
      "vey": 4576,
      "letters": 4577,
      "scott": 4578,
      "chic": 4579,
      "atest": 4580,
      "negative": 4581,
      "phase": 4582,
      "finite": 4583,
      "plants": 4584,
      "signal": 4585,
      "cab": 4586,
      "dynast": 4587,
      "mom": 4588,
      "rum": 4589,
      "wanted": 4590,
      "identified": 4591,
      "takes": 4592,
      "quickly": 4593,
      "arist": 4594,
      "ather": 4595,
      "atures": 4596,
      "digital": 4597,
      "continue": 4598,
      "magazine": 4599,
      "distingu": 4600,
      "protection": 4601,
      "materials": 4602,
      "bles": 4603,
      "volume": 4604,
      "iran": 4605,
      "soft": 4606,
      "resulted": 4607,
      "ket": 4608,
      "francis": 4609,
      "spring": 4610,
      "heart": 4611,
      "greatest": 4612,
      "presidential": 4613,
      "gers": 4614,
      "eria": 4615,
      "notes": 4616,
      "kings": 4617,
      "expansion": 4618,
      "worth": 4619,
      "jose": 4620,
      "visions": 4621,
      "efforts": 4622,
      "ternal": 4623,
      "poland": 4624,
      "ria": 4625,
      "scot": 4626,
      "issued": 4627,
      "aps": 4628,
      "avoid": 4629,
      "mol": 4630,
      "32": 4631,
      "student": 4632,
      "kept": 4633,
      "effective": 4634,
      "models": 4635,
      "wan": 4636,
      "quarter": 4637,
      "uded": 4638,
      "growing": 4639,
      "nas": 4640,
      "odes": 4641,
      "supply": 4642,
      "executive": 4643,
      "hosp": 4644,
      "motor": 4645,
      "symbol": 4646,
      "pacific": 4647,
      "impact": 4648,
      "exhib": 4649,
      "calend": 4650,
      "fat": 4651,
      "reaction": 4652,
      "comed": 4653,
      "generation": 4654,
      "capac": 4655,
      "directed": 4656,
      "dutch": 4657,
      "qual": 4658,
      "tend": 4659,
      "orthod": 4660,
      "exchange": 4661,
      "library": 4662,
      "comput": 4663,
      "recording": 4664,
      "confir": 4665,
      "weight": 4666,
      "screen": 4667,
      "gir": 4668,
      "purpose": 4669,
      "yer": 4670,
      "things": 4671,
      "shar": 4672,
      "defeated": 4673,
      "places": 4674,
      "condition": 4675,
      "smo": 4676,
      "occurred": 4677,
      "interpret": 4678,
      "ager": 4679,
      "64": 4680,
      "holy": 4681,
      "hero": 4682,
      "vary": 4683,
      "onto": 4684,
      "affair": 4685,
      "joy": 4686,
      "folk": 4687,
      "orient": 4688,
      "reform": 4689,
      "achie": 4690,
      "presented": 4691,
      "pict": 4692,
      "secretary": 4693,
      "intel": 4694,
      "pakistan": 4695,
      "offered": 4696,
      "invas": 4697,
      "achieve": 4698,
      "jac": 4699,
      "abol": 4700,
      "wis": 4701,
      "dp": 4702,
      "distinct": 4703,
      "giving": 4704,
      "australian": 4705,
      "victor": 4706,
      "sav": 4707,
      "immig": 4708,
      "pole": 4709,
      "weapons": 4710,
      "older": 4711,
      "note": 4712,
      "unique": 4713,
      "labour": 4714,
      "joint": 4715,
      "cycle": 4716,
      "diag": 4717,
      "step": 4718,
      "connected": 4719,
      "appearance": 4720,
      "ael": 4721,
      "artists": 4722,
      "favor": 4723,
      "zone": 4724,
      "benef": 4725,
      "equipment": 4726,
      "hus": 4727,
      "beyond": 4728,
      "staff": 4729,
      "politics": 4730,
      "dance": 4731,
      "engineering": 4732,
      "allowing": 4733,
      "virgin": 4734,
      "domestic": 4735,
      "38": 4736,
      "web": 4737,
      "virt": 4738,
      "shot": 4739,
      "entered": 4740,
      "pet": 4741,
      "going": 4742,
      "lee": 4743,
      "frequency": 4744,
      "attacks": 4745,
      "rand": 4746,
      "rated": 4747,
      "stad": 4748,
      "suffic": 4749,
      "buildings": 4750,
      "apol": 4751,
      "perman": 4752,
      "believe": 4753,
      "uan": 4754,
      "1990": 4755,
      "justice": 4756,
      "academy": 4757,
      "lun": 4758,
      "request": 4759,
      "chap": 4760,
      "serious": 4761,
      "steel": 4762,
      "gard": 4763,
      "income": 4764,
      "techniques": 4765,
      "36": 4766,
      "conference": 4767,
      "opposed": 4768,
      "ordered": 4769,
      "dark": 4770,
      "soldiers": 4771,
      "channel": 4772,
      "poses": 4773,
      "medieval": 4774,
      "1996": 4775,
      "olymp": 4776,
      "asc": 4777,
      "sar": 4778,
      "thin": 4779,
      "mont": 4780,
      "dur": 4781,
      "sector": 4782,
      "pain": 4783,
      "asked": 4784,
      "1997": 4785,
      "republican": 4786,
      "theatre": 4787,
      "regarded": 4788,
      "mobile": 4789,
      "encies": 4790,
      "twent": 4791,
      "orders": 4792,
      "victory": 4793,
      "guard": 4794,
      "spent": 4795,
      "alpha": 4796,
      "45": 4797,
      "resources": 4798,
      "gon": 4799,
      "accur": 4800,
      "agan": 4801,
      "helped": 4802,
      "figure": 4803,
      "honor": 4804,
      "prefer": 4805,
      "substant": 4806,
      "canadian": 4807,
      "subsequently": 4808,
      "prominent": 4809,
      "meeting": 4810,
      "pired": 4811,
      "rus": 4812,
      "wild": 4813,
      "moon": 4814,
      "aid": 4815,
      "inations": 4816,
      "anne": 4817,
      "ulf": 4818,
      "diale": 4819,
      "mountain": 4820,
      "heavi": 4821,
      "lith": 4822,
      "guit": 4823,
      "replace": 4824,
      "saf": 4825,
      "actually": 4826,
      "austri": 4827,
      "mind": 4828,
      "animal": 4829,
      "application": 4830,
      "owned": 4831,
      "lls": 4832,
      "dynam": 4833,
      "attribut": 4834,
      "unlike": 4835,
      "controlled": 4836,
      "branch": 4837,
      "michael": 4838,
      "user": 4839,
      "supreme": 4840,
      "omen": 4841,
      "solar": 4842,
      "recognized": 4843,
      "ja": 4844,
      "goal": 4845,
      "communist": 4846,
      "calendar": 4847,
      "inno": 4848,
      "alo": 4849,
      "factors": 4850,
      "erson": 4851,
      "amed": 4852,
      "philosoph": 4853,
      "cod": 4854,
      "powerful": 4855,
      "encoura": 4856,
      "1991": 4857,
      "circu": 4858,
      "izes": 4859,
      "newspa": 4860,
      "expressed": 4861,
      "enn": 4862,
      "told": 4863,
      "structures": 4864,
      "families": 4865,
      "invent": 4866,
      "cris": 4867,
      "1992": 4868,
      "gment": 4869,
      "fell": 4870,
      "hot": 4871,
      "respectively": 4872,
      "oh": 4873,
      "stain": 4874,
      "build": 4875,
      "reign": 4876,
      "kel": 4877,
      "texts": 4878,
      "citizens": 4879,
      "observed": 4880,
      "immediately": 4881,
      "speaking": 4882,
      "cise": 4883,
      "communication": 4884,
      "print": 4885,
      "nego": 4886,
      "ada": 4887,
      "subsequent": 4888,
      "americans": 4889,
      "focus": 4890,
      "mexico": 4891,
      "negoti": 4892,
      "recomm": 4893,
      "stations": 4894,
      "universal": 4895,
      "alexander": 4896,
      "showed": 4897,
      "sport": 4898,
      "1995": 4899,
      "rig": 4900,
      "write": 4901,
      "phon": 4902,
      "iling": 4903,
      "1994": 4904,
      "skill": 4905,
      "algor": 4906,
      "disci": 4907,
      "communities": 4908,
      "foundation": 4909,
      "fundam": 4910,
      "advanced": 4911,
      "fare": 4912,
      "beat": 4913,
      "officially": 4914,
      "feel": 4915,
      "algorith": 4916,
      "myth": 4917,
      "fixed": 4918,
      "brief": 4919,
      "von": 4920,
      "correct": 4921,
      "ump": 4922,
      "queen": 4923,
      "recently": 4924,
      "igen": 4925,
      "cold": 4926,
      "factor": 4927,
      "inspired": 4928,
      "ceeded": 4929,
      "gained": 4930,
      "follows": 4931,
      "bowl": 4932,
      "jesus": 4933,
      "lis": 4934,
      "provin": 4935,
      "dna": 4936,
      "ador": 4937,
      "resistance": 4938,
      "theless": 4939,
      "render": 4940,
      "occurs": 4941,
      "inher": 4942,
      "determined": 4943,
      "chos": 4944,
      "lock": 4945,
      "valley": 4946,
      "asy": 4947,
      "entially": 4948,
      "heat": 4949,
      "inj": 4950,
      "writers": 4951,
      "ales": 4952,
      "difference": 4953,
      "standards": 4954,
      "price": 4955,
      "grew": 4956,
      "analy": 4957,
      "alli": 4958,
      "glass": 4959,
      "communications": 4960,
      "crown": 4961,
      "leaving": 4962,
      "tree": 4963,
      "inside": 4964,
      "mentioned": 4965,
      "las": 4966,
      "cel": 4967,
      "differences": 4968,
      "75": 4969,
      "thera": 4970,
      "stood": 4971,
      "wars": 4972,
      "instance": 4973,
      "orthodox": 4974,
      "existing": 4975,
      "architecture": 4976,
      "stable": 4977,
      "refused": 4978,
      "vised": 4979,
      "joseph": 4980,
      "awards": 4981,
      "mann": 4982,
      "says": 4983,
      "overall": 4984,
      "organized": 4985,
      "completely": 4986,
      "ams": 4987,
      "winning": 4988,
      "uch": 4989,
      "agon": 4990,
      "causes": 4991,
      "unity": 4992,
      "constru": 4993,
      "users": 4994,
      "ffic": 4995,
      "institutions": 4996,
      "shor": 4997,
      "awarded": 4998,
      "ake": 4999,
      "identity": 5000,
      "voice": 5001,
      "subs": 5002,
      "slight": 5003,
      "angle": 5004,
      "dynasty": 5005,
      "33": 5006,
      "creating": 5007,
      "organizations": 5008,
      "loo": 5009,
      "vietnam": 5010,
      "figures": 5011,
      "sir": 5012,
      "syl": 5013,
      "cha": 5014,
      "consci": 5015,
      "ua": 5016,
      "liqu": 5017,
      "churches": 5018,
      "competition": 5019,
      "enem": 5020,
      "nucle": 5021,
      "contact": 5022,
      "rival": 5023,
      "raised": 5024,
      "1993": 5025,
      "fru": 5026,
      "reduce": 5027,
      "islamic": 5028,
      "mouth": 5029,
      "seem": 5030,
      "som": 5031,
      "metro": 5032,
      "scholar": 5033,
      "planned": 5034,
      "bron": 5035,
      "install": 5036,
      "bodies": 5037,
      "removed": 5038,
      "refers": 5039,
      "conservative": 5040,
      "windows": 5041,
      "stay": 5042,
      "1920": 5043,
      "worldwide": 5044,
      "planet": 5045,
      "decades": 5046,
      "fleet": 5047,
      "thor": 5048,
      "alco": 5049,
      "belong": 5050,
      "convent": 5051,
      "proved": 5052,
      "presents": 5053,
      "monarch": 5054,
      "zero": 5055,
      "berlin": 5056,
      "intelligence": 5057,
      "infl": 5058,
      "owners": 5059,
      "sl": 5060,
      "doctor": 5061,
      "rh": 5062,
      "atta": 5063,
      "oppos": 5064,
      "railway": 5065,
      "tery": 5066,
      "gives": 5067,
      "holds": 5068,
      "principle": 5069,
      "rine": 5070,
      "pron": 5071,
      "oxide": 5072,
      "jack": 5073,
      "phenomen": 5074,
      "colla": 5075,
      "desc": 5076,
      "zeal": 5077,
      "hydrogen": 5078,
      "remo": 5079,
      "saying": 5080,
      "colonial": 5081,
      "bid": 5082,
      "exact": 5083,
      "advantage": 5084,
      "sought": 5085,
      "anda": 5086,
      "external": 5087,
      "passeng": 5088,
      "constructed": 5089,
      "ception": 5090,
      "combat": 5091,
      "trave": 5092,
      "chicago": 5093,
      "pes": 5094,
      "usal": 5095,
      "consum": 5096,
      "infra": 5097,
      "premi": 5098,
      "anni": 5099,
      "universe": 5100,
      "opening": 5101,
      "containing": 5102,
      "episode": 5103,
      "situation": 5104,
      "piece": 5105,
      "split": 5106,
      "shap": 5107,
      "scene": 5108,
      "arent": 5109,
      "ola": 5110,
      "expanded": 5111,
      "eties": 5112,
      "diction": 5113,
      "severe": 5114,
      "advoc": 5115,
      "silver": 5116,
      "opin": 5117,
      "afgh": 5118,
      "context": 5119,
      "ull": 5120,
      "18th": 5121,
      "critics": 5122,
      "historian": 5123,
      "friends": 5124,
      "adapt": 5125,
      "got": 5126,
      "arrived": 5127,
      "sax": 5128,
      "attempts": 5129,
      "advent": 5130,
      "paid": 5131,
      "turk": 5132,
      "extensive": 5133,
      "fix": 5134,
      "increasingly": 5135,
      "meant": 5136,
      "1989": 5137,
      "programming": 5138,
      "thur": 5139,
      "rob": 5140,
      "sover": 5141,
      "settlement": 5142,
      "gate": 5143,
      "construct": 5144,
      "ranked": 5145,
      "apparent": 5146,
      "density": 5147,
      "34": 5148,
      "ying": 5149,
      "tail": 5150,
      "bled": 5151,
      "plans": 5152,
      "modif": 5153,
      "bute": 5154,
      "chair": 5155,
      "dipl": 5156,
      "weeks": 5157,
      "environmental": 5158,
      "exer": 5159,
      "destroyed": 5160,
      "pure": 5161,
      "understanding": 5162,
      "literary": 5163,
      "vice": 5164,
      "unding": 5165,
      "palest": 5166,
      "devices": 5167,
      "astronom": 5168,
      "atmos": 5169,
      "tered": 5170,
      "equivalent": 5171,
      "diplom": 5172,
      "km": 5173,
      "orbit": 5174,
      "asian": 5175,
      "strate": 5176,
      "listed": 5177,
      "chemist": 5178,
      "dor": 5179,
      "deliver": 5180,
      "solid": 5181,
      "37": 5182,
      "combination": 5183,
      "isol": 5184,
      "linear": 5185,
      "brazil": 5186,
      "grant": 5187,
      "attention": 5188,
      "paralle": 5189,
      "typical": 5190,
      "importance": 5191,
      "norm": 5192,
      "doct": 5193,
      "crew": 5194,
      "contract": 5195,
      "employment": 5196,
      "occupied": 5197,
      "kil": 5198,
      "output": 5199,
      "draw": 5200,
      "device": 5201,
      "180": 5202,
      "capacity": 5203,
      "invasion": 5204,
      "mountains": 5205,
      "regist": 5206,
      "occasion": 5207,
      "leadership": 5208,
      "crisis": 5209,
      "cerem": 5210,
      "collabor": 5211,
      "attempted": 5212,
      "circum": 5213,
      "specifically": 5214,
      "itation": 5215,
      "electronic": 5216,
      "spoken": 5217,
      "beth": 5218,
      "wides": 5219,
      "think": 5220,
      "map": 5221,
      "actor": 5222,
      "ruled": 5223,
      "300": 5224,
      "something": 5225,
      "bic": 5226,
      "alone": 5227,
      "mixed": 5228,
      "zz": 5229,
      "describes": 5230,
      "technical": 5231,
      "whereas": 5232,
      "1950s": 5233,
      "naval": 5234,
      "actual": 5235,
      "effort": 5236,
      "ders": 5237,
      "turning": 5238,
      "components": 5239,
      "ottoman": 5240,
      "scotland": 5241,
      "swe": 5242,
      "ancy": 5243,
      "fifth": 5244,
      "behavior": 5245,
      "ara": 5246,
      "icip": 5247,
      "tried": 5248,
      "voted": 5249,
      "historic": 5250,
      "fighting": 5251,
      "officers": 5252,
      "projects": 5253,
      "hed": 5254,
      "arrest": 5255,
      "roll": 5256,
      "prep": 5257,
      "municip": 5258,
      "afghan": 5259,
      "hunt": 5260,
      "cia": 5261,
      "drive": 5262,
      "forward": 5263,
      "granted": 5264,
      "conducted": 5265,
      "otic": 5266,
      "operated": 5267,
      "dram": 5268,
      "significantly": 5269,
      "captured": 5270,
      "atlantic": 5271,
      "affect": 5272,
      "studio": 5273,
      "territories": 5274,
      "chi": 5275,
      "opera": 5276,
      "bach": 5277,
      "secondary": 5278,
      "senate": 5279,
      "physics": 5280,
      "oth": 5281,
      "andon": 5282,
      "zealand": 5283,
      "aster": 5284,
      "depending": 5285,
      "processes": 5286,
      "requires": 5287,
      "employed": 5288,
      "supp": 5289,
      "match": 5290,
      "policies": 5291,
      "rounding": 5292,
      "transition": 5293,
      "choice": 5294,
      "plate": 5295,
      "apart": 5296,
      "radiation": 5297,
      "brain": 5298,
      "edward": 5299,
      "rose": 5300,
      "propos": 5301,
      "discovery": 5302,
      "sites": 5303,
      "aur": 5304,
      "camer": 5305,
      "houses": 5306,
      "iraq": 5307,
      "sides": 5308,
      "consequ": 5309,
      "shall": 5310,
      "finished": 5311,
      "experiment": 5312,
      "quantum": 5313,
      "',": 5314,
      "icated": 5315,
      "toward": 5316,
      "traffic": 5317,
      "ez": 5318,
      "drum": 5319,
      "launch": 5320,
      "kers": 5321,
      "acting": 5322,
      "crime": 5323,
      "moment": 5324,
      "oxygen": 5325,
      "gary": 5326,
      "inian": 5327,
      "proced": 5328,
      "hism": 5329,
      "nd": 5330,
      "preced": 5331,
      "statement": 5332,
      "%.": 5333,
      "nut": 5334,
      "inner": 5335,
      "theories": 5336,
      "ries": 5337,
      "achieved": 5338,
      "ets": 5339,
      "39": 5340,
      "abandon": 5341,
      "string": 5342,
      "authors": 5343,
      "felt": 5344,
      "describe": 5345,
      "publication": 5346,
      "widespread": 5347,
      "fu": 5348,
      "principal": 5349,
      "southeast": 5350,
      "quarters": 5351,
      "47": 5352,
      "48": 5353,
      "classes": 5354,
      "christianity": 5355,
      "sons": 5356,
      "oldest": 5357,
      "cot": 5358,
      "notably": 5359,
      "target": 5360,
      "opport": 5361,
      "maximum": 5362,
      "gins": 5363,
      "temple": 5364,
      "sales": 5365,
      "producing": 5366,
      "holding": 5367,
      "developing": 5368,
      "fundamental": 5369,
      "apple": 5370,
      "suffered": 5371,
      "cool": 5372,
      "firm": 5373,
      "ultimately": 5374,
      "none": 5375,
      "rejected": 5376,
      "challeng": 5377,
      "apo": 5378,
      "pressed": 5379,
      "scen": 5380,
      "damage": 5381,
      "reven": 5382,
      "stro": 5383,
      "strugg": 5384,
      "korea": 5385,
      "lingu": 5386,
      "affairs": 5387,
      "49": 5388,
      "tam": 5389,
      "composition": 5390,
      "murder": 5391,
      "martin": 5392,
      "reports": 5393,
      "similarly": 5394,
      "juris": 5395,
      "ik": 5396,
      "ening": 5397,
      "haps": 5398,
      "terror": 5399,
      "guar": 5400,
      "rd": 5401,
      "page": 5402,
      "perhaps": 5403,
      "phos": 5404,
      "parents": 5405,
      "tz": 5406,
      "poem": 5407,
      "copy": 5408,
      "shared": 5409,
      "serving": 5410,
      "archae": 5411,
      "approved": 5412,
      "ona": 5413,
      "compounds": 5414,
      "hospital": 5415,
      "genetic": 5416,
      "valu": 5417,
      "isa": 5418,
      "ida": 5419,
      "priest": 5420,
      "daily": 5421,
      "golden": 5422,
      "constitutional": 5423,
      "affected": 5424,
      "roads": 5425,
      "bann": 5426,
      "nig": 5427,
      "ulate": 5428,
      "else": 5429,
      "visible": 5430,
      "introduction": 5431,
      "suggests": 5432,
      "easily": 5433,
      "surrounding": 5434,
      "matic": 5435,
      "bact": 5436,
      "drug": 5437,
      "permanent": 5438,
      "accom": 5439,
      "strateg": 5440,
      "decade": 5441,
      "link": 5442,
      "respect": 5443,
      "fres": 5444,
      "reasons": 5445,
      "computers": 5446,
      "criticism": 5447,
      "championship": 5448,
      "65": 5449,
      "regarding": 5450,
      "iced": 5451,
      "shape": 5452,
      "server": 5453,
      "studied": 5454,
      "bil": 5455,
      "violence": 5456,
      "becomes": 5457,
      "leave": 5458,
      "campus": 5459,
      "iso": 5460,
      "prize": 5461,
      "ix": 5462,
      "chain": 5463,
      "feed": 5464,
      "uran": 5465,
      "catal": 5466,
      "failure": 5467,
      "strength": 5468,
      "satis": 5469,
      "bio": 5470,
      "castle": 5471,
      "involve": 5472,
      "census": 5473,
      "elim": 5474,
      "particles": 5475,
      "popularity": 5476,
      "instruments": 5477,
      "obtained": 5478,
      "oration": 5479,
      "scientists": 5480,
      "179": 5481,
      "dated": 5482,
      "uro": 5483,
      "providing": 5484,
      "flag": 5485,
      "protocol": 5486,
      "ctic": 5487,
      "christians": 5488,
      "restrict": 5489,
      "patri": 5490,
      "format": 5491,
      "display": 5492,
      "setting": 5493,
      "runs": 5494,
      "ita": 5495,
      "polar": 5496,
      "rupt": 5497,
      "route": 5498,
      "lyn": 5499,
      "clar": 5500,
      "officials": 5501,
      "improved": 5502,
      "%,": 5503,
      "tai": 5504,
      "entertain": 5505,
      "inet": 5506,
      "contained": 5507,
      "closely": 5508,
      "agriculture": 5509,
      "gdp": 5510,
      "infant": 5511,
      "residents": 5512,
      "dry": 5513,
      "coordin": 5514,
      "1980": 5515,
      "rab": 5516,
      "traditionally": 5517,
      "academic": 5518,
      "partners": 5519,
      "preci": 5520,
      "finding": 5521,
      "heavily": 5522,
      "professor": 5523,
      "mam": 5524,
      "lives": 5525,
      "ighter": 5526,
      "udes": 5527,
      "schem": 5528,
      "courts": 5529,
      "authorities": 5530,
      "chance": 5531,
      "prohib": 5532,
      "receive": 5533,
      "dish": 5534,
      "genes": 5535,
      "shortly": 5536,
      "incident": 5537,
      "onia": 5538,
      "stances": 5539,
      "historians": 5540,
      "your": 5541,
      "useful": 5542,
      "targe": 5543,
      "alcohol": 5544,
      "sate": 5545,
      "usual": 5546,
      "fellow": 5547,
      "settled": 5548,
      "movie": 5549,
      "administrative": 5550,
      "bapt": 5551,
      "lip": 5552,
      "thousands": 5553,
      "sched": 5554,
      "chron": 5555,
      "mathematics": 5556,
      "repeated": 5557,
      "aer": 5558,
      "principles": 5559,
      "texas": 5560,
      "aspects": 5561,
      "stadium": 5562,
      "slightly": 5563,
      "continuous": 5564,
      "expression": 5565,
      "graphic": 5566,
      "agricultural": 5567,
      "effici": 5568,
      "possibly": 5569,
      "portugu": 5570,
      "snow": 5571,
      "gender": 5572,
      "visual": 5573,
      "valid": 5574,
      "hands": 5575,
      "village": 5576,
      "cd": 5577,
      "mr": 5578,
      "amend": 5579,
      "aves": 5580,
      "practices": 5581,
      "stress": 5582,
      "defeat": 5583,
      "pc": 5584,
      "seat": 5585,
      "absor": 5586,
      "influential": 5587,
      "defence": 5588,
      "decline": 5589,
      "learning": 5590,
      "ean": 5591,
      "usage": 5592,
      "forming": 5593,
      "trial": 5594,
      "visited": 5595,
      "measures": 5596,
      "emerged": 5597,
      "aded": 5598,
      "bands": 5599,
      "temperatures": 5600,
      "aces": 5601,
      "historically": 5602,
      "portuguese": 5603,
      "flat": 5604,
      "athen": 5605,
      "artist": 5606,
      "dates": 5607,
      "hil": 5608,
      "traditions": 5609,
      "connection": 5610,
      "sie": 5611,
      "carol": 5612,
      "towns": 5613,
      "discipl": 5614,
      "satell": 5615,
      "55": 5616,
      "neighbor": 5617,
      "pin": 5618,
      "cules": 5619,
      "eign": 5620,
      "dun": 5621,
      "secut": 5622,
      ").": 5623,
      "vac": 5624,
      "yel": 5625,
      "sovereign": 5626,
      "amin": 5627,
      "compr": 5628,
      "join": 5629,
      "capable": 5630,
      "drawn": 5631,
      "file": 5632,
      "rants": 5633,
      "1945": 5634,
      "debate": 5635,
      "instrument": 5636,
      "ato": 5637,
      "els": 5638,
      "reading": 5639,
      "editor": 5640,
      "ament": 5641,
      "geograph": 5642,
      "indigen": 5643,
      "goods": 5644,
      "bury": 5645,
      "extremely": 5646,
      "omin": 5647,
      "entirely": 5648,
      "zed": 5649,
      "peoples": 5650,
      "sufficient": 5651,
      "unknown": 5652,
      "abilities": 5653,
      "duke": 5654,
      "1986": 5655,
      "1975": 5656,
      "titled": 5657,
      "plicit": 5658,
      "yo": 5659,
      "thes": 5660,
      "advert": 5661,
      "miner": 5662,
      "horse": 5663,
      "safety": 5664,
      "aks": 5665,
      "iment": 5666,
      "moral": 5667,
      "rural": 5668,
      "sion": 5669,
      "haw": 5670,
      "greece": 5671,
      "practical": 5672,
      "institution": 5673,
      "input": 5674,
      "sem": 5675,
      "expl": 5676,
      "otherwise": 5677,
      "kan": 5678,
      "harmon": 5679,
      "indigenous": 5680,
      "yan": 5681,
      "maintained": 5682,
      "atomic": 5683,
      "inhabit": 5684,
      "ilit": 5685,
      "medium": 5686,
      "confirmed": 5687,
      "alliance": 5688,
      "stance": 5689,
      "semi": 5690,
      "rising": 5691,
      "technique": 5692,
      "pion": 5693,
      "appropri": 5694,
      "fred": 5695,
      "oppon": 5696,
      "mpto": 5697,
      "'.": 5698,
      "sister": 5699,
      "bun": 5700,
      "edge": 5701,
      "disput": 5702,
      "background": 5703,
      "cracy": 5704,
      "angeles": 5705,
      "nether": 5706,
      "causing": 5707,
      "spiritual": 5708,
      "icts": 5709,
      "rank": 5710,
      "quite": 5711,
      "cler": 5712,
      "ologies": 5713,
      "fan": 5714,
      "nothing": 5715,
      "audience": 5716,
      "twenty": 5717,
      "hur": 5718,
      "managed": 5719,
      "roughly": 5720,
      "vector": 5721,
      "heim": 5722,
      "uted": 5723,
      "agency": 5724,
      "attended": 5725,
      "criminal": 5726,
      "conscious": 5727,
      "gil": 5728,
      "oured": 5729,
      "cars": 5730,
      "pieces": 5731,
      "drew": 5732,
      "assum": 5733,
      "engines": 5734,
      "selected": 5735,
      "minutes": 5736,
      "medicine": 5737,
      "codice": 5738,
      "enjoy": 5739,
      "1985": 5740,
      "translation": 5741,
      "codice_": 5742,
      "mono": 5743,
      "networks": 5744,
      "corporation": 5745,
      "uge": 5746,
      "images": 5747,
      "brew": 5748,
      "online": 5749,
      "divers": 5750,
      "tested": 5751,
      "establishment": 5752,
      "vehicles": 5753,
      "plot": 5754,
      "sts": 5755,
      "peak": 5756,
      "ministry": 5757,
      "judic": 5758,
      "appoint": 5759,
      "ught": 5760,
      "concluded": 5761,
      "\":": 5762,
      "resolution": 5763,
      "processing": 5764,
      "johnson": 5765,
      "poll": 5766,
      "spin": 5767,
      "tons": 5768,
      "physic": 5769,
      "1988": 5770,
      "viewed": 5771,
      "acquired": 5772,
      "jim": 5773,
      "sn": 5774,
      "sul": 5775,
      "push": 5776,
      "rhy": 5777,
      "unable": 5778,
      "continues": 5779,
      "1987": 5780,
      "federation": 5781,
      "commander": 5782,
      "pho": 5783,
      "crete": 5784,
      "exclus": 5785,
      "circuit": 5786,
      "rein": 5787,
      "hell": 5788,
      "geomet": 5789,
      "1982": 5790,
      "mix": 5791,
      "sle": 5792,
      "mathematical": 5793,
      "hay": 5794,
      "1984": 5795,
      "phr": 5796,
      "suppor": 5797,
      "faces": 5798,
      "successfully": 5799,
      "index": 5800,
      "endo": 5801,
      "cycl": 5802,
      "newly": 5803,
      "purposes": 5804,
      "competit": 5805,
      "fine": 5806,
      "score": 5807,
      "ratio": 5808,
      "candidate": 5809,
      "yu": 5810,
      "astro": 5811,
      "1979": 5812,
      "skin": 5813,
      "officer": 5814,
      "teenth": 5815,
      "tren": 5816,
      "chlor": 5817,
      "marks": 5818,
      "populations": 5819,
      "palace": 5820,
      "satur": 5821,
      "liquid": 5822,
      "absol": 5823,
      "chosen": 5824,
      "pent": 5825,
      "formally": 5826,
      "identify": 5827,
      "crow": 5828,
      "penins": 5829,
      "cze": 5830,
      "cards": 5831,
      "experienced": 5832,
      "advance": 5833,
      "virginia": 5834,
      "seats": 5835,
      "deriv": 5836,
      "iding": 5837,
      "safe": 5838,
      "andre": 5839,
      "jean": 5840,
      "1976": 5841,
      "investment": 5842,
      "revealed": 5843,
      "gall": 5844,
      "nazi": 5845,
      "reality": 5846,
      "cited": 5847,
      "kans": 5848,
      "iring": 5849,
      "umin": 5850,
      "protein": 5851,
      "contributed": 5852,
      "alge": 5853,
      "1970": 5854,
      "netherlands": 5855,
      "cc": 5856,
      "determ": 5857,
      "determine": 5858,
      "mist": 5859,
      "kins": 5860,
      "revi": 5861,
      "sustain": 5862,
      "calls": 5863,
      "ibility": 5864,
      "equation": 5865,
      "protect": 5866,
      "shire": 5867,
      "governments": 5868,
      "illu": 5869,
      "tourism": 5870,
      "dal": 5871,
      "imag": 5872,
      "greatly": 5873,
      "kir": 5874,
      "trig": 5875,
      "autonom": 5876,
      "description": 5877,
      "400": 5878,
      "dominated": 5879,
      "rivers": 5880,
      "operate": 5881,
      "ios": 5882,
      "zen": 5883,
      "comedy": 5884,
      "poetry": 5885,
      "thetic": 5886,
      "mail": 5887,
      "1983": 5888,
      "17th": 5889,
      "rapidly": 5890,
      "fro": 5891,
      "linked": 5892,
      "manufacturing": 5893,
      "jacks": 5894,
      "cos": 5895,
      "israeli": 5896,
      "persian": 5897,
      "twel": 5898,
      "icon": 5899,
      "portray": 5900,
      "tribes": 5901,
      "parallel": 5902,
      "bbc": 5903,
      "ek": 5904,
      "trust": 5905,
      "fried": 5906,
      "conqu": 5907,
      "coach": 5908,
      "issance": 5909,
      "franch": 5910,
      "dedicated": 5911,
      "iff": 5912,
      "68": 5913,
      "why": 5914,
      "survey": 5915,
      "testing": 5916,
      "bush": 5917,
      "essential": 5918,
      "ideal": 5919,
      "garian": 5920,
      "eld": 5921,
      "cancer": 5922,
      "99": 5923,
      "aqu": 5924,
      "comic": 5925,
      "eliza": 5926,
      "intellect": 5927,
      "din": 5928,
      "boys": 5929,
      "treated": 5930,
      "banks": 5931,
      "classified": 5932,
      "cular": 5933,
      "proof": 5934,
      "ads": 5935,
      "uniform": 5936,
      "pursu": 5937,
      "recognition": 5938,
      "predict": 5939,
      "broke": 5940,
      "dem": 5941,
      "1968": 5942,
      "nearby": 5943,
      "characteristics": 5944,
      "producer": 5945,
      "representation": 5946,
      "budget": 5947,
      "baby": 5948,
      "strongly": 5949,
      "bla": 5950,
      "votes": 5951,
      "kal": 5952,
      "adap": 5953,
      "corps": 5954,
      "cription": 5955,
      "layer": 5956,
      "accounts": 5957,
      "anthro": 5958,
      "theorem": 5959,
      "hindu": 5960,
      "kid": 5961,
      "controvers": 5962,
      "anton": 5963,
      "aware": 5964,
      "chemistry": 5965,
      "advis": 5966,
      "ller": 5967,
      "dominant": 5968,
      "therapy": 5969,
      "diff": 5970,
      "lithuan": 5971,
      "sels": 5972,
      "tests": 5973,
      "asser": 5974,
      "continental": 5975,
      "phosph": 5976,
      "hr": 5977,
      "graphy": 5978,
      "1974": 5979,
      "defend": 5980,
      "truth": 5981,
      "guitar": 5982,
      "vul": 5983,
      "chip": 5984,
      "plus": 5985,
      "supporting": 5986,
      "hann": 5987,
      "universities": 5988,
      "needs": 5989,
      "extent": 5990,
      "genre": 5991,
      "dog": 5992,
      "alongside": 5993,
      "danger": 5994,
      "jackson": 5995,
      "thed": 5996,
      "bear": 5997,
      "cock": 5998,
      "cs": 5999,
      "train": 6000,
      "classic": 6001,
      "logic": 6002,
      "mud": 6003,
      "anth": 6004,
      "veget": 6005,
      "perfect": 6006,
      "mount": 6007,
      "focused": 6008,
      "teaching": 6009,
      "bomb": 6010,
      "ias": 6011,
      "indo": 6012,
      "tox": 6013,
      "eigh": 6014,
      "yard": 6015,
      "responsib": 6016,
      "proteins": 6017,
      "component": 6018,
      "chamber": 6019,
      "hat": 6020,
      "enna": 6021,
      "colour": 6022,
      "representatives": 6023,
      "insur": 6024,
      "captain": 6025,
      "succeeded": 6026,
      "sweden": 6027,
      "gla": 6028,
      "nish": 6029,
      "spar": 6030,
      "placing": 6031,
      "considerable": 6032,
      "interpretation": 6033,
      "cers": 6034,
      "rational": 6035,
      "perce": 6036,
      "drop": 6037,
      "gri": 6038,
      "gence": 6039,
      "alty": 6040,
      "ami": 6041,
      "stell": 6042,
      "argument": 6043,
      "mous": 6044,
      "nick": 6045,
      "fert": 6046,
      "1969": 6047,
      "16th": 6048,
      "titles": 6049,
      "yellow": 6050,
      "peninsula": 6051,
      "dat": 6052,
      "writings": 6053,
      "150": 6054,
      "protestant": 6055,
      "legend": 6056,
      "hyper": 6057,
      "bern": 6058,
      "brothers": 6059,
      "columbia": 6060,
      "citizen": 6061,
      "diagno": 6062,
      "weather": 6063,
      "designs": 6064,
      "transportation": 6065,
      "obtain": 6066,
      "1967": 6067,
      "nevertheless": 6068,
      "vehicle": 6069,
      "tools": 6070,
      "etary": 6071,
      "facilities": 6072,
      "baseball": 6073,
      "absolute": 6074,
      "hence": 6075,
      "jection": 6076,
      "expensive": 6077,
      "periods": 6078,
      "category": 6079,
      "fing": 6080,
      "arrange": 6081,
      ",,": 6082,
      "waves": 6083,
      "missions": 6084,
      "declined": 6085,
      "bak": 6086,
      "rating": 6087,
      "adding": 6088,
      "1981": 6089,
      "alleged": 6090,
      "tower": 6091,
      "exists": 6092,
      "bian": 6093,
      "normally": 6094,
      "sciences": 6095,
      "incorporated": 6096,
      "substantial": 6097,
      "neo": 6098,
      "manner": 6099,
      "slaves": 6100,
      "transmission": 6101,
      "gradually": 6102,
      "canon": 6103,
      "deploy": 6104,
      "reput": 6105,
      "height": 6106,
      "1972": 6107,
      "arabic": 6108,
      "corresponding": 6109,
      "manus": 6110,
      "taught": 6111,
      "compat": 6112,
      "charged": 6113,
      "waters": 6114,
      "fash": 6115,
      "yield": 6116,
      "store": 6117,
      "seems": 6118,
      "antine": 6119,
      "plain": 6120,
      "want": 6121,
      "represents": 6122,
      "colony": 6123,
      "bible": 6124,
      "pas": 6125,
      "1978": 6126,
      "44": 6127,
      "alban": 6128,
      "organic": 6129,
      "faced": 6130,
      "younger": 6131,
      "eye": 6132,
      "pier": 6133,
      "scand": 6134,
      "separated": 6135,
      "prepar": 6136,
      "goes": 6137,
      "costs": 6138,
      "microsoft": 6139,
      "graduate": 6140,
      "gol": 6141,
      "rice": 6142,
      "massive": 6143,
      "herit": 6144,
      "statistics": 6145,
      "thy": 6146,
      "youth": 6147,
      "molecules": 6148,
      "mere": 6149,
      "vast": 6150,
      "twice": 6151,
      "1973": 6152,
      "effectively": 6153,
      "coalition": 6154,
      "usalem": 6155,
      "changing": 6156,
      "voy": 6157,
      "accident": 6158,
      "conduct": 6159,
      "episodes": 6160,
      "storage": 6161,
      "infrastructure": 6162,
      "dia": 6163,
      "actors": 6164,
      "concepts": 6165,
      "cabinet": 6166,
      "inhabitants": 6167,
      "allies": 6168,
      "judge": 6169,
      "interests": 6170,
      "jerusalem": 6171,
      "witness": 6172,
      "bac": 6173,
      "foun": 6174,
      "haz": 6175,
      "1971": 6176,
      "controver": 6177,
      "movements": 6178,
      "researchers": 6179,
      "lers": 6180,
      "hitler": 6181,
      "converted": 6182,
      "ml": 6183,
      "pian": 6184,
      "guide": 6185,
      "cultures": 6186,
      "entertainment": 6187,
      "allied": 6188,
      "additionally": 6189,
      "message": 6190,
      "acted": 6191,
      "indones": 6192,
      "measured": 6193,
      "assumed": 6194,
      "compos": 6195,
      "rix": 6196,
      "burgh": 6197,
      "consisting": 6198,
      "experiments": 6199,
      "increases": 6200,
      "doctrine": 6201,
      "iro": 6202,
      "fox": 6203,
      "regime": 6204,
      "phe": 6205,
      "ider": 6206,
      "generated": 6207,
      "apollo": 6208,
      "jaz": 6209,
      "origins": 6210,
      "oxid": 6211,
      "scul": 6212,
      "85": 6213,
      "neither": 6214,
      "shift": 6215,
      "random": 6216,
      "modified": 6217,
      "bab": 6218,
      "stim": 6219,
      "assess": 6220,
      "evolved": 6221,
      "acceler": 6222,
      "wr": 6223,
      "renew": 6224,
      "rena": 6225,
      "trees": 6226,
      "graphics": 6227,
      "egyptian": 6228,
      "urally": 6229,
      "rison": 6230,
      "nt": 6231,
      "yn": 6232,
      "err": 6233,
      "speakers": 6234,
      "chester": 6235,
      "articles": 6236,
      "job": 6237,
      "philipp": 6238,
      "husband": 6239,
      "fashion": 6240,
      "instruct": 6241,
      "bob": 6242,
      "flor": 6243,
      "slavery": 6244,
      "hardware": 6245,
      "attributed": 6246,
      "eness": 6247,
      "aling": 6248,
      "oting": 6249,
      "grade": 6250,
      "senior": 6251,
      "circle": 6252,
      "ranean": 6253,
      "electrical": 6254,
      "metric": 6255,
      "strategy": 6256,
      "iary": 6257,
      "declar": 6258,
      "distinguish": 6259,
      "tin": 6260,
      "inary": 6261,
      "debut": 6262,
      "clu": 6263,
      "dropped": 6264,
      "guns": 6265,
      "prophe": 6266,
      "kit": 6267,
      "albert": 6268,
      "66": 6269,
      "ena": 6270,
      "boat": 6271,
      "minimum": 6272,
      "gia": 6273,
      "pto": 6274,
      "pick": 6275,
      "attend": 6276,
      "democracy": 6277,
      "affil": 6278,
      "wales": 6279,
      "algebra": 6280,
      "max": 6281,
      "rence": 6282,
      "ski": 6283,
      "laboratory": 6284,
      "bce": 6285,
      "mong": 6286,
      "rush": 6287,
      "machines": 6288,
      "atoms": 6289,
      "scottish": 6290,
      "socialist": 6291,
      "navig": 6292,
      "coastal": 6293,
      "degre": 6294,
      "breed": 6295,
      "indicate": 6296,
      "documents": 6297,
      "42": 6298,
      "ordinary": 6299,
      "orb": 6300,
      "sters": 6301,
      "membership": 6302,
      "employe": 6303,
      "iel": 6304,
      "empt": 6305,
      "manager": 6306,
      "explos": 6307,
      "slave": 6308,
      "fame": 6309,
      "politan": 6310,
      "straight": 6311,
      "mechanism": 6312,
      "evalu": 6313,
      "legislation": 6314,
      "explained": 6315,
      "bt": 6316,
      "assass": 6317,
      "concerns": 6318,
      "korean": 6319,
      "provinces": 6320,
      "canal": 6321,
      "sympto": 6322,
      "variable": 6323,
      "classification": 6324,
      "passing": 6325,
      "manufactur": 6326,
      "throne": 6327,
      "kn": 6328,
      "check": 6329,
      "roles": 6330,
      "divisions": 6331,
      "aph": 6332,
      "legacy": 6333,
      "opposite": 6334,
      "bure": 6335,
      "enge": 6336,
      "soil": 6337,
      "understand": 6338,
      "exception": 6339,
      "hungary": 6340,
      "revolutionary": 6341,
      "degrees": 6342,
      "biological": 6343,
      "successor": 6344,
      "oxford": 6345,
      "extin": 6346,
      "integrated": 6347,
      "domain": 6348,
      "selection": 6349,
      "1960": 6350,
      "illustr": 6351,
      "kur": 6352,
      "beach": 6353,
      "williams": 6354,
      "afghanistan": 6355,
      "doing": 6356,
      "saur": 6357,
      "86": 6358,
      "depos": 6359,
      "deleg": 6360,
      "superi": 6361,
      "dian": 6362,
      "headquarters": 6363,
      "attacked": 6364,
      "muslims": 6365,
      "ole": 6366,
      "selling": 6367,
      "byz": 6368,
      "nels": 6369,
      "interview": 6370,
      "penn": 6371,
      "opinion": 6372,
      "nfl": 6373,
      "sab": 6374,
      "aria": 6375,
      "mediter": 6376,
      "depict": 6377,
      "audio": 6378,
      "efficient": 6379,
      "austria": 6380,
      "seas": 6381,
      "dependent": 6382,
      "fought": 6383,
      "1977": 6384,
      "balance": 6385,
      "legislative": 6386,
      "concentration": 6387,
      "gency": 6388,
      "ario": 6389,
      "holly": 6390,
      "questions": 6391,
      "reflect": 6392,
      "criticized": 6393,
      "electrons": 6394,
      "swedish": 6395,
      "controversy": 6396,
      "touch": 6397,
      "argues": 6398,
      "mediterranean": 6399,
      "clin": 6400,
      "evil": 6401,
      "municipal": 6402,
      "wine": 6403,
      "understood": 6404,
      "varian": 6405,
      "newspaper": 6406,
      "intellectual": 6407,
      "anarch": 6408,
      "hebrew": 6409,
      "planning": 6410,
      "assigned": 6411,
      "rick": 6412,
      "bag": 6413,
      "refuge": 6414,
      "1930s": 6415,
      "crystal": 6416,
      "neutral": 6417,
      "iar": 6418,
      "ung": 6419,
      "ults": 6420,
      "brig": 6421,
      "existed": 6422,
      "occasionally": 6423,
      "valent": 6424,
      "trading": 6425,
      "axis": 6426,
      "candidates": 6427,
      "theme": 6428,
      "parad": 6429,
      "rac": 6430,
      "caes": 6431,
      "ibn": 6432,
      "persons": 6433,
      "aust": 6434,
      "passage": 6435,
      "branches": 6436,
      "keeping": 6437,
      "spaces": 6438,
      "birds": 6439,
      "minority": 6440,
      "francisco": 6441,
      "95": 6442,
      "dic": 6443,
      "optim": 6444,
      "calling": 6445,
      "flood": 6446,
      "atmosphere": 6447,
      "heritage": 6448,
      "iver": 6449,
      "webs": 6450,
      "northeast": 6451,
      "styles": 6452,
      "prepared": 6453,
      "reci": 6454,
      "igan": 6455,
      "hem": 6456,
      "novels": 6457,
      "colonies": 6458,
      "symptoms": 6459,
      "itors": 6460,
      "amendment": 6461,
      "profit": 6462,
      "wolf": 6463,
      "enemy": 6464,
      "itim": 6465,
      "heli": 6466,
      "explicit": 6467,
      "cook": 6468,
      "radical": 6469,
      "accused": 6470,
      "abandoned": 6471,
      "fresh": 6472,
      "entry": 6473,
      "cripts": 6474,
      "walls": 6475,
      "false": 6476,
      "pione": 6477,
      "reforms": 6478,
      "alter": 6479,
      "descend": 6480,
      "resem": 6481,
      "marx": 6482,
      "engage": 6483,
      "painting": 6484,
      "rod": 6485,
      "heard": 6486,
      "1948": 6487,
      "favour": 6488,
      "elizabeth": 6489,
      "jones": 6490,
      "wast": 6491,
      "signals": 6492,
      "victim": 6493,
      "propag": 6494,
      "cin": 6495,
      "root": 6496,
      "shop": 6497,
      "promoted": 6498,
      "agent": 6499,
      "worship": 6500,
      "aud": 6501,
      "performing": 6502,
      "beliefs": 6503,
      "dollar": 6504,
      "77": 6505,
      "beaut": 6506,
      "aux": 6507,
      "norway": 6508,
      "ologists": 6509,
      "tournam": 6510,
      "featuring": 6511,
      "correspond": 6512,
      "lowest": 6513,
      "mani": 6514,
      "locations": 6515,
      "synthesis": 6516,
      "chy": 6517,
      "sugar": 6518,
      "designated": 6519,
      "consistent": 6520,
      "infantry": 6521,
      "dess": 6522,
      "mechanical": 6523,
      "error": 6524,
      "decor": 6525,
      "memorial": 6526,
      "commonwealth": 6527,
      "yards": 6528,
      "shut": 6529,
      "fear": 6530,
      "licens": 6531,
      "experimental": 6532,
      "electricity": 6533,
      "divine": 6534,
      "algorithm": 6535,
      "conventional": 6536,
      "ost": 6537,
      "iving": 6538,
      "expect": 6539,
      "jersey": 6540,
      "pel": 6541,
      "references": 6542,
      "freder": 6543,
      "hear": 6544,
      "guil": 6545,
      "stephen": 6546,
      "personnel": 6547,
      "involving": 6548,
      "gulf": 6549,
      "lets": 6550,
      "ribute": 6551,
      "sper": 6552,
      "conquest": 6553,
      "etc": 6554,
      "pati": 6555,
      "trop": 6556,
      "committed": 6557,
      "transferred": 6558,
      "adult": 6559,
      "prise": 6560,
      "angel": 6561,
      "ruption": 6562,
      "task": 6563,
      "twelve": 6564,
      "enzy": 6565,
      "covering": 6566,
      "involves": 6567,
      "jazz": 6568,
      "cable": 6569,
      "vant": 6570,
      "arran": 6571,
      "neuro": 6572,
      "donald": 6573,
      "var": 6574,
      "abil": 6575,
      "meat": 6576,
      "guest": 6577,
      "subjects": 6578,
      "distributed": 6579,
      "1st": 6580,
      "taiwan": 6581,
      "somewhat": 6582,
      "lincol": 6583,
      "dating": 6584,
      "concerned": 6585,
      "hundreds": 6586,
      "ow": 6587,
      "arthur": 6588,
      "wear": 6589,
      "protected": 6590,
      "representative": 6591,
      "1939": 6592,
      "amounts": 6593,
      "possibility": 6594,
      "entit": 6595,
      "1962": 6596,
      "hosted": 6597,
      "copies": 6598,
      "pruss": 6599,
      "particle": 6600,
      "1965": 6601,
      "consumption": 6602,
      "infe": 6603,
      "seasons": 6604,
      "clean": 6605,
      "biography": 6606,
      "printed": 6607,
      "lincoln": 6608,
      "finland": 6609,
      "narrow": 6610,
      "picture": 6611,
      "cine": 6612,
      "ensure": 6613,
      "ologist": 6614,
      "1966": 6615,
      "1940": 6616,
      "khan": 6617,
      "mond": 6618,
      "julian": 6619,
      "fans": 6620,
      "sult": 6621,
      "couple": 6622,
      "figur": 6623,
      "gur": 6624,
      "stating": 6625,
      "accor": 6626,
      "markets": 6627,
      "christmas": 6628,
      "distinction": 6629,
      "ell": 6630,
      "items": 6631,
      "roots": 6632,
      "sile": 6633,
      "filled": 6634,
      "bone": 6635,
      "excess": 6636,
      "hair": 6637,
      "legitim": 6638,
      "floor": 6639,
      "admir": 6640,
      "predomin": 6641,
      "pp": 6642,
      "bling": 6643,
      "athlet": 6644,
      "matters": 6645,
      "1964": 6646,
      "delay": 6647,
      "foss": 6648,
      "produces": 6649,
      "headed": 6650,
      "logical": 6651,
      "drugs": 6652,
      "46": 6653,
      "ameter": 6654,
      "variations": 6655,
      "rays": 6656,
      "spective": 6657,
      "links": 6658,
      "deaths": 6659,
      "neighbour": 6660,
      "clubs": 6661,
      "partly": 6662,
      "mining": 6663,
      "soul": 6664,
      "offers": 6665,
      "promote": 6666,
      "patterns": 6667,
      "looking": 6668,
      "pled": 6669,
      "precise": 6670,
      "patent": 6671,
      "apply": 6672,
      "reputation": 6673,
      "bis": 6674,
      "shak": 6675,
      "lux": 6676,
      "reaching": 6677,
      "learned": 6678,
      "iated": 6679,
      "explan": 6680,
      "controversial": 6681,
      "superior": 6682,
      "oph": 6683,
      "sic": 6684,
      "nis": 6685,
      "turkey": 6686,
      "organisms": 6687,
      "1963": 6688,
      "characterized": 6689,
      "obl": 6690,
      "grown": 6691,
      "variant": 6692,
      "omor": 6693,
      "relationships": 6694,
      "wound": 6695,
      "kong": 6696,
      "beck": 6697,
      "originated": 6698,
      "rant": 6699,
      "consu": 6700,
      "bru": 6701,
      "anglo": 6702,
      "ogical": 6703,
      "males": 6704,
      "educational": 6705,
      "88": 6706,
      "velt": 6707,
      "arrival": 6708,
      "begins": 6709,
      "driven": 6710,
      "turkish": 6711,
      "pens": 6712,
      "rout": 6713,
      "founding": 6714,
      "grav": 6715,
      "define": 6716,
      "roose": 6717,
      "strike": 6718,
      "implemented": 6719,
      "sculpt": 6720,
      "mm": 6721,
      "gross": 6722,
      "themes": 6723,
      "collective": 6724,
      "1944": 6725,
      "roosevelt": 6726,
      "hes": 6727,
      "punish": 6728,
      "leges": 6729,
      "germanic": 6730,
      "dimensional": 6731,
      "tone": 6732,
      "infinite": 6733,
      "seed": 6734,
      "oles": 6735,
      "neur": 6736,
      "ody": 6737,
      "concert": 6738,
      "killing": 6739,
      "fly": 6740,
      "reno": 6741,
      "arbit": 6742,
      "idency": 6743,
      "tell": 6744,
      "translated": 6745,
      "credited": 6746,
      "satellite": 6747,
      "rebell": 6748,
      "leban": 6749,
      "proceed": 6750,
      "wilson": 6751,
      "femin": 6752,
      "lah": 6753,
      "clock": 6754,
      "buried": 6755,
      "hammad": 6756,
      "reduction": 6757,
      "appropriate": 6758,
      "supporters": 6759,
      "inn": 6760,
      "labe": 6761,
      "pool": 6762,
      "indicated": 6763,
      "occupation": 6764,
      "leaves": 6765,
      "mn": 6766,
      "lewis": 6767,
      "antly": 6768,
      "renamed": 6769,
      "inflation": 6770,
      "charges": 6771,
      "shore": 6772,
      "osex": 6773,
      "draft": 6774,
      "sample": 6775,
      "hypothesis": 6776,
      "87": 6777,
      "sche": 6778,
      "ibm": 6779,
      "showing": 6780,
      "extension": 6781,
      "vs": 6782,
      "interior": 6783,
      "writes": 6784,
      "magnitude": 6785,
      "serves": 6786,
      "representing": 6787,
      "volcan": 6788,
      "metropolitan": 6789,
      "600": 6790,
      "complic": 6791,
      "horiz": 6792,
      "osexual": 6793,
      "cosm": 6794,
      "strip": 6795,
      "raph": 6796,
      "mosco": 6797,
      "fled": 6798,
      "weapon": 6799,
      "entitled": 6800,
      "solved": 6801,
      "1961": 6802,
      "photograph": 6803,
      "scor": 6804,
      "agu": 6805,
      "pig": 6806,
      "clust": 6807,
      "door": 6808,
      "versary": 6809,
      "believ": 6810,
      "wheel": 6811,
      "parliamentary": 6812,
      "categories": 6813,
      "hunting": 6814,
      "gif": 6815,
      "reactions": 6816,
      "finish": 6817,
      "adapted": 6818,
      "gments": 6819,
      "destruction": 6820,
      "agents": 6821,
      "continent": 6822,
      "abs": 6823,
      "heads": 6824,
      "explain": 6825,
      "indeed": 6826,
      "iom": 6827,
      "pover": 6828,
      "coding": 6829,
      "boston": 6830,
      "hope": 6831,
      "compass": 6832,
      "ritual": 6833,
      "chronic": 6834,
      "bond": 6835,
      "shaped": 6836,
      "43": 6837,
      "outer": 6838,
      "illegal": 6839,
      "frequent": 6840,
      "demonstrated": 6841,
      "olympic": 6842,
      "romans": 6843,
      "concern": 6844,
      "tank": 6845,
      "declaration": 6846,
      "anger": 6847,
      "iday": 6848,
      "funding": 6849,
      "buddhist": 6850,
      "kansas": 6851,
      "xi": 6852,
      "zam": 6853,
      "shel": 6854,
      "capture": 6855,
      "survived": 6856,
      "details": 6857,
      "mayor": 6858,
      "politic": 6859,
      "expedition": 6860,
      "mixt": 6861,
      "nan": 6862,
      "leads": 6863,
      "bah": 6864,
      "performances": 6865,
      "probability": 6866,
      "oct": 6867,
      "analog": 6868,
      "och": 6869,
      "singer": 6870,
      "1941": 6871,
      "platform": 6872,
      "preferred": 6873,
      "recon": 6874,
      "abul": 6875,
      "partial": 6876,
      "monu": 6877,
      "velocity": 6878,
      "glas": 6879,
      "districts": 6880,
      "uter": 6881,
      "enab": 6882,
      "chose": 6883,
      "acle": 6884,
      "jeff": 6885,
      "prayer": 6886,
      "iana": 6887,
      "metals": 6888,
      "organisation": 6889,
      "moscow": 6890,
      "41": 6891,
      "desert": 6892,
      "cert": 6893,
      "influences": 6894,
      "gods": 6895,
      "sixth": 6896,
      "scenes": 6897,
      "kent": 6898,
      "ux": 6899,
      "ura": 6900,
      "emit": 6901,
      "covers": 6902,
      "simult": 6903,
      "vocal": 6904,
      "depression": 6905,
      "boats": 6906,
      "copper": 6907,
      "assistance": 6908,
      "satisf": 6909,
      "renaissance": 6910,
      "mine": 6911,
      "vak": 6912,
      "transform": 6913,
      "appeal": 6914,
      "debt": 6915,
      "requirements": 6916,
      "simultane": 6917,
      "iat": 6918,
      "fee": 6919,
      "prices": 6920,
      "1942": 6921,
      "chapter": 6922,
      "schedul": 6923,
      "wag": 6924,
      "recru": 6925,
      "delivered": 6926,
      "molecular": 6927,
      "strategic": 6928,
      "tool": 6929,
      "proportion": 6930,
      "accompan": 6931,
      "expo": 6932,
      "rounded": 6933,
      "uten": 6934,
      "cide": 6935,
      "essentially": 6936,
      "collected": 6937,
      "germans": 6938,
      "industries": 6939,
      "decisions": 6940,
      "scheme": 6941,
      "sultan": 6942,
      "tig": 6943,
      "laid": 6944,
      "receiving": 6945,
      "),": 6946,
      "pilot": 6947,
      "dialects": 6948,
      "accompanied": 6949,
      "hier": 6950,
      "sections": 6951,
      "decay": 6952,
      "founder": 6953,
      "hollywood": 6954,
      "ota": 6955,
      "ug": 6956,
      "encounter": 6957,
      "stages": 6958,
      "assa": 6959,
      "telephone": 6960,
      "tracks": 6961,
      "vor": 6962,
      "rics": 6963,
      "invented": 6964,
      "zing": 6965,
      "diverse": 6966,
      "psychology": 6967,
      "alphabet": 6968,
      "67": 6969,
      "broken": 6970,
      "powered": 6971,
      "salt": 6972,
      "symbols": 6973,
      "housing": 6974,
      "noun": 6975,
      "topol": 6976,
      "conversion": 6977,
      "northwest": 6978,
      "depends": 6979,
      "trou": 6980,
      "cum": 6981,
      "dean": 6982,
      "jordan": 6983,
      "reducing": 6984,
      "pale": 6985,
      "ensu": 6986,
      "engaged": 6987,
      "goth": 6988,
      "akh": 6989,
      "consisted": 6990,
      "cus": 6991,
      "inqu": 6992,
      "onso": 6993,
      "opt": 6994,
      "attle": 6995,
      "rug": 6996,
      "ministers": 6997,
      "accurate": 6998,
      "flying": 6999,
      "tag": 7000,
      "rever": 7001,
      "escape": 7002,
      "bean": 7003,
      "adjust": 7004,
      "treas": 7005,
      "patients": 7006,
      "contributions": 7007,
      "distinguished": 7008,
      "ante": 7009,
      "option": 7010,
      "investigation": 7011,
      "encouraged": 7012,
      "siege": 7013,
      "thick": 7014,
      "pute": 7015,
      "limits": 7016,
      "currency": 7017,
      "albums": 7018,
      "funds": 7019,
      "carrying": 7020,
      "anniversary": 7021,
      "phrase": 7022,
      "raine": 7023,
      "pleas": 7024,
      "juda": 7025,
      "violent": 7026,
      "regularly": 7027,
      "editions": 7028,
      "stones": 7029,
      "itarian": 7030,
      "forests": 7031,
      "attached": 7032,
      "fold": 7033,
      "factory": 7034,
      "furthermore": 7035,
      "collapse": 7036,
      "oblig": 7037,
      "abstra": 7038,
      "plas": 7039,
      "artific": 7040,
      "anything": 7041,
      "programme": 7042,
      "jet": 7043,
      "dismiss": 7044,
      "falls": 7045,
      "interpreted": 7046,
      "nitro": 7047,
      "philosophical": 7048,
      "passenger": 7049,
      "rhe": 7050,
      "leon": 7051,
      "chor": 7052,
      "wid": 7053,
      "export": 7054,
      "franchise": 7055,
      "tropical": 7056,
      "eat": 7057,
      "pom": 7058,
      "diam": 7059,
      "kee": 7060,
      "answer": 7061,
      "sail": 7062,
      "ruling": 7063,
      "missile": 7064,
      "bottom": 7065,
      "opportunity": 7066,
      "apost": 7067,
      "restr": 7068,
      "sher": 7069,
      "functional": 7070,
      "stalin": 7071,
      "divor": 7072,
      "fired": 7073,
      "ero": 7074,
      "mainland": 7075,
      "napole": 7076,
      "recommended": 7077,
      "kr": 7078,
      "approval": 7079,
      "fantasy": 7080,
      "mov": 7081,
      "lia": 7082,
      "supposed": 7083,
      "denmark": 7084,
      "battles": 7085,
      "chairman": 7086,
      "stret": 7087,
      "promise": 7088,
      "52": 7089,
      "hub": 7090,
      "spec": 7091,
      "drawing": 7092,
      "implementation": 7093,
      "immediate": 7094,
      "diplomatic": 7095,
      "fab": 7096,
      "vive": 7097,
      "enforce": 7098,
      "util": 7099,
      "bronze": 7100,
      "dual": 7101,
      "announ": 7102,
      "denom": 7103,
      "magic": 7104,
      "nominated": 7105,
      "hungarian": 7106,
      "phal": 7107,
      "onlyinclude": 7108,
      "arith": 7109,
      "1947": 7110,
      "retired": 7111,
      "carrier": 7112,
      "retained": 7113,
      "argent": 7114,
      "akes": 7115,
      "rhyth": 7116,
      "bright": 7117,
      "talk": 7118,
      "adel": 7119,
      "civilian": 7120,
      "assem": 7121,
      "89": 7122,
      "sig": 7123,
      "dub": 7124,
      "trying": 7125,
      "structural": 7126,
      "technologies": 7127,
      "benefit": 7128,
      "returning": 7129,
      "armen": 7130,
      "routes": 7131,
      "minute": 7132,
      "emphasis": 7133,
      "responsibility": 7134,
      "cad": 7135,
      "defic": 7136,
      "gran": 7137,
      "estimates": 7138,
      "commissioned": 7139,
      "kat": 7140,
      "recept": 7141,
      "worn": 7142,
      "jobs": 7143,
      "equations": 7144,
      "constitu": 7145,
      "secure": 7146,
      "adam": 7147,
      "longest": 7148,
      "800": 7149,
      "sale": 7150,
      "compil": 7151,
      "goals": 7152,
      "rocket": 7153,
      "girl": 7154,
      "1920s": 7155,
      "perceived": 7156,
      "compo": 7157,
      "variation": 7158,
      "squad": 7159,
      "rud": 7160,
      "ule": 7161,
      "racial": 7162,
      "ongo": 7163,
      "boundary": 7164,
      "reflected": 7165,
      "theology": 7166,
      "exports": 7167,
      "quad": 7168,
      "bos": 7169,
      "signs": 7170,
      "losses": 7171,
      "reserve": 7172,
      "etym": 7173,
      "lasted": 7174,
      "cuis": 7175,
      "wait": 7176,
      "roc": 7177,
      "lex": 7178,
      "honour": 7179,
      "proposal": 7180,
      "2nd": 7181,
      "pup": 7182,
      "wo": 7183,
      "diet": 7184,
      "burn": 7185,
      "rarely": 7186,
      "immigrants": 7187,
      "elev": 7188,
      "steps": 7189,
      "solutions": 7190,
      "galax": 7191,
      "eg": 7192,
      "dispute": 7193,
      "subsid": 7194,
      "diversity": 7195,
      "byzantine": 7196,
      "tub": 7197,
      "acids": 7198,
      "binary": 7199,
      "dream": 7200,
      "dialect": 7201,
      "ohio": 7202,
      "begun": 7203,
      "relat": 7204,
      "simp": 7205,
      "easy": 7206,
      "judicial": 7207,
      "restaur": 7208,
      "characteristic": 7209,
      "davis": 7210,
      "celebrated": 7211,
      "phenomenon": 7212,
      "atically": 7213,
      "confeder": 7214,
      "offensive": 7215,
      "pitch": 7216,
      "lists": 7217,
      "discrim": 7218,
      "separation": 7219,
      "purchased": 7220,
      "rons": 7221,
      "encing": 7222,
      "carib": 7223,
      "faster": 7224,
      "suitable": 7225,
      "presidency": 7226,
      "medal": 7227,
      "1950": 7228,
      "grounds": 7229,
      "cardinal": 7230,
      "binding": 7231,
      "varies": 7232,
      "math": 7233,
      "poems": 7234,
      "petro": 7235,
      "substit": 7236,
      "surrender": 7237,
      "mortal": 7238,
      "statist": 7239,
      "sunday": 7240,
      "surviving": 7241,
      "judaism": 7242,
      "merged": 7243,
      "moroc": 7244,
      "switzer": 7245,
      "credit": 7246,
      "gio": 7247,
      "oud": 7248,
      "unless": 7249,
      "borders": 7250,
      "epic": 7251,
      "rebellion": 7252,
      "56": 7253,
      "feet": 7254,
      "offices": 7255,
      "ithic": 7256,
      "bene": 7257,
      "rey": 7258,
      "ros": 7259,
      "malays": 7260,
      "discussed": 7261,
      "theoretical": 7262,
      "switzerland": 7263,
      "bent": 7264,
      "cof": 7265,
      "eur": 7266,
      "landing": 7267,
      "trained": 7268,
      "steam": 7269,
      "economics": 7270,
      "electoral": 7271,
      "drama": 7272,
      "territorial": 7273,
      "sounds": 7274,
      "sleep": 7275,
      "inity": 7276,
      "warm": 7277,
      "warfare": 7278,
      "females": 7279,
      "spectrum": 7280,
      "jurisdiction": 7281,
      "kra": 7282,
      "tip": 7283,
      "theod": 7284,
      "iah": 7285,
      "estate": 7286,
      "transmit": 7287,
      "garden": 7288,
      "isen": 7289,
      "geography": 7290,
      "operates": 7291,
      "philosopher": 7292,
      "paintings": 7293,
      "cribed": 7294,
      "breaking": 7295,
      "succession": 7296,
      "pairs": 7297,
      "installed": 7298,
      "sphere": 7299,
      "retain": 7300,
      "partially": 7301,
      "frederick": 7302,
      "59": 7303,
      "rin": 7304,
      "aret": 7305,
      "inson": 7306,
      "huge": 7307,
      "purchase": 7308,
      "1956": 7309,
      "connect": 7310,
      "stored": 7311,
      "eyes": 7312,
      "ceremony": 7313,
      "gone": 7314,
      "earned": 7315,
      "hotel": 7316,
      "gather": 7317,
      "meanwhile": 7318,
      "settlements": 7319,
      "crus": 7320,
      "luther": 7321,
      "ifying": 7322,
      "forth": 7323,
      "comics": 7324,
      "owner": 7325,
      "bird": 7326,
      "challenge": 7327,
      "nest": 7328,
      "cooperation": 7329,
      "cultiv": 7330,
      "mounted": 7331,
      "detailed": 7332,
      "bureau": 7333,
      "nur": 7334,
      "usa": 7335,
      "commem": 7336,
      "grammar": 7337,
      "morning": 7338,
      "bishops": 7339,
      "motiv": 7340,
      "documentary": 7341,
      "banned": 7342,
      "eco": 7343,
      "lakes": 7344,
      "aggress": 7345,
      "centers": 7346,
      "gosla": 7347,
      "177": 7348,
      "bai": 7349,
      "vania": 7350,
      "seek": 7351,
      "terminal": 7352,
      "taxes": 7353,
      "percentage": 7354,
      "fishing": 7355,
      "employees": 7356,
      "zan": 7357,
      "convin": 7358,
      "interaction": 7359,
      "interface": 7360,
      "desire": 7361,
      "otes": 7362,
      "farm": 7363,
      "revenue": 7364,
      "hd": 7365,
      "rical": 7366,
      "deter": 7367,
      "establishing": 7368,
      "yugosla": 7369,
      "poverty": 7370,
      "53": 7371,
      "fasc": 7372,
      "romantic": 7373,
      "notion": 7374,
      "corn": 7375,
      "identical": 7376,
      "croat": 7377,
      "religions": 7378,
      "walk": 7379,
      "papal": 7380,
      "dynamic": 7381,
      "skills": 7382,
      "tong": 7383,
      "1949": 7384,
      "fraction": 7385,
      "tanks": 7386,
      "fruit": 7387,
      "51": 7388,
      "nin": 7389,
      "pus": 7390,
      "conson": 7391,
      "1900": 7392,
      "eman": 7393,
      "matrix": 7394,
      "bonds": 7395,
      "watch": 7396,
      "circumstances": 7397,
      "alan": 7398,
      "unte": 7399,
      "pear": 7400,
      "etime": 7401,
      "blin": 7402,
      "intent": 7403,
      "exactly": 7404,
      "composer": 7405,
      "racing": 7406,
      "cow": 7407,
      "shi": 7408,
      "describing": 7409,
      "arguments": 7410,
      "executed": 7411,
      "giant": 7412,
      "lady": 7413,
      "exposure": 7414,
      "rations": 7415,
      "inate": 7416,
      "imprison": 7417,
      "nobel": 7418,
      "guine": 7419,
      "cathed": 7420,
      "crash": 7421,
      "deput": 7422,
      "metall": 7423,
      "claiming": 7424,
      "defensive": 7425,
      "4th": 7426,
      "cill": 7427,
      "jar": 7428,
      "raid": 7429,
      "cession": 7430,
      "carl": 7431,
      "files": 7432,
      "issions": 7433,
      "scope": 7434,
      "1958": 7435,
      "exec": 7436,
      "victoria": 7437,
      "explor": 7438,
      "ala": 7439,
      "tape": 7440,
      "crimes": 7441,
      "muhammad": 7442,
      "choose": 7443,
      "bath": 7444,
      "spot": 7445,
      "label": 7446,
      "morph": 7447,
      "prisoners": 7448,
      "arranged": 7449,
      "really": 7450,
      "notation": 7451,
      "underground": 7452,
      "cave": 7453,
      "volunte": 7454,
      "closer": 7455,
      "fluid": 7456,
      "continuing": 7457,
      "everything": 7458,
      "armies": 7459,
      "oted": 7460,
      "chart": 7461,
      "configur": 7462,
      "provision": 7463,
      "sud": 7464,
      "corruption": 7465,
      "channels": 7466,
      "annually": 7467,
      "myster": 7468,
      "waste": 7469,
      "restricted": 7470,
      "57": 7471,
      "sight": 7472,
      "ye": 7473,
      "zon": 7474,
      "noble": 7475,
      "optical": 7476,
      "ruler": 7477,
      "diseases": 7478,
      "bringing": 7479,
      "hole": 7480,
      "interval": 7481,
      "shell": 7482,
      "depicted": 7483,
      "solo": 7484,
      "15th": 7485,
      "voting": 7486,
      "instruction": 7487,
      "losing": 7488,
      "acknowled": 7489,
      "servers": 7490,
      "danish": 7491,
      "mixture": 7492,
      "cau": 7493,
      "gau": 7494,
      "replic": 7495,
      "intermedi": 7496,
      "monast": 7497,
      "publicly": 7498,
      "clearly": 7499,
      "complexity": 7500,
      "parent": 7501,
      "intr": 7502,
      "conven": 7503,
      "generate": 7504,
      "operational": 7505,
      "framework": 7506,
      "arrested": 7507,
      "accompl": 7508,
      "hong": 7509,
      "pregn": 7510,
      "ownership": 7511,
      "emotion": 7512,
      "iate": 7513,
      "1918": 7514,
      "indicates": 7515,
      "mexican": 7516,
      "adaptation": 7517,
      "nich": 7518,
      "amph": 7519,
      "compact": 7520,
      "ranging": 7521,
      "substance": 7522,
      "charter": 7523,
      "migration": 7524,
      "retire": 7525,
      "toler": 7526,
      "mainstream": 7527,
      "1946": 7528,
      "mechanics": 7529,
      "duty": 7530,
      "vacu": 7531,
      "revival": 7532,
      "execution": 7533,
      "hag": 7534,
      "stability": 7535,
      "rier": 7536,
      "tube": 7537,
      "bou": 7538,
      "bard": 7539,
      "gay": 7540,
      "sort": 7541,
      "iser": 7542,
      "impossible": 7543,
      "illery": 7544,
      "blues": 7545,
      "argue": 7546,
      "horizon": 7547,
      "whit": 7548,
      "abd": 7549,
      "testament": 7550,
      "coup": 7551,
      "settlers": 7552,
      "thal": 7553,
      "chant": 7554,
      "condem": 7555,
      "save": 7556,
      "pseud": 7557,
      "bacteria": 7558,
      "58": 7559,
      "unci": 7560,
      "lift": 7561,
      "michigan": 7562,
      "progressive": 7563,
      "publishing": 7564,
      "wick": 7565,
      "raw": 7566,
      "inton": 7567,
      "concerning": 7568,
      "spoke": 7569,
      "piration": 7570,
      "knew": 7571,
      "tall": 7572,
      "races": 7573,
      "emen": 7574,
      "depth": 7575,
      "varieties": 7576,
      "13th": 7577,
      "column": 7578,
      "junction": 7579,
      "artificial": 7580,
      "dress": 7581,
      "mile": 7582,
      "intention": 7583,
      "facilit": 7584,
      "experiences": 7585,
      "cathedral": 7586,
      "dv": 7587,
      "dale": 7588,
      "congreg": 7589,
      "soph": 7590,
      "partner": 7591,
      "carto": 7592,
      "bases": 7593,
      "musicians": 7594,
      "goddess": 7595,
      "interested": 7596,
      "21st": 7597,
      "efficiency": 7598,
      "theater": 7599,
      "prope": 7600,
      "computing": 7601,
      "virtual": 7602,
      "struggle": 7603,
      "czech": 7604,
      "instructions": 7605,
      "lig": 7606,
      "norwe": 7607,
      "facult": 7608,
      "attracted": 7609,
      "remote": 7610,
      "philippines": 7611,
      "cen": 7612,
      "cement": 7613,
      "mah": 7614,
      "someone": 7615,
      "naz": 7616,
      "1959": 7617,
      "toxic": 7618,
      "fc": 7619,
      "lom": 7620,
      "allen": 7621,
      "wrong": 7622,
      "logo": 7623,
      "lap": 7624,
      "phar": 7625,
      "brad": 7626,
      "integration": 7627,
      "responded": 7628,
      "drin": 7629,
      "duties": 7630,
      "aspect": 7631,
      "palestinian": 7632,
      "icide": 7633,
      "disney": 7634,
      "insist": 7635,
      "session": 7636,
      "jacob": 7637,
      "hugh": 7638,
      "uous": 7639,
      "adams": 7640,
      "gel": 7641,
      "ón": 7642,
      "abund": 7643,
      "restored": 7644,
      "unemployment": 7645,
      "followers": 7646,
      "willing": 7647,
      "1943": 7648,
      "heaven": 7649,
      "uranium": 7650,
      "fusion": 7651,
      "lose": 7652,
      "margin": 7653,
      "colom": 7654,
      "boundaries": 7655,
      "stopped": 7656,
      "scar": 7657,
      "lem": 7658,
      "veter": 7659,
      "iveness": 7660,
      "cuba": 7661,
      "bibl": 7662,
      "rub": 7663,
      "homosexual": 7664,
      "punk": 7665,
      "hills": 7666,
      "briefly": 7667,
      "partnership": 7668,
      "yers": 7669,
      "diver": 7670,
      "consult": 7671,
      "isolated": 7672,
      "ein": 7673,
      "lago": 7674,
      "macro": 7675,
      "wet": 7676,
      "cked": 7677,
      "naming": 7678,
      "preserved": 7679,
      "alogue": 7680,
      "compatible": 7681,
      "beng": 7682,
      "cant": 7683,
      "eag": 7684,
      "sain": 7685,
      "resc": 7686,
      "manip": 7687,
      "tay": 7688,
      "compens": 7689,
      "cule": 7690,
      "3rd": 7691,
      "ras": 7692,
      "amate": 7693,
      "processor": 7694,
      "thum": 7695,
      "inser": 7696,
      "irs": 7697,
      "kenned": 7698,
      "varying": 7699,
      "absence": 7700,
      "syd": 7701,
      "ranges": 7702,
      "basin": 7703,
      "buddhism": 7704,
      "tournament": 7705,
      "gravity": 7706,
      "glu": 7707,
      "ati": 7708,
      "contest": 7709,
      "wire": 7710,
      "ranking": 7711,
      "seconds": 7712,
      "facility": 7713,
      "seeking": 7714,
      "datab": 7715,
      "bits": 7716,
      "eric": 7717,
      "aya": 7718,
      "1955": 7719,
      "formerly": 7720,
      "olithic": 7721,
      "cking": 7722,
      "involvement": 7723,
      "consciousness": 7724,
      "compre": 7725,
      "angular": 7726,
      "nationally": 7727,
      "specified": 7728,
      "parks": 7729,
      "agues": 7730,
      "strings": 7731,
      "pler": 7732,
      "eva": 7733,
      "societies": 7734,
      "basket": 7735,
      "patron": 7736,
      "connections": 7737,
      "observations": 7738,
      "comparison": 7739,
      "pictures": 7740,
      "website": 7741,
      "69": 7742,
      "spacecraft": 7743,
      "biggest": 7744,
      "gregory": 7745,
      "aimed": 7746,
      "passengers": 7747,
      "elsewhere": 7748,
      "cuisine": 7749,
      "jr": 7750,
      "reviews": 7751,
      "illa": 7752,
      "cket": 7753,
      "colors": 7754,
      "voltage": 7755,
      "harm": 7756,
      "negotiations": 7757,
      "inhab": 7758,
      "stree": 7759,
      "ranks": 7760,
      "anglic": 7761,
      "household": 7762,
      "arabia": 7763,
      "approaches": 7764,
      "cinema": 7765,
      "hawa": 7766,
      "newton": 7767,
      "passes": 7768,
      "psychological": 7769,
      "familiar": 7770,
      "immigration": 7771,
      "lunar": 7772,
      "restrictions": 7773,
      "remove": 7774,
      "alfred": 7775,
      "deem": 7776,
      "exposed": 7777,
      "dio": 7778,
      "codes": 7779,
      "marshall": 7780,
      "cylin": 7781,
      "biblical": 7782,
      "tat": 7783,
      "inals": 7784,
      "adjac": 7785,
      "residence": 7786,
      "ople": 7787,
      "illness": 7788,
      "miles": 7789,
      "nomination": 7790,
      "license": 7791,
      "quantities": 7792,
      "strengthen": 7793,
      "norwegian": 7794,
      "120": 7795,
      "saudi": 7796,
      "participation": 7797,
      "jav": 7798,
      "vital": 7799,
      "thereby": 7800,
      "ceremon": 7801,
      "hid": 7802,
      "org": 7803,
      "marit": 7804,
      "borough": 7805,
      "vessels": 7806,
      "invited": 7807,
      "babylon": 7808,
      "caribbean": 7809,
      "adi": 7810,
      "permitted": 7811,
      "disk": 7812,
      "enses": 7813,
      "ogen": 7814,
      "assu": 7815,
      "definitions": 7816,
      "fs": 7817,
      "iet": 7818,
      "send": 7819,
      "vas": 7820,
      "orous": 7821,
      "logy": 7822,
      "referring": 7823,
      "naturally": 7824,
      "legislature": 7825,
      "proport": 7826,
      "avian": 7827,
      "consul": 7828,
      "milk": 7829,
      "secular": 7830,
      "sacri": 7831,
      "innov": 7832,
      "consumer": 7833,
      "sydney": 7834,
      "62": 7835,
      "elabor": 7836,
      "inhib": 7837,
      "disorder": 7838,
      "denied": 7839,
      "neighborhood": 7840,
      "merely": 7841,
      "rection": 7842,
      "gospe": 7843,
      "synd": 7844,
      "conservation": 7845,
      "suspe": 7846,
      "ongoing": 7847,
      "array": 7848,
      "makers": 7849,
      "fault": 7850,
      "seventh": 7851,
      "journey": 7852,
      "promised": 7853,
      "newspapers": 7854,
      "elder": 7855,
      "statistical": 7856,
      "kennedy": 7857,
      "ois": 7858,
      "funer": 7859,
      "damaged": 7860,
      "psycho": 7861,
      "oriented": 7862,
      "replacement": 7863,
      "enjoyed": 7864,
      "hierarch": 7865,
      "adjacent": 7866,
      "gab": 7867,
      "vard": 7868,
      "edia": 7869,
      "resign": 7870,
      "constantin": 7871,
      "visitors": 7872,
      "procedure": 7873,
      "ng": 7874,
      "ares": 7875,
      "ptions": 7876,
      "1953": 7877,
      "distinctive": 7878,
      "initiated": 7879,
      "anthropol": 7880,
      "vacuum": 7881,
      "kon": 7882,
      "kim": 7883,
      "ori": 7884,
      "verb": 7885,
      "resur": 7886,
      "160": 7887,
      "romania": 7888,
      "counties": 7889,
      "necessarily": 7890,
      "thinking": 7891,
      "sylla": 7892,
      "apparently": 7893,
      "5th": 7894,
      "bly": 7895,
      "jum": 7896,
      "reject": 7897,
      "fewer": 7898,
      "keys": 7899,
      "simon": 7900,
      "scat": 7901,
      "liberation": 7902,
      "democrats": 7903,
      "54": 7904,
      "kick": 7905,
      "tts": 7906,
      "coin": 7907,
      "cope": 7908,
      "marines": 7909,
      "swiss": 7910,
      "movies": 7911,
      "xx": 7912,
      "persu": 7913,
      "wels": 7914,
      "lords": 7915,
      "gm": 7916,
      "hors": 7917,
      "xon": 7918,
      "enic": 7919,
      "edict": 7920,
      "regul": 7921,
      "survive": 7922,
      "rotation": 7923,
      "relief": 7924,
      "benefits": 7925,
      "streets": 7926,
      "pist": 7927,
      "monitor": 7928,
      "measurement": 7929,
      "guinea": 7930,
      "stig": 7931,
      "escap": 7932,
      "select": 7933,
      "maced": 7934,
      "phic": 7935,
      "rolling": 7936,
      "ighted": 7937,
      "prev": 7938,
      "discover": 7939,
      "finnish": 7940,
      "transit": 7941,
      "gly": 7942,
      "shield": 7943,
      "shado": 7944,
      "pace": 7945,
      "fles": 7946,
      "ote": 7947,
      "pagan": 7948,
      "wy": 7949,
      "pling": 7950,
      "membr": 7951,
      "anna": 7952,
      "14th": 7953,
      "senator": 7954,
      "recognised": 7955,
      "georgia": 7956,
      "emergency": 7957,
      "darwin": 7958,
      "caval": 7959,
      "onian": 7960,
      "arctic": 7961,
      "ili": 7962,
      "unusual": 7963,
      "biology": 7964,
      "homes": 7965,
      "cotton": 7966,
      "etymology": 7967,
      "jam": 7968,
      "lian": 7969,
      "hoc": 7970,
      "lesser": 7971,
      "ukraine": 7972,
      "accum": 7973,
      "participate": 7974,
      "possession": 7975,
      "consequently": 7976,
      "opponents": 7977,
      "chen": 7978,
      "idge": 7979,
      "thermal": 7980,
      "achuse": 7981,
      "relevant": 7982,
      "1957": 7983,
      "1938": 7984,
      "massachuse": 7985,
      "sentence": 7986,
      "flex": 7987,
      "2000s": 7988,
      "bought": 7989,
      "lion": 7990,
      "ilton": 7991,
      "dium": 7992,
      "statements": 7993,
      "1952": 7994,
      "loyal": 7995,
      "secution": 7996,
      "threatened": 7997,
      "mongol": 7998,
      "massachusetts": 7999,
      "kam": 8000,
      "lt": 8001,
      "peas": 8002,
      "profession": 8003,
      "nap": 8004,
      "raf": 8005,
      "exceed": 8006,
      "1919": 8007,
      "capit": 8008,
      "privi": 8009,
      "agreements": 8010,
      "festiv": 8011,
      "championships": 8012,
      "printing": 8013,
      "63": 8014,
      "prove": 8015,
      "sudan": 8016,
      "blocks": 8017,
      "cous": 8018,
      "beer": 8019,
      "artillery": 8020,
      "belg": 8021,
      "samuel": 8022,
      "scheduled": 8023,
      "itudes": 8024,
      "supports": 8025,
      "cass": 8026,
      "fis": 8027,
      "remember": 8028,
      "bears": 8029,
      "admitted": 8030,
      "dow": 8031,
      "ultra": 8032,
      "twin": 8033,
      "millenn": 8034,
      "scored": 8035,
      "nato": 8036,
      "engineer": 8037,
      "observation": 8038,
      "evolutionary": 8039,
      "aes": 8040,
      "recovery": 8041,
      "maur": 8042,
      "assign": 8043,
      "physi": 8044,
      "lifetime": 8045,
      "camera": 8046,
      "fighter": 8047,
      "walter": 8048,
      "portugal": 8049,
      "caesar": 8050,
      "adelph": 8051,
      "ani": 8052,
      "finance": 8053,
      "productions": 8054,
      "operator": 8055,
      "teacher": 8056,
      "mathematic": 8057,
      "conflicts": 8058,
      "suffering": 8059,
      "indonesia": 8060,
      "án": 8061,
      "altit": 8062,
      "regulations": 8063,
      "behaviour": 8064,
      "rooms": 8065,
      "commemor": 8066,
      "orange": 8067,
      "raise": 8068,
      "maria": 8069,
      "prede": 8070,
      "pyth": 8071,
      "earthqu": 8072,
      "trigger": 8073,
      "chro": 8074,
      "laure": 8075,
      "rium": 8076,
      "grass": 8077,
      "fron": 8078,
      "specialized": 8079,
      "meetings": 8080,
      "integral": 8081,
      "narrative": 8082,
      "registered": 8083,
      "nie": 8084,
      "ito": 8085,
      "imposed": 8086,
      "tering": 8087,
      "keyboard": 8088,
      "polynom": 8089,
      "enance": 8090,
      "chrom": 8091,
      "papers": 8092,
      "kaz": 8093,
      "girls": 8094,
      "dangerous": 8095,
      "6th": 8096,
      "bav": 8097,
      "iop": 8098,
      "mate": 8099,
      "coll": 8100,
      "johann": 8101,
      "seeing": 8102,
      "cambridge": 8103,
      "sudden": 8104,
      "polynomial": 8105,
      "isition": 8106,
      "creative": 8107,
      "variables": 8108,
      "voters": 8109,
      "engineers": 8110,
      "predecess": 8111,
      "ende": 8112,
      "mars": 8113,
      "descent": 8114,
      "1936": 8115,
      "electronics": 8116,
      "mineral": 8117,
      "tus": 8118,
      "2021": 8119,
      "cleve": 8120,
      "southwest": 8121,
      "nasa": 8122,
      "descendants": 8123,
      "semin": 8124,
      "desired": 8125,
      "trip": 8126,
      "magne": 8127,
      "inois": 8128,
      "participated": 8129,
      "slowly": 8130,
      "width": 8131,
      "imal": 8132,
      "igno": 8133,
      "dific": 8134,
      "syria": 8135,
      "horror": 8136,
      "supplies": 8137,
      "bility": 8138,
      "fined": 8139,
      "hamilton": 8140,
      "broadcasting": 8141,
      "austrian": 8142,
      "conquered": 8143,
      "81": 8144,
      "driver": 8145,
      "infect": 8146,
      "reception": 8147,
      "painter": 8148,
      "mines": 8149,
      "andrew": 8150,
      "stall": 8151,
      "ander": 8152,
      "spending": 8153,
      "directors": 8154,
      "lieuten": 8155,
      "jefferson": 8156,
      "dick": 8157,
      "tang": 8158,
      "recur": 8159,
      "ented": 8160,
      "eleven": 8161,
      "buff": 8162,
      "adoption": 8163,
      "easier": 8164,
      "discussion": 8165,
      "pand": 8166,
      "tells": 8167,
      "haust": 8168,
      "1933": 8169,
      "missou": 8170,
      "stores": 8171,
      "businesses": 8172,
      "simultaneously": 8173,
      "libert": 8174,
      "swim": 8175,
      "equipped": 8176,
      "pm": 8177,
      "acles": 8178,
      "dioxide": 8179,
      "aga": 8180,
      "phones": 8181,
      "artistic": 8182,
      "concentrated": 8183,
      "compreh": 8184,
      "dc": 8185,
      "uz": 8186,
      "reagan": 8187,
      "contrad": 8188,
      "perspective": 8189,
      "liby": 8190,
      "illinois": 8191,
      "faction": 8192,
      "variants": 8193,
      "maritime": 8194,
      "ank": 8195,
      "exhaust": 8196,
      "hob": 8197,
      "intervention": 8198,
      "specul": 8199,
      "thirty": 8200,
      "cellular": 8201,
      "axiom": 8202,
      "campaigns": 8203,
      "vertical": 8204,
      "jab": 8205,
      "infer": 8206,
      "invention": 8207,
      "exile": 8208,
      "intense": 8209,
      "harry": 8210,
      "1937": 8211,
      "hosts": 8212,
      "laser": 8213,
      "targets": 8214,
      "ecol": 8215,
      "chile": 8216,
      "flash": 8217,
      "appearances": 8218,
      "iranian": 8219,
      "wes": 8220,
      "ardi": 8221,
      "wider": 8222,
      "vienna": 8223,
      "studios": 8224,
      "sensitive": 8225,
      "dimensions": 8226,
      "cleveland": 8227,
      "iny": 8228,
      "norman": 8229,
      "controls": 8230,
      "drag": 8231,
      "receiver": 8232,
      "teachings": 8233,
      "disputed": 8234,
      "sri": 8235,
      "lyrics": 8236,
      "adults": 8237,
      "playoff": 8238,
      "ultimate": 8239,
      "anyone": 8240,
      "documented": 8241,
      "maintaining": 8242,
      "uck": 8243,
      "wright": 8244,
      "consecut": 8245,
      "melo": 8246,
      "gravit": 8247,
      "offering": 8248,
      "learn": 8249,
      "planets": 8250,
      "athens": 8251,
      "explanation": 8252,
      "hans": 8253,
      "hired": 8254,
      "stick": 8255,
      "shooting": 8256,
      "clay": 8257,
      "cognitive": 8258,
      "persist": 8259,
      "excell": 8260,
      "1954": 8261,
      "childhood": 8262,
      "compete": 8263,
      "regardless": 8264,
      "shares": 8265,
      "painted": 8266,
      "monarchy": 8267,
      "dramatic": 8268,
      "orth": 8269,
      "itz": 8270,
      "venez": 8271,
      "singapo": 8272,
      "exercise": 8273,
      "precipit": 8274,
      "carolina": 8275,
      "constantinople": 8276,
      "250": 8277,
      "97": 8278,
      "gib": 8279,
      "pine": 8280,
      "transformation": 8281,
      "referend": 8282,
      "12th": 8283,
      "independently": 8284,
      "conclusion": 8285,
      "linguistic": 8286,
      "florida": 8287,
      "arbitr": 8288,
      "inhabited": 8289,
      "61": 8290,
      "nint": 8291,
      "shah": 8292,
      "ptic": 8293,
      "producers": 8294,
      "joe": 8295,
      "archbishop": 8296,
      "organised": 8297,
      "starred": 8298,
      "readers": 8299,
      "corporate": 8300,
      "reportedly": 8301,
      "customs": 8302,
      "sacred": 8303,
      "piano": 8304,
      "pennsyl": 8305,
      "lum": 8306,
      "hein": 8307,
      "carn": 8308,
      "cash": 8309,
      "facing": 8310,
      "estimate": 8311,
      "olympics": 8312,
      "belgium": 8313,
      "neck": 8314,
      "ifications": 8315,
      "baltic": 8316,
      "landscape": 8317,
      "victims": 8318,
      "nintendo": 8319,
      "83": 8320,
      "sid": 8321,
      "itative": 8322,
      "chel": 8323,
      "termed": 8324,
      "1917": 8325,
      "blind": 8326,
      "curve": 8327,
      "rams": 8328,
      "reliable": 8329,
      "recommend": 8330,
      "saints": 8331,
      "chal": 8332,
      "wned": 8333,
      "daniel": 8334,
      "saxon": 8335,
      "lithuania": 8336,
      "gothic": 8337,
      "amateur": 8338,
      "missouri": 8339,
      "ré": 8340,
      "recovered": 8341,
      "plural": 8342,
      "decrease": 8343,
      "algorithms": 8344,
      "nings": 8345,
      "reich": 8346,
      "cooper": 8347,
      "attor": 8348,
      "epist": 8349,
      "courses": 8350,
      "missiles": 8351,
      "nik": 8352,
      "homo": 8353,
      "appointment": 8354,
      "hang": 8355,
      "tissue": 8356,
      "atus": 8357,
      "embar": 8358,
      "actress": 8359,
      "moreover": 8360,
      "consol": 8361,
      "gang": 8362,
      "solve": 8363,
      "dynamics": 8364,
      "prosper": 8365,
      "aven": 8366,
      "sier": 8367,
      "railroad": 8368,
      "reserves": 8369,
      "portrayed": 8370,
      "horses": 8371,
      "roger": 8372,
      "colleges": 8373,
      "afterwards": 8374,
      "regulation": 8375,
      "judges": 8376,
      "shorter": 8377,
      "allo": 8378,
      "moves": 8379,
      "promis": 8380,
      "pressing": 8381,
      "personality": 8382,
      "santa": 8383,
      "sharp": 8384,
      "arrangement": 8385,
      "nitrogen": 8386,
      "erup": 8387,
      "consequence": 8388,
      "cian": 8389,
      "boom": 8390,
      "iful": 8391,
      "overseas": 8392,
      "trials": 8393,
      "winner": 8394,
      "electromagnetic": 8395,
      "removal": 8396,
      "archaeological": 8397,
      "trend": 8398,
      "dir": 8399,
      "tum": 8400,
      "thered": 8401,
      "reconstruction": 8402,
      "arc": 8403,
      "wiki": 8404,
      "maint": 8405,
      "ressing": 8406,
      "steve": 8407,
      "handed": 8408,
      "fictional": 8409,
      "blow": 8410,
      "ht": 8411,
      "stabil": 8412,
      "sees": 8413,
      "marg": 8414,
      "elli": 8415,
      "lang": 8416,
      "coverage": 8417,
      "definite": 8418,
      "switch": 8419,
      "cataly": 8420,
      "cbs": 8421,
      "ür": 8422,
      "icks": 8423,
      "beam": 8424,
      "beta": 8425,
      "lace": 8426,
      "cision": 8427,
      "deemed": 8428,
      "lieutenant": 8429,
      "consecutive": 8430,
      "maintenance": 8431,
      "gand": 8432,
      "rows": 8433,
      "agencies": 8434,
      "publications": 8435,
      "getting": 8436,
      "strain": 8437,
      "promotion": 8438,
      "flows": 8439,
      "phenomena": 8440,
      "exclusively": 8441,
      "pennsylvania": 8442,
      "deliber": 8443,
      "authen": 8444,
      "displayed": 8445,
      "gery": 8446,
      "grey": 8447,
      "casual": 8448,
      "penet": 8449,
      "commerce": 8450,
      "brian": 8451,
      "injury": 8452,
      "napoleon": 8453,
      "pages": 8454,
      "replacing": 8455,
      "arose": 8456,
      "diameter": 8457,
      "1929": 8458,
      "sha": 8459,
      "ifies": 8460,
      "dense": 8461,
      "mississ": 8462,
      "franco": 8463,
      "ethiop": 8464,
      "expert": 8465,
      "storm": 8466,
      "kinds": 8467,
      "happened": 8468,
      "1000": 8469,
      "rim": 8470,
      "sap": 8471,
      "inf": 8472,
      "modific": 8473,
      "heter": 8474,
      "suicide": 8475,
      "assy": 8476,
      "interactions": 8477,
      "geno": 8478,
      "surrounded": 8479,
      "amongst": 8480,
      "demands": 8481,
      "happy": 8482,
      "detect": 8483,
      "sword": 8484,
      "forcing": 8485,
      "helm": 8486,
      "bones": 8487,
      "significance": 8488,
      "rulers": 8489,
      "objective": 8490,
      "situations": 8491,
      "competitive": 8492,
      "fossil": 8493,
      "ske": 8494,
      "tab": 8495,
      "itan": 8496,
      "farmers": 8497,
      "singapore": 8498,
      "nab": 8499,
      "vy": 8500,
      "moderate": 8501,
      "meso": 8502,
      "alien": 8503,
      "referendum": 8504,
      "hl": 8505,
      "oak": 8506,
      "resigned": 8507,
      "peru": 8508,
      "appearing": 8509,
      "weekly": 8510,
      "wealthy": 8511,
      "philosophers": 8512,
      "predominantly": 8513,
      "millennium": 8514,
      "atol": 8515,
      "bels": 8516,
      "ambass": 8517,
      "uru": 8518,
      "noise": 8519,
      "shir": 8520,
      "berke": 8521,
      "coron": 8522,
      "rent": 8523,
      "register": 8524,
      "radar": 8525,
      "philadelph": 8526,
      "falling": 8527,
      "villages": 8528,
      "genesis": 8529,
      "empty": 8530,
      "mississip": 8531,
      "alumin": 8532,
      "asi": 8533,
      "perception": 8534,
      "subur": 8535,
      "wake": 8536,
      "wavel": 8537,
      "houston": 8538,
      "driving": 8539,
      "autonomous": 8540,
      "manufacturers": 8541,
      "rugby": 8542,
      "illes": 8543,
      "finds": 8544,
      "vowel": 8545,
      "collections": 8546,
      "helic": 8547,
      "camps": 8548,
      "occasions": 8549,
      "sovereignty": 8550,
      "lebanon": 8551,
      "juni": 8552,
      "emig": 8553,
      "advice": 8554,
      "predicted": 8555,
      "explicitly": 8556,
      "shakespe": 8557,
      "waveleng": 8558,
      "cric": 8559,
      "inau": 8560,
      "leo": 8561,
      "ighters": 8562,
      "howard": 8563,
      "submarine": 8564,
      "grace": 8565,
      "defines": 8566,
      "ailand": 8567,
      "tibet": 8568,
      "difficulty": 8569,
      "difficulties": 8570,
      "delta": 8571,
      "sloven": 8572,
      "looked": 8573,
      "cavalry": 8574,
      "krit": 8575,
      "oro": 8576,
      "deli": 8577,
      "ette": 8578,
      "avo": 8579,
      "releases": 8580,
      "downtown": 8581,
      "horn": 8582,
      "consequences": 8583,
      "thailand": 8584,
      "meter": 8585,
      "conspir": 8586,
      "otle": 8587,
      "legally": 8588,
      "pierre": 8589,
      "3d": 8590,
      "vag": 8591,
      "dee": 8592,
      "ille": 8593,
      "verte": 8594,
      "flights": 8595,
      "lasting": 8596,
      "1930": 8597,
      "neutron": 8598,
      "hut": 8599,
      "ila": 8600,
      "imm": 8601,
      "plastic": 8602,
      "puer": 8603,
      "varied": 8604,
      "humanity": 8605,
      "protests": 8606,
      "9th": 8607,
      "sans": 8608,
      "nova": 8609,
      "corner": 8610,
      "pont": 8611,
      "troit": 8612,
      "culmin": 8613,
      "antiqu": 8614,
      "geometry": 8615,
      "vulner": 8616,
      "faculty": 8617,
      "pad": 8618,
      "rust": 8619,
      "static": 8620,
      "genus": 8621,
      "ensus": 8622,
      "capita": 8623,
      "equil": 8624,
      "restoration": 8625,
      "belt": 8626,
      "layers": 8627,
      "quantity": 8628,
      "powder": 8629,
      "membrane": 8630,
      "jon": 8631,
      "lus": 8632,
      "seal": 8633,
      "contr": 8634,
      "coo": 8635,
      "consensus": 8636,
      "statue": 8637,
      "susp": 8638,
      "measurements": 8639,
      "volumes": 8640,
      "diego": 8641,
      "franklin": 8642,
      "eighth": 8643,
      "vig": 8644,
      "throw": 8645,
      "detroit": 8646,
      "loop": 8647,
      "teleg": 8648,
      "clothing": 8649,
      "barbar": 8650,
      "drink": 8651,
      "kingdoms": 8652,
      "aristotle": 8653,
      "seemed": 8654,
      "advertising": 8655,
      "authentic": 8656,
      "700": 8657,
      "sau": 8658,
      "tied": 8659,
      "theor": 8660,
      "isations": 8661,
      "iti": 8662,
      "marry": 8663,
      "trium": 8664,
      "developments": 8665,
      "mike": 8666,
      "holes": 8667,
      "civilization": 8668,
      "contribution": 8669,
      "celtic": 8670,
      "abstract": 8671,
      "jama": 8672,
      "revers": 8673,
      "enh": 8674,
      "console": 8675,
      "resid": 8676,
      "portra": 8677,
      "flour": 8678,
      "aka": 8679,
      "indirect": 8680,
      "isotop": 8681,
      "errors": 8682,
      "intermediate": 8683,
      "shakespeare": 8684,
      "enthus": 8685,
      "adher": 8686,
      "brick": 8687,
      "highway": 8688,
      "potentially": 8689,
      "mutual": 8690,
      "provincial": 8691,
      "assault": 8692,
      "cm": 8693,
      "gap": 8694,
      "constell": 8695,
      "abroad": 8696,
      "essay": 8697,
      "elic": 8698,
      "monetary": 8699,
      "amps": 8700,
      "psed": 8701,
      "1940s": 8702,
      "pipe": 8703,
      "molecule": 8704,
      "premier": 8705,
      "aj": 8706,
      "tight": 8707,
      "tort": 8708,
      "1914": 8709,
      "worst": 8710,
      "joining": 8711,
      "ocene": 8712,
      "identification": 8713,
      "osis": 8714,
      "destination": 8715,
      "citing": 8716,
      "advant": 8717,
      "demanded": 8718,
      "symmet": 8719,
      "scr": 8720,
      "10th": 8721,
      "educated": 8722,
      "samples": 8723,
      "opponent": 8724,
      "philadelphia": 8725,
      "wers": 8726,
      "reverse": 8727,
      "acre": 8728,
      "porter": 8729,
      "stands": 8730,
      "funded": 8731,
      "98": 8732,
      "restri": 8733,
      "oul": 8734,
      "poison": 8735,
      "prey": 8736,
      "struck": 8737,
      "likewise": 8738,
      "biograph": 8739,
      "occurring": 8740,
      "manufactured": 8741,
      "minimal": 8742,
      "basketball": 8743,
      "72": 8744,
      "rear": 8745,
      "roof": 8746,
      "hispan": 8747,
      "besides": 8748,
      "pharma": 8749,
      "tomb": 8750,
      "adic": 8751,
      "maps": 8752,
      "maker": 8753,
      "aco": 8754,
      "trum": 8755,
      "governing": 8756,
      "1951": 8757,
      "rhine": 8758,
      "puerto": 8759,
      "cp": 8760,
      "dj": 8761,
      "lab": 8762,
      "aber": 8763,
      "vowels": 8764,
      "hybrid": 8765,
      "130": 8766,
      "wald": 8767,
      "resource": 8768,
      "momentum": 8769,
      "legitimate": 8770,
      "78": 8771,
      "orchest": 8772,
      "concrete": 8773,
      "evening": 8774,
      "formula_1": 8775,
      "returns": 8776,
      "bourg": 8777,
      "calculated": 8778,
      "collaboration": 8779,
      "taylor": 8780,
      "onaut": 8781,
      "sted": 8782,
      "completion": 8783,
      "sequences": 8784,
      "penalty": 8785,
      "ographer": 8786,
      "procedures": 8787,
      "clinical": 8788,
      "excav": 8789,
      "tran": 8790,
      "maintains": 8791,
      "stical": 8792,
      "arn": 8793,
      "lide": 8794,
      "meth": 8795,
      "trains": 8796,
      "millions": 8797,
      "assistant": 8798,
      "decreased": 8799,
      "inty": 8800,
      "turb": 8801,
      "grave": 8802,
      "1932": 8803,
      "bull": 8804,
      "configuration": 8805,
      "festivals": 8806,
      "orchestra": 8807,
      "scan": 8808,
      "vacc": 8809,
      "wich": 8810,
      "coins": 8811,
      "herself": 8812,
      "lined": 8813,
      "matches": 8814,
      "angles": 8815,
      "nucleus": 8816,
      "discipline": 8817,
      "funeral": 8818,
      "mississippi": 8819,
      "92": 8820,
      "fib": 8821,
      "mals": 8822,
      "plo": 8823,
      "phism": 8824,
      "abra": 8825,
      "elite": 8826,
      "operators": 8827,
      "romanian": 8828,
      "liberty": 8829,
      "virtually": 8830,
      "deployed": 8831,
      "93": 8832,
      "eing": 8833,
      "encompass": 8834,
      "compression": 8835,
      "sharing": 8836,
      "underlying": 8837,
      "clause": 8838,
      "mercur": 8839,
      "mechanisms": 8840,
      "initiative": 8841,
      "manuscript": 8842,
      "convinced": 8843,
      "oy": 8844,
      "infin": 8845,
      "itis": 8846,
      "unes": 8847,
      "governed": 8848,
      "requiring": 8849,
      "patient": 8850,
      "properly": 8851,
      "tourist": 8852,
      "chancell": 8853,
      "kor": 8854,
      "kip": 8855,
      "buy": 8856,
      "1934": 8857,
      "karl": 8858,
      "helicop": 8859,
      "iber": 8860,
      "uls": 8861,
      "permit": 8862,
      "parish": 8863,
      "cancell": 8864,
      "opportun": 8865,
      "punishment": 8866,
      "malaysia": 8867,
      "consolid": 8868,
      "beings": 8869,
      "quit": 8870,
      "clinton": 8871,
      "dublin": 8872,
      "dos": 8873,
      "airports": 8874,
      "praised": 8875,
      "greeks": 8876,
      "welsh": 8877,
      "circular": 8878,
      "clergy": 8879,
      "berkeley": 8880,
      "ahead": 8881,
      "usions": 8882,
      "ules": 8883,
      "nationalist": 8884,
      "singles": 8885,
      "integer": 8886,
      "studying": 8887,
      "revolt": 8888,
      "bulk": 8889,
      "automatic": 8890,
      "valuable": 8891,
      "fighters": 8892,
      "rna": 8893,
      "rol": 8894,
      "amino": 8895,
      "marsh": 8896,
      "tale": 8897,
      "empir": 8898,
      "broadway": 8899,
      "exhibition": 8900,
      "recordings": 8901,
      "mammals": 8902,
      "discrimination": 8903,
      "raising": 8904,
      "phony": 8905,
      "transmitted": 8906,
      "starring": 8907,
      "processors": 8908,
      "pheric": 8909,
      "aught": 8910,
      "speaker": 8911,
      "alexandria": 8912,
      "abolished": 8913,
      "mythology": 8914,
      "sweet": 8915,
      "jup": 8916,
      "eries": 8917,
      "aska": 8918,
      "thermo": 8919,
      "prevalent": 8920,
      "airlines": 8921,
      "milan": 8922,
      "singing": 8923,
      "rocks": 8924,
      "tasks": 8925,
      "exclusive": 8926,
      "7th": 8927,
      "rings": 8928,
      "teles": 8929,
      "apor": 8930,
      "carter": 8931,
      "hydr": 8932,
      "administered": 8933,
      "eccles": 8934,
      "inherited": 8935,
      "deposits": 8936,
      "database": 8937,
      "jing": 8938,
      "mits": 8939,
      "nbc": 8940,
      "oes": 8941,
      "inus": 8942,
      "behalf": 8943,
      "una": 8944,
      "phot": 8945,
      "stron": 8946,
      "disorders": 8947,
      "productive": 8948,
      "aki": 8949,
      "republicans": 8950,
      "dvd": 8951,
      "fet": 8952,
      "anto": 8953,
      "ammon": 8954,
      "unified": 8955,
      "brun": 8956,
      "ateral": 8957,
      "triple": 8958,
      "lified": 8959,
      "smooth": 8960,
      "bruce": 8961,
      "morocco": 8962,
      "ores": 8963,
      "wage": 8964,
      "devil": 8965,
      "loose": 8966,
      "notice": 8967,
      "rico": 8968,
      "collect": 8969,
      "remainder": 8970,
      "invaded": 8971,
      "messages": 8972,
      "enemies": 8973,
      "restrial": 8974,
      "mation": 8975,
      "tap": 8976,
      "enlight": 8977,
      "quate": 8978,
      "equally": 8979,
      "harrison": 8980,
      "automat": 8981,
      "psychiat": 8982,
      "plato": 8983,
      "refugees": 8984,
      "einstein": 8985,
      "equilib": 8986,
      "genet": 8987,
      "extend": 8988,
      "foods": 8989,
      "entering": 8990,
      "revised": 8991,
      "chess": 8992,
      "omes": 8993,
      "proclaimed": 8994,
      "peg": 8995,
      "rio": 8996,
      "ieth": 8997,
      "commercially": 8998,
      "bombing": 8999,
      "situated": 9000,
      "palestine": 9001,
      "infection": 9002,
      "plasma": 9003,
      "anglican": 9004,
      "hockey": 9005,
      "olics": 9006,
      "pep": 9007,
      "manual": 9008,
      "iang": 9009,
      "strand": 9010,
      "ache": 9011,
      "spons": 9012,
      "distant": 9013,
      "crops": 9014,
      "aviation": 9015,
      "sacram": 9016,
      "insurance": 9017,
      "finger": 9018,
      "unciation": 9019,
      "alum": 9020,
      "ican": 9021,
      "serial": 9022,
      "obvious": 9023,
      "handle": 9024,
      "civilians": 9025,
      "battal": 9026,
      "scientist": 9027,
      "silicon": 9028,
      "giants": 9029,
      "hatt": 9030,
      "wig": 9031,
      "enor": 9032,
      "antis": 9033,
      "centres": 9034,
      "warri": 9035,
      "instrumental": 9036,
      "divorce": 9037,
      "enhan": 9038,
      "immun": 9039,
      "reson": 9040,
      "vibr": 9041,
      "mini": 9042,
      "supplement": 9043,
      "shock": 9044,
      "venice": 9045,
      "metic": 9046,
      "burning": 9047,
      "bread": 9048,
      "extensively": 9049,
      "improvements": 9050,
      "inse": 9051,
      "jos": 9052,
      "cutting": 9053,
      "wedding": 9054,
      "accuracy": 9055,
      "complicated": 9056,
      "enforcement": 9057,
      "cran": 9058,
      "implic": 9059,
      "imported": 9060,
      "hex": 9061,
      "firms": 9062,
      "oked": 9063,
      "jane": 9064,
      "connecting": 9065,
      "synthes": 9066,
      "citizenship": 9067,
      "mercury": 9068,
      "jupiter": 9069,
      "knight": 9070,
      "zim": 9071,
      "sectors": 9072,
      "izer": 9073,
      "surve": 9074,
      "profile": 9075,
      "1935": 9076,
      "authorized": 9077,
      "catholics": 9078,
      "enterprise": 9079,
      "dimension": 9080,
      "repeatedly": 9081,
      "touchdown": 9082,
      "mortality": 9083,
      "84": 9084,
      "eros": 9085,
      "tea": 9086,
      "kov": 9087,
      "customers": 9088,
      "pronounced": 9089,
      "anthony": 9090,
      "navigation": 9091,
      "dubbed": 9092,
      "retail": 9093,
      "segment": 9094,
      "olf": 9095,
      "acou": 9096,
      "haus": 9097,
      "inspiration": 9098,
      "recognize": 9099,
      "orientation": 9100,
      "edited": 9101,
      "itary": 9102,
      "semic": 9103,
      "ulous": 9104,
      "170": 9105,
      "virus": 9106,
      "salv": 9107,
      "douglas": 9108,
      "confidence": 9109,
      "addressed": 9110,
      "thrust": 9111,
      "enabled": 9112,
      "attorney": 9113,
      "8th": 9114,
      "96": 9115,
      "ouse": 9116,
      "entity": 9117,
      "ride": 9118,
      "locally": 9119,
      "pollution": 9120,
      "aired": 9121,
      "mum": 9122,
      "rs": 9123,
      "tics": 9124,
      "moore": 9125,
      "emissions": 9126,
      "feld": 9127,
      "preach": 9128,
      "iceland": 9129,
      "trail": 9130,
      "tales": 9131,
      "ethics": 9132,
      "marketing": 9133,
      "participants": 9134,
      "requirement": 9135,
      "dictionary": 9136,
      "supplied": 9137,
      "cricket": 9138,
      "hart": 9139,
      "lav": 9140,
      "proven": 9141,
      "evangel": 9142,
      "namely": 9143,
      "benedict": 9144,
      "11th": 9145,
      "oxidation": 9146,
      "margaret": 9147,
      "entities": 9148,
      "ulum": 9149,
      "mentions": 9150,
      "considering": 9151,
      "acceptance": 9152,
      "caught": 9153,
      "kas": 9154,
      "ico": 9155,
      "prem": 9156,
      "pton": 9157,
      "animation": 9158,
      "martial": 9159,
      "equilibrium": 9160,
      "rep": 9161,
      "ento": 9162,
      "modu": 9163,
      "ume": 9164,
      "submitted": 9165,
      "bacter": 9166,
      "disputes": 9167,
      "fen": 9168,
      "ulus": 9169,
      "ulating": 9170,
      "abuse": 9171,
      "1922": 9172,
      "embra": 9173,
      "tram": 9174,
      "facts": 9175,
      "bias": 9176,
      "competing": 9177,
      "breeding": 9178,
      "vakia": 9179,
      "revel": 9180,
      "olas": 9181,
      "plains": 9182,
      "grain": 9183,
      "retirement": 9184,
      "altitude": 9185,
      "advantages": 9186,
      "qa": 9187,
      "ista": 9188,
      "mete": 9189,
      "marty": 9190,
      "dissolved": 9191,
      "indians": 9192,
      "equality": 9193,
      "fairly": 9194,
      "geographical": 9195,
      "orbital": 9196,
      "deputy": 9197,
      "acknowledged": 9198,
      "mund": 9199,
      "wic": 9200,
      "wins": 9201,
      "oscill": 9202,
      "surgery": 9203,
      "bourne": 9204,
      "indicating": 9205,
      "nonetheless": 9206,
      "fts": 9207,
      "alia": 9208,
      "whel": 9209,
      "poles": 9210,
      "cargo": 9211,
      "tribe": 9212,
      "lane": 9213,
      "certa": 9214,
      "miller": 9215,
      "realized": 9216,
      "adesh": 9217,
      "stayed": 9218,
      "ambig": 9219,
      "iments": 9220,
      "conta": 9221,
      "expon": 9222,
      "manchester": 9223,
      "shipping": 9224,
      "socialism": 9225,
      "crossing": 9226,
      "alternate": 9227,
      "isotopes": 9228,
      "aus": 9229,
      "cattle": 9230,
      "ipe": 9231,
      "til": 9232,
      "rela": 9233,
      "cium": 9234,
      "quot": 9235,
      "dogs": 9236,
      "cycles": 9237,
      "standardi": 9238,
      "emerging": 9239,
      "traveled": 9240,
      "knights": 9241,
      "aar": 9242,
      "wool": 9243,
      "arag": 9244,
      "deck": 9245,
      "hearing": 9246,
      "vio": 9247,
      "contribute": 9248,
      "warner": 9249,
      "backed": 9250,
      "handling": 9251,
      "minerals": 9252,
      "dwar": 9253,
      "stere": 9254,
      "tobac": 9255,
      "withdra": 9256,
      "wearing": 9257,
      "distances": 9258,
      "gray": 9259,
      "wooden": 9260,
      "feeling": 9261,
      "fm": 9262,
      "iner": 9263,
      "redi": 9264,
      "devoted": 9265,
      "proli": 9266,
      "nell": 9267,
      "emic": 9268,
      "systematic": 9269,
      "americas": 9270,
      "ordination": 9271,
      "client": 9272,
      "proportional": 9273,
      "contradict": 9274,
      "vian": 9275,
      "zes": 9276,
      "tony": 9277,
      "animated": 9278,
      "tension": 9279,
      "detail": 9280,
      "yugoslavia": 9281,
      "kazakh": 9282,
      "comprehensive": 9283,
      "remark": 9284,
      "tol": 9285,
      "ctu": 9286,
      "aneous": 9287,
      "elementary": 9288,
      "buddha": 9289,
      "stroke": 9290,
      "assassination": 9291,
      "correspondence": 9292,
      "aman": 9293,
      "verbs": 9294,
      "endors": 9295,
      "tennes": 9296,
      "sahar": 9297,
      "merchant": 9298,
      "panel": 9299,
      "bulgar": 9300,
      "gaining": 9301,
      "exceptions": 9302,
      "jury": 9303,
      "tis": 9304,
      "populated": 9305,
      "experts": 9306,
      "considerably": 9307,
      "detected": 9308,
      "exhibit": 9309,
      "],": 9310,
      "lights": 9311,
      "unions": 9312,
      "unsuccessful": 9313,
      "dial": 9314,
      "genres": 9315,
      "christo": 9316,
      "stronger": 9317,
      "actively": 9318,
      "adopt": 9319,
      "speeds": 9320,
      "dictator": 9321,
      "glaci": 9322,
      "gö": 9323,
      "lud": 9324,
      "sard": 9325,
      "confer": 9326,
      "gets": 9327,
      "odd": 9328,
      "filed": 9329,
      "tribute": 9330,
      "complement": 9331,
      "slavic": 9332,
      "implies": 9333,
      "argentina": 9334,
      "abraham": 9335,
      "imir": 9336,
      "whil": 9337,
      "loan": 9338,
      "prose": 9339,
      "lenin": 9340,
      "prohibited": 9341,
      "autonomy": 9342,
      "athe": 9343,
      "dil": 9344,
      "pend": 9345,
      "wre": 9346,
      "eda": 9347,
      "ingredi": 9348,
      "1911": 9349,
      "phan": 9350,
      "plates": 9351,
      "internationally": 9352,
      "thereafter": 9353,
      "ained": 9354,
      "substances": 9355,
      "generations": 9356,
      "ologically": 9357,
      "borrow": 9358,
      "numbered": 9359,
      "examination": 9360,
      "closure": 9361,
      "didn": 9362,
      "augustus": 9363,
      "synthetic": 9364,
      "quoted": 9365,
      "mirror": 9366,
      "comparative": 9367,
      "encourage": 9368,
      "composers": 9369,
      "galaxy": 9370,
      "nad": 9371,
      "spher": 9372,
      "sevent": 9373,
      "aftermath": 9374,
      "natives": 9375,
      "explains": 9376,
      "expanding": 9377,
      "sierra": 9378,
      "tennessee": 9379,
      "whilst": 9380,
      "mish": 9381,
      "xy": 9382,
      "andy": 9383,
      "dust": 9384,
      "criteria": 9385,
      "deeply": 9386,
      "challenged": 9387,
      "findings": 9388,
      "sanskrit": 9389,
      "withdrawal": 9390,
      "zar": 9391,
      "hai": 9392,
      "ruth": 9393,
      "ontario": 9394,
      "dismissed": 9395,
      "gospel": 9396,
      "zones": 9397,
      "informed": 9398,
      "idal": 9399,
      "1921": 9400,
      "onel": 9401,
      "landed": 9402,
      "counted": 9403,
      "facto": 9404,
      "torped": 9405,
      "wheat": 9406,
      "nixon": 9407,
      "rainfall": 9408,
      "manuscripts": 9409,
      "1924": 9410,
      "\"...": 9411,
      "calvin": 9412,
      "europeans": 9413,
      "lawrence": 9414,
      "russell": 9415,
      "friedrich": 9416,
      "pill": 9417,
      "alus": 9418,
      "orship": 9419,
      "lod": 9420,
      "sures": 9421,
      "monte": 9422,
      "aked": 9423,
      "capabilities": 9424,
      "everyone": 9425,
      "pitts": 9426,
      "niger": 9427,
      "patriarch": 9428,
      "eggs": 9429,
      "christopher": 9430,
      "kab": 9431,
      "displays": 9432,
      "visiting": 9433,
      "robinson": 9434,
      "dishes": 9435,
      "enzymes": 9436,
      "bb": 9437,
      "flower": 9438,
      "hz": 9439,
      "oath": 9440,
      "enable": 9441,
      "1923": 9442,
      "berry": 9443,
      "crossed": 9444,
      "exploration": 9445,
      "relativity": 9446,
      "coffee": 9447,
      "sending": 9448,
      "ora": 9449,
      "mack": 9450,
      "coined": 9451,
      "regiment": 9452,
      "olds": 9453,
      "singular": 9454,
      "devast": 9455,
      "satan": 9456,
      "catch": 9457,
      "teachers": 9458,
      "dum": 9459,
      "iest": 9460,
      "ceased": 9461,
      "telling": 9462,
      "1925": 9463,
      "boot": 9464,
      "norse": 9465,
      "succeed": 9466,
      "differential": 9467,
      "princess": 9468,
      "boards": 9469,
      "assets": 9470,
      "museums": 9471,
      "prevented": 9472,
      "preserve": 9473,
      "routine": 9474,
      "assembled": 9475,
      "aside": 9476,
      "forum": 9477,
      "accent": 9478,
      "doors": 9479,
      "respond": 9480,
      "frequencies": 9481,
      "baptist": 9482,
      "71": 9483,
      "gates": 9484,
      "gren": 9485,
      "hull": 9486,
      "jamin": 9487,
      "pound": 9488,
      "tends": 9489,
      "wore": 9490,
      "inum": 9491,
      "rie": 9492,
      "earl": 9493,
      "drivers": 9494,
      "confess": 9495,
      "resolved": 9496,
      "hoped": 9497,
      "geographic": 9498,
      "82": 9499,
      "mul": 9500,
      "seized": 9501,
      "tetra": 9502,
      "weigh": 9503,
      "sovie": 9504,
      "duchy": 9505,
      "opol": 9506,
      "meters": 9507,
      "thanks": 9508,
      "receives": 9509,
      "autum": 9510,
      "promoting": 9511,
      "crucial": 9512,
      "attempting": 9513,
      "conventions": 9514,
      "rhythm": 9515,
      "ique": 9516,
      "kash": 9517,
      "edi": 9518,
      "igible": 9519,
      "rah": 9520,
      "bots": 9521,
      "uding": 9522,
      "chants": 9523,
      "burial": 9524,
      "cros": 9525,
      "breath": 9526,
      "globe": 9527,
      "ridge": 9528,
      "tobacco": 9529,
      "hits": 9530,
      "rely": 9531,
      "rous": 9532,
      "chand": 9533,
      "centered": 9534,
      "guy": 9535,
      "tribal": 9536,
      "legs": 9537,
      "politically": 9538,
      "organisations": 9539,
      "periodic": 9540,
      "planes": 9541,
      "placement": 9542,
      "telecommunications": 9543,
      "masses": 9544,
      "benjamin": 9545,
      "academ": 9546,
      "annex": 9547,
      "valued": 9548,
      "gravitational": 9549,
      "soviets": 9550,
      "orche": 9551,
      "tou": 9552,
      "transformed": 9553,
      "brook": 9554,
      "1931": 9555,
      "chell": 9556,
      "shifted": 9557,
      "tables": 9558,
      "vatic": 9559,
      "altar": 9560,
      "clash": 9561,
      "observer": 9562,
      "harvest": 9563,
      "barrel": 9564,
      "dimin": 9565,
[...]
