{
  "version": "1.0",
  "truncation": null,
  "padding": null,
  "added_tokens": [
    {
      "id": 0,
      "content": "<pad>",
      "single_word": false,
      "lstrip": false,
      "rstrip": false,
      "normalized": false,
      "special": true
    },
    {
      "id": 1,
      "content": "<s>",
      "single_word": false,
      "lstrip": false,
      "rstrip": false,
      "normalized": false,
      "special": true
    },
    {
      "id": 2,
      "content": "</s>",
      "single_word": false,
      "lstrip": false,
      "rstrip": false,
      "normalized": false,
      "special": true
    },
    {
      "id": 3,
      "content": "<unk>",
      "single_word": false,
      "lstrip": false,
      "rstrip": false,
      "normalized": false,
      "special": true
    },
    {
      "id": 4,
      "content": "<mask>",
      "single_word": false,
      "lstrip": false,
      "rstrip": false,
      "normalized": false,
      "special": true
    },
    {
      "id": 5,
      "content": "<sep>",
      "single_word": false,
      "lstrip": false,
      "rstrip": false,
      "normalized": false,
      "special": true
    }
  ],
  "normalizer": {
    "type": "NFKC"
  },
  "pre_tokenizer": {
    "type": "Whitespace"
  },
  "post_processor": null,
  "decoder": null,
  "model": {
    "type": "BPE",
    "dropout": null,
    "unk_token": null,
    "continuing_subword_prefix": null,
    "end_of_word_suffix": null,
    "fuse_unk": false,
    "byte_fallback": false,
    "ignore_merges": false,
    "vocab": {
      "<pad>": 0,
      "<s>": 1,
      "</s>": 2,
      "<unk>": 3,
      "<mask>": 4,
      "<sep>": 5,
      "!": 6,
      "\"": 7,
      "$": 8,
      "%": 9,
      "&": 10,
      "'": 11,
      "(": 12,
      ")": 13,
      "*": 14,
      "+": 15,
      ",": 16,
      "-": 17,
      ".": 18,
      "/": 19,
      "1": 20,
      "2": 21,
      "3": 22,
      "4": 23,
      "5": 24,
      "6": 25,
      "7": 26,
      "8": 27,
      "9": 28,
      ":": 29,
      ";": 30,
      "=": 31,
      "?": 32,
      "[": 33,
      "]": 34,
      "^": 35,
      "_": 36,
      "a": 37,
      "b": 38,
      "c": 39,
      "d": 40,
      "e": 41,
      "f": 42,
      "g": 43,
      "h": 44,
      "i": 45,
      "j": 46,
      "k": 47,
      "l": 48,
      "m": 49,
      "n": 50,
      "o": 51,
      "p": 52,
      "q": 53,
      "r": 54,
      "s": 55,
      "t": 56,
      "u": 57,
      "v": 58,
      "w": 59,
      "x": 60,
      "y": 61,
      "z": 62,
      "°": 63,
      "à": 64,
      "á": 65,
      "è": 66,
      "é": 67,
      "í": 68,
      "ñ": 69,
      "ó": 70,
      "ö": 71,
      "ü": 72,
      "ɘ": 73,
      "ə": 74,
      "ɛ": 75,
      "ɪ": 76,
      "ʌ": 77,
      "“": 78,
      "”": 79,
      "⁎": 80,
      "→": 81,
      "↗": 82,
      "↫": 83,
      "∆": 84,
      "∇": 85,
      "∙": 86,
      "⌈": 87,
      "⌉": 88,
      "⌊": 89,
      "⌋": 90,
      "▔": 91,
      "☺": 92,
      "th": 93,
      "ou": 94,
      "you": 95,
      "the": 96,
      "at": 97,
      "re": 98,
      "in": 99,
      "an": 100,
      "it": 101,
      "on": 102,
      "he": 103,
      "is": 104,
      "ll": 105,
      "wh": 106,
      "ing": 107,
      "no": 108,
      "that": 109,
      "to": 110,
      "do": 111,
      "me": 112,
      "se": 113,
      "ve": 114,
      "we": 115,
      "go": 116,
      "ay": 117,
      "what": 118,
      "and": 119,
      "le": 120,
      "ha": 121,
      "ok": 122,
      "or": 123,
      "st": 124,
      "ke": 125,
      "be": 126,
      "ar": 127,
      "es": 128,
      "oh": 129,
      "ig": 130,
      "lo": 131,
      "er": 132,
      "id": 133,
      "..": 134,
      "xx": 135,
      "ut": 136,
      "as": 137,
      "here": 138,
      "so": 139,
      "one": 140,
      "there": 141,
      "ht": 142,
      "now": 143,
      "are": 144,
      "li": 145,
      "all": 146,
      "ye": 147,
      "can": 148,
      "ic": 149,
      "your": 150,
      "ight": 151,
      "this": 152,
      "na": 153,
      "co": 154,
      "ho": 155,
      "en": 156,
      "of": 157,
      "ah": 158,
      "ge": 159,
      "don": 160,
      "ad": 161,
      "ta": 162,
      "ld": 163,
      "wan": 164,
      "ro": 165,
      "wi": 166,
      "like": 167,
      "ry": 168,
      "have": 169,
      "bo": 170,
      "okay": 171,
      "ir": 172,
      "look": 173,
      "right": 174,
      "yeah": 175,
      "ed": 176,
      "um": 177,
      "ba": 178,
      "did": 179,
      "out": 180,
      "my": 181,
      "ck": 182,
      "they": 183,
      "ch": 184,
      "she": 185,
      "up": 186,
      "ink": 187,
      "mo": 188,
      "see": 189,
      "...": 190,
      "some": 191,
      "put": 192,
      "for": 193,
      "xxx": 194,
      "get": 195,
      "not": 196,
      "know": 197,
      "ma": 198,
      "with": 199,
      "uh": 200,
      "ra": 201,
      "od": 202,
      "got": 203,
      "was": 204,
      "think": 205,
      "ca": 206,
      "where": 207,
      "ne": 208,
      "well": 209,
      "ju": 210,
      "un": 211,
      "pl": 212,
      "hm": 213,
      "ould": 214,
      "al": 215,
      "te": 216,
      "thing": 217,
      "good": 218,
      "want": 219,
      "ie": 220,
      "yes": 221,
      "use": 222,
      "ther": 223,
      "itt": 224,
      "come": 225,
      "then": 226,
      "let": 227,
      "gon": 228,
      "does": 229,
      "just": 230,
      "if": 231,
      "who": 232,
      "po": 233,
      "gonna": 234,
      "pe": 235,
      "how": 236,
      "ur": 237,
      "ly": 238,
      "ver": 239,
      "but": 240,
      "going": 241,
      "ter": 242,
      "wn": 243,
      "say": 244,
      "ti": 245,
      "litt": 246,
      "little": 247,
      "wanna": 248,
      "sh": 249,
      "very": 250,
      "sa": 251,
      "her": 252,
      "wo": 253,
      "play": 254,
      "dy": 255,
      "them": 256,
      "cause": 257,
      "whe": 258,
      "ice": 259,
      "ab": 260,
      "pp": 261,
      "by": 262,
      "hi": 263,
      "day": 264,
      "ce": 265,
      "any": 266,
      "down": 267,
      "tho": 268,
      "el": 269,
      "mhm": 270,
      "ind": 271,
      "oun": 272,
      "other": 273,
      "fe": 274,
      "way": 275,
      "when": 276,
      "ri": 277,
      "about": 278,
      "car": 279,
      "huh": 280,
      "oug": 281,
      "more": 282,
      "op": 283,
      "back": 284,
      "big": 285,
      "eat": 286,
      "ick": 287,
      "tell": 288,
      "read": 289,
      "la": 290,
      "baby": 291,
      "make": 292,
      "ally": 293,
      "nt": 294,
      "dad": 295,
      "ide": 296,
      "his": 297,
      "isn": 298,
      "him": 299,
      "ga": 300,
      "pa": 301,
      "ep": 302,
      "ww": 303,
      "ound": 304,
      "bit": 305,
      "why": 306,
      "too": 307,
      "sha": 308,
      "would": 309,
      "bu": 310,
      "over": 311,
      "than": 312,
      "ber": 313,
      "ummy": 314,
      "take": 315,
      "ty": 316,
      "doing": 317,
      "didn": 318,
      "time": 319,
      "ill": 320,
      "fo": 321,
      "off": 322,
      "ive": 323,
      "two": 324,
      "lea": 325,
      "ts": 326,
      "ine": 327,
      "ure": 328,
      "qu": 329,
      "these": 330,
      "nice": 331,
      "fa": 332,
      "because": 333,
      "che": 334,
      "fta": 335,
      "hafta": 336,
      "were": 337,
      "wat": 338,
      "br": 339,
      "daddy": 340,
      "mom": 341,
      "de": 342,
      "mas": 343,
      "mu": 344,
      "ss": 345,
      "need": 346,
      "ough": 347,
      "our": 348,
      "mummy": 349,
      "sto": 350,
      "il": 351,
      "those": 352,
      "has": 353,
      "else": 354,
      "book": 355,
      "mm": 356,
      "am": 357,
      "par": 358,
      "thank": 359,
      "ong": 360,
      "ble": 361,
      "man": 362,
      "uck": 363,
      "king": 364,
      "ouse": 365,
      "pu": 366,
      "could": 367,
      "pre": 368,
      "had": 369,
      "boy": 370,
      "ree": 371,
      "really": 372,
      "gir": 373,
      "will": 374,
      "red": 375,
      "wor": 376,
      "ite": 377,
      "doesn": 378,
      "cho": 379,
      "happ": 380,
      "fro": 381,
      "col": 382,
      "llo": 383,
      "aga": 384,
      "again": 385,
      "per": 386,
      "hair": 387,
      "wa": 388,
      "girl": 389,
      "sit": 390,
      "shall": 391,
      "ting": 392,
      "side": 393,
      "something": 394,
      "der": 395,
      "alright": 396,
      "mommy": 397,
      "wee": 398,
      "ten": 399,
      "tur": 400,
      "said": 401,
      "ol": 402,
      "gr": 403,
      "give": 404,
      "sho": 405,
      "gre": 406,
      "cle": 407,
      "cat": 408,
      "thomas": 409,
      "ul": 410,
      "ny": 411,
      "tra": 412,
      "house": 413,
      "bet": 414,
      "another": 415,
      "try": 416,
      "lease": 417,
      "please": 418,
      "done": 419,
      "ate": 420,
      "ue": 421,
      "ball": 422,
      "clo": 423,
      "tr": 424,
      "may": 425,
      "us": 426,
      "name": 427,
      "from": 428,
      "color": 429,
      "call": 430,
      "turn": 431,
      "should": 432,
      "row": 433,
      "om": 434,
      "ug": 435,
      "hand": 436,
      "www": 437,
      "went": 438,
      "ven": 439,
      "ys": 440,
      "things": 441,
      "chi": 442,
      "happen": 443,
      "mber": 444,
      "ris": 445,
      "won": 446,
      "ish": 447,
      "ready": 448,
      "ich": 449,
      "ac": 450,
      "reme": 451,
      "bl": 452,
      "pic": 453,
      "gu": 454,
      "hel": 455,
      "irst": 456,
      "head": 457,
      "sta": 458,
      "today": 459,
      "goes": 460,
      "min": 461,
      "love": 462,
      "bed": 463,
      "dog": 464,
      "aren": 465,
      "remember": 466,
      "bir": 467,
      "ard": 468,
      "ph": 469,
      "maybe": 470,
      "ies": 471,
      "tal": 472,
      "hey": 473,
      "kind": 474,
      "three": 475,
      "looks": 476,
      "find": 477,
      "zz": 478,
      "fun": 479,
      "first": 480,
      "ving": 481,
      "mean": 482,
      "away": 483,
      "ang": 484,
      "every": 485,
      "help": 486,
      "ling": 487,
      "fi": 488,
      "dar": 489,
      "af": 490,
      "room": 491,
      "home": 492,
      "ump": 493,
      "sp": 494,
      "orn": 495,
      "com": 496,
      "art": 497,
      "ought": 498,
      "end": 499,
      "watch": 500,
      "flo": 501,
      "body": 502,
      "fin": 503,
      "sor": 504,
      "jo": 505,
      "leep": 506,
      "water": 507,
      "lf": 508,
      "ture": 509,
      "gone": 510,
      "box": 511,
      "better": 512,
      "ser": 513,
      "em": 514,
      "wait": 515,
      "mon": 516,
      "pie": 517,
      "care": 518,
      "ste": 519,
      "which": 520,
      "picture": 521,
      "spo": 522,
      "rea": 523,
      "uhhuh": 524,
      "ess": 525,
      "been": 526,
      "open": 527,
      "ele": 528,
      "raw": 529,
      "show": 530,
      "much": 531,
      "ff": 532,
      "sure": 533,
      "ster": 534,
      "pro": 535,
      "dr": 536,
      "iss": 537,
      "haven": 538,
      "ange": 539,
      "says": 540,
      "minut": 541,
      "blue": 542,
      "gotta": 543,
      "bye": 544,
      "scho": 545,
      "school": 546,
      "hold": 547,
      "sleep": 548,
      "ile": 549,
      "mar": 550,
      "lot": 551,
      "wr": 552,
      "wer": 553,
      "night": 554,
      "xt": 555,
      "icke": 556,
      "darling": 557,
      "har": 558,
      "anything": 559,
      "called": 560,
      "next": 561,
      "tty": 562,
      "mat": 563,
      "cup": 564,
      "might": 565,
      "green": 566,
      "arm": 567,
      "ex": 568,
      "hello": 569,
      "hor": 570,
      "dear": 571,
      "ps": 572,
      "into": 573,
      "chair": 574,
      "work": 575,
      "bear": 576,
      "wow": 577,
      "mal": 578,
      "ful": 579,
      "ru": 580,
      "tu": 581,
      "lly": 582,
      "len": 583,
      "long": 584,
      "cook": 585,
      "train": 586,
      "ops": 587,
      "ople": 588,
      "people": 589,
      "ion": 590,
      "still": 591,
      "drink": 592,
      "table": 593,
      "fra": 594,
      "hur": 595,
      "cre": 596,
      "fall": 597,
      "ket": 598,
      "grand": 599,
      "ani": 600,
      "mad": 601,
      "four": 602,
      "round": 603,
      "ya": 604,
      "new": 605,
      "after": 606,
      "gg": 607,
      "fore": 608,
      "happened": 609,
      "door": 610,
      "keep": 611,
      "fraser": 612,
      "story": 613,
      "les": 614,
      "animal": 615,
      "toys": 616,
      "pretty": 617,
      "ft": 618,
      "ers": 619,
      "si": 620,
      "llow": 621,
      "hear": 622,
      "bro": 623,
      "food": 624,
      "around": 625,
      "last": 626,
      "ant": 627,
      "ones": 628,
      "brea": 629,
      "mil": 630,
      "hed": 631,
      "under": 632,
      "oney": 633,
      "only": 634,
      "top": 635,
      "stu": 636,
      ".\"": 637,
      "dri": 638,
      "bab": 639,
      "cut": 640,
      "fee": 641,
      "ise": 642,
      "din": 643,
      "mou": 644,
      "playing": 645,
      "ot": 646,
      "pick": 647,
      "cr": 648,
      "before": 649,
      "illy": 650,
      "stand": 651,
      "coming": 652,
      "da": 653,
      "many": 654,
      "minute": 655,
      "rough": 656,
      "con": 657,
      "mi": 658,
      "five": 659,
      "came": 660,
      "bot": 661,
      "ton": 662,
      "sing": 663,
      "funny": 664,
      "tea": 665,
      "talk": 666,
      "tom": 667,
      "ked": 668,
      "fri": 669,
      "tor": 670,
      "getting": 671,
      "wal": 672,
      "saw": 673,
      "self": 674,
      "blo": 675,
      "pig": 676,
      "milk": 677,
      "hat": 678,
      "mouth": 679,
      "break": 680,
      "yellow": 681,
      "thought": 682,
      "wasn": 683,
      "fire": 684,
      "cake": 685,
      "boo": 686,
      "leave": 687,
      "throw": 688,
      "oo": 689,
      "through": 690,
      "stay": 691,
      "ars": 692,
      "pen": 693,
      "lad": 694,
      "helen": 695,
      "pull": 696,
      "stop": 697,
      "win": 698,
      "though": 699,
      "dif": 700,
      "tle": 701,
      "stuff": 702,
      "sm": 703,
      "pur": 704,
      "swee": 705,
      "made": 706,
      "move": 707,
      "friend": 708,
      "chee": 709,
      "silly": 710,
      "draw": 711,
      "lots": 712,
      "their": 713,
      "ger": 714,
      "juice": 715,
      "looking": 716,
      "nose": 717,
      "start": 718,
      "bird": 719,
      "morn": 720,
      "hun": 721,
      "birth": 722,
      "bath": 723,
      "fr": 724,
      "key": 725,
      "lis": 726,
      "ted": 727,
      "dre": 728,
      "animals": 729,
      "sorry": 730,
      "bring": 731,
      "cow": 732,
      "birthday": 733,
      "hard": 734,
      "truck": 735,
      "morning": 736,
      "old": 737,
      "sed": 738,
      "di": 739,
      "bag": 740,
      "num": 741,
      "cks": 742,
      "ass": 743,
      "fere": 744,
      "ouch": 745,
      "stick": 746,
      "squ": 747,
      "careful": 748,
      "ow": 749,
      "horse": 750,
      "feel": 751,
      "fast": 752,
      "child": 753,
      "floor": 754,
      "differe": 755,
      "pardon": 756,
      "cream": 757,
      "irs": 758,
      "fish": 759,
      "app": 760,
      "duck": 761,
      "hurt": 762,
      "bus": 763,
      "sand": 764,
      "wash": 765,
      "push": 766,
      "outside": 767,
      "must": 768,
      "ever": 769,
      "rs": 770,
      "having": 771,
      "piece": 772,
      "phone": 773,
      "yet": 774,
      "never": 775,
      "toge": 776,
      "together": 777,
      "stairs": 778,
      "ring": 779,
      "hot": 780,
      "pi": 781,
      "pla": 782,
      "making": 783,
      "fit": 784,
      "ild": 785,
      "rising": 786,
      "run": 787,
      "hands": 788,
      "cu": 789,
      "build": 790,
      "orange": 791,
      "paper": 792,
      "light": 793,
      "ister": 794,
      "foot": 795,
      "jump": 796,
      "lat": 797,
      "tie": 798,
      "eating": 799,
      "gra": 800,
      "ple": 801,
      "chris": 802,
      "number": 803,
      "different": 804,
      "je": 805,
      "comes": 806,
      "clean": 807,
      "mer": 808,
      "ished": 809,
      "sound": 810,
      "ous": 811,
      "uhoh": 812,
      "real": 813,
      "egg": 814,
      "part": 815,
      "game": 816,
      "rest": 817,
      "wants": 818,
      "bea": 819,
      "fing": 820,
      "sun": 821,
      "wear": 822,
      "shoes": 823,
      "even": 824,
      "face": 825,
      "great": 826,
      "sna": 827,
      "mama": 828,
      "finished": 829,
      "same": 830,
      "six": 831,
      "ooh": 832,
      "ctor": 833,
      "igh": 834,
      "bar": 835,
      "enough": 836,
      "pot": 837,
      "ren": 838,
      "aw": 839,
      "eyes": 840,
      "tend": 841,
      "lovely": 842,
      "ross": 843,
      "plan": 844,
      "feet": 845,
      "bun": 846,
      "ci": 847,
      "vor": 848,
      "ja": 849,
      "probab": 850,
      "probably": 851,
      "ner": 852,
      "ky": 853,
      "su": 854,
      "actu": 855,
      "die": 856,
      "nine": 857,
      "while": 858,
      "roll": 859,
      "live": 860,
      "listen": 861,
      "saying": 862,
      "pped": 863,
      "ces": 864,
      "spoon": 865,
      "job": 866,
      "ught": 867,
      "pat": 868,
      "actually": 869,
      "pretend": 870,
      "leg": 871,
      "most": 872,
      "spe": 873,
      "cheese": 874,
      "times": 875,
      "doll": 876,
      "icken": 877,
      "ways": 878,
      "ash": 879,
      "chicken": 880,
      "happy": 881,
      "seen": 882,
      "miss": 883,
      "ent": 884,
      "ds": 885,
      "inside": 886,
      "noise": 887,
      "kitt": 888,
      "letter": 889,
      "ze": 890,
      "hung": 891,
      "walk": 892,
      "gl": 893,
      "itting": 894,
      "lady": 895,
      "cor": 896,
      "fly": 897,
      "favor": 898,
      "anor": 899,
      "eleanor": 900,
      "apple": 901,
      "cold": 902,
      "cl": 903,
      "im": 904,
      "books": 905,
      "oops": 906,
      "buy": 907,
      "flower": 908,
      "bad": 909,
      "set": 910,
      "tin": 911,
      "hungry": 912,
      "everything": 913,
      "quite": 914,
      "unch": 915,
      "page": 916,
      "butter": 917,
      "tree": 918,
      "found": 919,
      "guess": 920,
      "sup": 921,
      "pee": 922,
      "ask": 923,
      "ea": 924,
      "trying": 925,
      "ara": 926,
      "later": 927,
      "mb": 928,
      "gy": 929,
      "honey": 930,
      "fu": 931,
      "mum": 932,
      "dan": 933,
      "clever": 934,
      "mic": 935,
      "somebody": 936,
      "ins": 937,
      "int": 938,
      "rab": 939,
      "white": 940,
      "choo": 941,
      "bread": 942,
      "bla": 943,
      "favorite": 944,
      "ear": 945,
      "cry": 946,
      "pan": 947,
      "irt": 948,
      "talking": 949,
      "always": 950,
      "brok": 951,
      "tired": 952,
      "yourself": 953,
      "bow": 954,
      "irty": 955,
      "tig": 956,
      "kid": 957,
      "mine": 958,
      "bru": 959,
      "dinner": 960,
      "being": 961,
      "quick": 962,
      "touch": 963,
      "write": 964,
      "grandma": 965,
      "bb": 966,
      "lie": 967,
      "poor": 968,
      "teddy": 969,
      "fix": 970,
      "corn": 971,
      "jwww": 972,
      "matter": 973,
      "yours": 974,
      "tee": 975,
      "exc": 976,
      "needta": 977,
      "eleph": 978,
      "cli": 979,
      "pop": 980,
      "wing": 981,
      "likes": 982,
      "sitting": 983,
      "tape": 984,
      "itche": 985,
      "dd": 986,
      "close": 987,
      "putting": 988,
      "ee": 989,
      "dro": 990,
      "ons": 991,
      "kiss": 992,
      "dow": 993,
      "wonder": 994,
      "hasn": 995,
      "left": 996,
      "ct": 997,
      "fell": 998,
      "black": 999,
      "its": 1000,
      "rain": 1001,
      "christ": 1002,
      "ses": 1003,
      "small": 1004,
      "wouldn": 1005,
      "yester": 1006,
      "yesterday": 1007,
      "finish": 1008,
      "coun": 1009,
      "told": 1010,
      "whoops": 1011,
      "ka": 1012,
      "ana": 1013,
      "yep": 1014,
      "tick": 1015,
      "ina": 1016,
      "mess": 1017,
      "high": 1018,
      "week": 1019,
      "dis": 1020,
      "bob": 1021,
      "mind": 1022,
      "⌉.": 1023,
      "lid": 1024,
      "ment": 1025,
      "clothe": 1026,
      "party": 1027,
      "stuck": 1028,
      "pping": 1029,
      "rabbit": 1030,
      "air": 1031,
      "pink": 1032,
      "christmas": 1033,
      "ell": 1034,
      "toy": 1035,
      "ness": 1036,
      "seven": 1037,
      "orrow": 1038,
      "⌋.": 1039,
      "clothes": 1040,
      "wrong": 1041,
      "money": 1042,
      "wel": 1043,
      "joh": 1044,
      "eight": 1045,
      "bi": 1046,
      "breakfast": 1047,
      "ning": 1048,
      "post": 1049,
      "kitty": 1050,
      "spa": 1051,
      "tri": 1052,
      "'.": 1053,
      "place": 1054,
      "song": 1055,
      "kno": 1056,
      "lice": 1057,
      "plane": 1058,
      "window": 1059,
      "sandw": 1060,
      "took": 1061,
      "boat": 1062,
      "cir": 1063,
      "sometimes": 1064,
      "til": 1065,
      "swi": 1066,
      "str": 1067,
      "makes": 1068,
      "cy": 1069,
      "lunch": 1070,
      "catch": 1071,
      "clock": 1072,
      "goodness": 1073,
      "john": 1074,
      "sent": 1075,
      "nothing": 1076,
      "wanted": 1077,
      "pet": 1078,
      "already": 1079,
      "tomorrow": 1080,
      "son": 1081,
      "snow": 1082,
      "haha": 1083,
      "hind": 1084,
      "pes": 1085,
      "bunny": 1086,
      "wheel": 1087,
      "monkey": 1088,
      "brush": 1089,
      "behind": 1090,
      "purdie": 1091,
      "cket": 1092,
      "teeth": 1093,
      "cha": 1094,
      "ride": 1095,
      "bottle": 1096,
      "ban": 1097,
      "hah": 1098,
      "mother": 1099,
      "iding": 1100,
      "far": 1101,
      "kin": 1102,
      "near": 1103,
      "elephant": 1104,
      "dress": 1105,
      "pup": 1106,
      "idea": 1107,
      "men": 1108,
      "plate": 1109,
      "button": 1110,
      "chocol": 1111,
      "'?": 1112,
      "ans": 1113,
      "hang": 1114,
      "bin": 1115,
      "bble": 1116,
      "beaut": 1117,
      "cla": 1118,
      "pictures": 1119,
      "ip": 1120,
      "farm": 1121,
      "both": 1122,
      "brown": 1123,
      "cookie": 1124,
      "yum": 1125,
      "shirt": 1126,
      "ei": 1127,
      "able": 1128,
      "amy": 1129,
      "everybody": 1130,
      "tiger": 1131,
      "pieces": 1132,
      "couldn": 1133,
      "sister": 1134,
      "recor": 1135,
      "gie": 1136,
      "sposta": 1137,
      "kay": 1138,
      "naught": 1139,
      "sie": 1140,
      "star": 1141,
      "sort": 1142,
      "children": 1143,
      "naughty": 1144,
      "bee": 1145,
      "happens": 1146,
      "steven": 1147,
      "almost": 1148,
      "teen": 1149,
      "inte": 1150,
      "idge": 1151,
      "gine": 1152,
      "sau": 1153,
      "sheep": 1154,
      "bang": 1155,
      "gets": 1156,
      "chocolate": 1157,
      "interest": 1158,
      "guys": 1159,
      "beautif": 1160,
      "bite": 1161,
      "ward": 1162,
      "ation": 1163,
      "cra": 1164,
      "pizz": 1165,
      "ont": 1166,
      "whole": 1167,
      "pill": 1168,
      "pr": 1169,
      "secon": 1170,
      "doctor": 1171,
      "yay": 1172,
      "soon": 1173,
      "saur": 1174,
      "either": 1175,
      "carl": 1176,
      "frog": 1177,
      "shop": 1178,
      "puzz": 1179,
      "gi": 1180,
      "beautiful": 1181,
      "guy": 1182,
      "oup": 1183,
      "mouse": 1184,
      "park": 1185,
      "drive": 1186,
      "dry": 1187,
      "front": 1188,
      "change": 1189,
      "wed": 1190,
      "moo": 1191,
      "tre": 1192,
      "dirty": 1193,
      "pizza": 1194,
      "ast": 1195,
      "ries": 1196,
      "lara": 1197,
      "straw": 1198,
      "word": 1199,
      "cool": 1200,
      "wet": 1201,
      "bottom": 1202,
      "legs": 1203,
      "circle": 1204,
      "taking": 1205,
      "dino": 1206,
      "isy": 1207,
      "anymore": 1208,
      "own": 1209,
      "ellie": 1210,
      "py": 1211,
      "feed": 1212,
      "needs": 1213,
      "finger": 1214,
      "”.": 1215,
      "wood": 1216,
      "tail": 1217,
      "oke": 1218,
      "broken": 1219,
      "sandwich": 1220,
      "tele": 1221,
      "dinosaur": 1222,
      "du": 1223,
      "kinda": 1224,
      "kids": 1225,
      "nic": 1226,
      "ker": 1227,
      "ms": 1228,
      "gave": 1229,
      "board": 1230,
      "pper": 1231,
      "hen": 1232,
      "que": 1233,
      "boys": 1234,
      "brother": 1235,
      "cer": 1236,
      "babies": 1237,
      "colors": 1238,
      "lou": 1239,
      "flowers": 1240,
      "cars": 1241,
      "nur": 1242,
      "usu": 1243,
      "sounds": 1244,
      "aun": 1245,
      "gard": 1246,
      "kitche": 1247,
      "vis": 1248,
      "kitchen": 1249,
      "lla": 1250,
      "minutes": 1251,
      "hit": 1252,
      "lion": 1253,
      "friends": 1254,
      "few": 1255,
      "second": 1256,
      "garden": 1257,
      "fine": 1258,
      "lan": 1259,
      "age": 1260,
      "bas": 1261,
      "ballo": 1262,
      "sme": 1263,
      "nee": 1264,
      "...?": 1265,
      "ffee": 1266,
      "weren": 1267,
      "count": 1268,
      "nurse": 1269,
      "sl": 1270,
      "ort": 1271,
      "ugh": 1272,
      "doin": 1273,
      "?\"": 1274,
      "year": 1275,
      "ahhah": 1276,
      "upstairs": 1277,
      "eh": 1278,
      "ahead": 1279,
      "peas": 1280,
      "bur": 1281,
      "coffee": 1282,
      "ears": 1283,
      "fingers": 1284,
      "twent": 1285,
      "ato": 1286,
      "ges": 1287,
      "present": 1288,
      "yummy": 1289,
      "dolly": 1290,
      "ura": 1291,
      "nie": 1292,
      "uhuh": 1293,
      "ap": 1294,
      "ni": 1295,
      "twenty": 1296,
      "bowl": 1297,
      "engine": 1298,
      "snake": 1299,
      "lost": 1300,
      "bout": 1301,
      "half": 1302,
      "cro": 1303,
      "andy": 1304,
      "dra": 1305,
      "fl": 1306,
      "soft": 1307,
      "mus": 1308,
      "mark": 1309,
      "blow": 1310,
      "mag": 1311,
      "cray": 1312,
      "knock": 1313,
      "wall": 1314,
      "eas": 1315,
      "purple": 1316,
      "bra": 1317,
      "zoo": 1318,
      "iet": 1319,
      "goin": 1320,
      "bigger": 1321,
      "press": 1322,
      "police": 1323,
      "sat": 1324,
      "anna": 1325,
      "ssed": 1326,
      "excuse": 1327,
      "puzzle": 1328,
      "shoe": 1329,
      "potato": 1330,
      "bought": 1331,
      "cing": 1332,
      "eye": 1333,
      "until": 1334,
      "eggs": 1335,
      "toast": 1336,
      "best": 1337,
      "laura": 1338,
      "qua": 1339,
      "usually": 1340,
      "useta": 1341,
      "crying": 1342,
      "mis": 1343,
      "shake": 1344,
      "peeka": 1345,
      "cked": 1346,
      "ding": 1347,
      "cial": 1348,
      "hole": 1349,
      "whoa": 1350,
      "hug": 1351,
      "dle": 1352,
      "umb": 1353,
      "sc": 1354,
      "smell": 1355,
      "tain": 1356,
      "tion": 1357,
      "av": 1358,
      "somewhere": 1359,
      "moon": 1360,
      "mister": 1361,
      "strawber": 1362,
      "ween": 1363,
      "fla": 1364,
      "scare": 1365,
      "person": 1366,
      "fif": 1367,
      "driver": 1368,
      "quiet": 1369,
      "iting": 1370,
      "each": 1371,
      "stra": 1372,
      "stead": 1373,
      "sk": 1374,
      "shut": 1375,
      "tractor": 1376,
      "tickle": 1377,
      "vid": 1378,
      "sli": 1379,
      "hiding": 1380,
      "thy": 1381,
      "step": 1382,
      "blocks": 1383,
      "jig": 1384,
      "peekaboo": 1385,
      "tummy": 1386,
      "sleeping": 1387,
      "warm": 1388,
      "special": 1389,
      "sal": 1390,
      "land": 1391,
      "line": 1392,
      "once": 1393,
      "abe": 1394,
      "monster": 1395,
      "hes": 1396,
      "ald": 1397,
      "basket": 1398,
      "fru": 1399,
      "pants": 1400,
      "full": 1401,
      "byebye": 1402,
      "whose": 1403,
      "forgot": 1404,
      "icecream": 1405,
      "cky": 1406,
      "vo": 1407,
      "swimm": 1408,
      "quack": 1409,
      "teac": 1410,
      "cur": 1411,
      "nursery": 1412,
      "road": 1413,
      "mov": 1414,
      "means": 1415,
      "ank": 1416,
      "anyway": 1417,
      "pooh": 1418,
      "lle": 1419,
      "ham": 1420,
      "downstairs": 1421,
      "ben": 1422,
      "med": 1423,
      "card": 1424,
      "climb": 1425,
      "hope": 1426,
      "horsie": 1427,
      "gina": 1428,
      "bis": 1429,
      "wake": 1430,
      "doggie": 1431,
      "bike": 1432,
      "bump": 1433,
      "teacher": 1434,
      "jigsaw": 1435,
      "ale": 1436,
      "bat": 1437,
      "swimming": 1438,
      "et": 1439,
      "spid": 1440,
      "sco": 1441,
      "wipe": 1442,
      "nope": 1443,
      "socks": 1444,
      "mie": 1445,
      "heard": 1446,
      "low": 1447,
      "gen": 1448,
      "keys": 1449,
      "coat": 1450,
      "ator": 1451,
      "lear": 1452,
      "david": 1453,
      "paint": 1454,
      "brick": 1455,
      "mix": 1456,
      "grow": 1457,
      "hael": 1458,
      "tonight": 1459,
      "pain": 1460,
      "thin": 1461,
      "firstname": 1462,
      "store": 1463,
      "bri": 1464,
      "scar": 1465,
      "biscu": 1466,
      "jean": 1467,
      "wind": 1468,
      "adam": 1469,
      "sen": 1470,
      "zzz": 1471,
      "michael": 1472,
      "started": 1473,
      "anne": 1474,
      "nif": 1475,
      "letters": 1476,
      "peter": 1477,
      "ched": 1478,
      "boun": 1479,
      "ls": 1480,
      "cookies": 1481,
      "sweetie": 1482,
      "swing": 1483,
      "slide": 1484,
      "cou": 1485,
      "girls": 1486,
      "spl": 1487,
      "deli": 1488,
      "lor": 1489,
      "tower": 1490,
      "thanks": 1491,
      "ssy": 1492,
      "org": 1493,
      "brought": 1494,
      "mummie": 1495,
      "ucky": 1496,
      "carro": 1497,
      "sar": 1498,
      "taste": 1499,
      "bridge": 1500,
      "carry": 1501,
      "cater": 1502,
      "looked": 1503,
      "played": 1504,
      "watching": 1505,
      "running": 1506,
      "pt": 1507,
      "beep": 1508,
      "wards": 1509,
      "loud": 1510,
      "oop": 1511,
      "nearly": 1512,
      "ches": 1513,
      "sug": 1514,
      "caterpill": 1515,
      "tid": 1516,
      "sweethe": 1517,
      "bubble": 1518,
      "sweetheart": 1519,
      "toes": 1520,
      "nap": 1521,
      "tv": 1522,
      "donald": 1523,
      "shar": 1524,
      "nea": 1525,
      "telling": 1526,
      "sad": 1527,
      "tti": 1528,
      "lli": 1529,
      "nor": 1530,
      "fruit": 1531,
      "whis": 1532,
      "fami": 1533,
      "balloon": 1534,
      "busy": 1535,
      "mid": 1536,
      "hasta": 1537,
      "mach": 1538,
      "check": 1539,
      "micro": 1540,
      "tiny": 1541,
      "ping": 1542,
      "henry": 1543,
      "reading": 1544,
      "sy": 1545,
      "someone": 1546,
      "cute": 1547,
      "hide": 1548,
      "mr": 1549,
      "building": 1550,
      "wheels": 1551,
      "straight": 1552,
      "ary": 1553,
      "such": 1554,
      "pour": 1555,
      "sticke": 1556,
      "neck": 1557,
      "used": 1558,
      "sum": 1559,
      "along": 1560,
      "ence": 1561,
      "yo": 1562,
      "wearing": 1563,
      "anta": 1564,
      "ghe": 1565,
      "hadta": 1566,
      "sweet": 1567,
      "sur": 1568,
      "postman": 1569,
      "ere": 1570,
      "doggy": 1571,
      "sarah": 1572,
      "sausa": 1573,
      "washing": 1574,
      "dada": 1575,
      "walking": 1576,
      "kick": 1577,
      "ghetti": 1578,
      "giraf": 1579,
      "spider": 1580,
      "tall": 1581,
      "days": 1582,
      "words": 1583,
      "dressed": 1584,
      "mes": 1585,
      "ney": 1586,
      "ddle": 1587,
      "spaghetti": 1588,
      "fight": 1589,
      "caterpillar": 1590,
      "dig": 1591,
      "hum": 1592,
      "gosh": 1593,
      "ouble": 1594,
      "pean": 1595,
      "pump": 1596,
      "working": 1597,
      "singing": 1598,
      "grass": 1599,
      "cross": 1600,
      "shopping": 1601,
      "proper": 1602,
      "itch": 1603,
      "gro": 1604,
      "fat": 1605,
      "ates": 1606,
      "ties": 1607,
      "couple": 1608,
      "ks": 1609,
      "laugh": 1610,
      "peanut": 1611,
      "loves": 1612,
      "boom": 1613,
      "clap": 1614,
      "suppo": 1615,
      "music": 1616,
      "knows": 1617,
      "arms": 1618,
      "banana": 1619,
      "recorder": 1620,
      "ki": 1621,
      "bathroom": 1622,
      "mrs": 1623,
      "ves": 1624,
      "ason": 1625,
      "vi": 1626,
      "anybody": 1627,
      "super": 1628,
      "sugar": 1629,
      "ground": 1630,
      "dark": 1631,
      "puppy": 1632,
      "bell": 1633,
      "giving": 1634,
      "char": 1635,
      "becky": 1636,
      "cour": 1637,
      "whee": 1638,
      "ade": 1639,
      "ey": 1640,
      "piggy": 1641,
      "tidy": 1642,
      "meat": 1643,
      "scared": 1644,
      "asses": 1645,
      "happening": 1646,
      "sty": 1647,
      "seat": 1648,
      "asked": 1649,
      "ince": 1650,
      "standing": 1651,
      "ils": 1652,
      "bits": 1653,
      "rock": 1654,
      "pussy": 1655,
      "summer": 1656,
      "awww": 1657,
      "learn": 1658,
      "drawing": 1659,
      "past": 1660,
      "jack": 1661,
      "dropped": 1662,
      "bedroom": 1663,
      "jeannine": 1664,
      "cher": 1665,
      "less": 1666,
      "poo": 1667,
      "soup": 1668,
      "trees": 1669,
      "nana": 1670,
      "middle": 1671,
      "ital": 1672,
      "voice": 1673,
      "lift": 1674,
      "late": 1675,
      "driving": 1676,
      "movie": 1677,
      "heav": 1678,
      "whatever": 1679,
      "stree": 1680,
      "woof": 1681,
      "falling": 1682,
      "ging": 1683,
      "mme": 1684,
      "sky": 1685,
      "holding": 1686,
      "rub": 1687,
      "telephone": 1688,
      "airplane": 1689,
      "football": 1690,
      "ity": 1691,
      "anny": 1692,
      "nobody": 1693,
      "pon": 1694,
      "fur": 1695,
      "gar": 1696,
      "ier": 1697,
      "neat": 1698,
      "shed": 1699,
      "apart": 1700,
      "scre": 1701,
      "instead": 1702,
      "bug": 1703,
      "street": 1704,
      "van": 1705,
      "god": 1706,
      "anda": 1707,
      "sick": 1708,
      "iel": 1709,
      "square": 1710,
      "ran": 1711,
      "missing": 1712,
      "broke": 1713,
      "case": 1714,
      "auntie": 1715,
      "microphone": 1716,
      "esday": 1717,
      "ppy": 1718,
      "spot": 1719,
      "asleep": 1720,
      "lemme": 1721,
      "gle": 1722,
      "glasses": 1723,
      "dia": 1724,
      "bricks": 1725,
      "kers": 1726,
      "cover": 1727,
      "butterfly": 1728,
      "without": 1729,
      "quickly": 1730,
      "glass": 1731,
      "beg": 1732,
      "willn": 1733,
      "giraffe": 1734,
      "thinking": 1735,
      "dat": 1736,
      "drop": 1737,
      "ently": 1738,
      "ian": 1739,
      "stic": 1740,
      "lay": 1741,
      "ines": 1742,
      "class": 1743,
      "ken": 1744,
      "pool": 1745,
      "track": 1746,
      "stion": 1747,
      "heavy": 1748,
      "cakes": 1749,
      "blan": 1750,
      "family": 1751,
      "point": 1752,
      "lives": 1753,
      "war": 1754,
      "haps": 1755,
      "aye": 1756,
      "penc": 1757,
      "knee": 1758,
      "perhaps": 1759,
      "grandad": 1760,
      "des": 1761,
      "santa": 1762,
      "also": 1763,
      "month": 1764,
      "strong": 1765,
      "interested": 1766,
      "tomat": 1767,
      "works": 1768,
      "liked": 1769,
      "shape": 1770,
      "forget": 1771,
      "father": 1772,
      "fireman": 1773,
      "upside": 1774,
      "moment": 1775,
      "granddad": 1776,
      "birds": 1777,
      "question": 1778,
      "bel": 1779,
      "lorry": 1780,
      "cdonald": 1781,
      "holid": 1782,
      "holiday": 1783,
      "cards": 1784,
      "jumping": 1785,
      "course": 1786,
      "lights": 1787,
      "tomato": 1788,
      "owl": 1789,
      "oink": 1790,
      "thirty": 1791,
      "ist": 1792,
      "fli": 1793,
      "zo": 1794,
      "enjo": 1795,
      "emp": 1796,
      "reach": 1797,
      "ads": 1798,
      "cathy": 1799,
      "bum": 1800,
      "space": 1801,
      "shouldn": 1802,
      "ried": 1803,
      "ach": 1804,
      "alone": 1805,
      "balls": 1806,
      "beans": 1807,
      "trouble": 1808,
      "ago": 1809,
      "belie": 1810,
      "bubbles": 1811,
      "jam": 1812,
      "proble": 1813,
      "interesting": 1814,
      "sw": 1815,
      "rible": 1816,
      "ole": 1817,
      "pris": 1818,
      "knew": 1819,
      "hip": 1820,
      "pengu": 1821,
      "cod": 1822,
      "baba": 1823,
      "group": 1824,
      "cious": 1825,
      "pin": 1826,
      "trouse": 1827,
      "yup": 1828,
      "ating": 1829,
      "swe": 1830,
      "icul": 1831,
      "codile": 1832,
      "cats": 1833,
      "crocodile": 1834,
      "rid": 1835,
      "carol": 1836,
      "poorly": 1837,
      "shh": 1838,
      "properly": 1839,
      "onto": 1840,
      "missed": 1841,
      "sname": 1842,
      "liz": 1843,
      "spill": 1844,
      "understand": 1845,
      "bobby": 1846,
      "domin": 1847,
      "turned": 1848,
      "share": 1849,
      "trousers": 1850,
      "hu": 1851,
      "mir": 1852,
      "doo": 1853,
      "pocket": 1854,
      "childsname": 1855,
      "easy": 1856,
      "cups": 1857,
      "fallen": 1858,
      "frid": 1859,
      "lookee": 1860,
      "ain": 1861,
      "inky": 1862,
      "uncle": 1863,
      "ducks": 1864,
      "sle": 1865,
      "ero": 1866,
      "dogs": 1867,
      "diaper": 1868,
      "believe": 1869,
      "mp": 1870,
      "act": 1871,
      "writing": 1872,
      "sunday": 1873,
      "cheeky": 1874,
      "gor": 1875,
      "since": 1876,
      "jelly": 1877,
      "dance": 1878,
      "strawberry": 1879,
      "surpris": 1880,
      "camera": 1881,
      "crayons": 1882,
      "somethin": 1883,
      "jen": 1884,
      "rib": 1885,
      "tooth": 1886,
      "nut": 1887,
      "scr": 1888,
      "pass": 1889,
      "ror": 1890,
      "shout": 1891,
      "sam": 1892,
      "cereal": 1893,
      "grapes": 1894,
      "dust": 1895,
      "dun": 1896,
      "dump": 1897,
      "ddy": 1898,
      "years": 1899,
      "ggie": 1900,
      "neath": 1901,
      "wise": 1902,
      "anger": 1903,
      "wha": 1904,
      "bbie": 1905,
      "vin": 1906,
      "tun": 1907,
      "kes": 1908,
      "boots": 1909,
      "cwww": 1910,
      "eve": 1911,
      "rew": 1912,
      "towel": 1913,
      "dancing": 1914,
      "cid": 1915,
      "blanket": 1916,
      "picnic": 1917,
      "using": 1918,
      "empty": 1919,
      "underneath": 1920,
      "beach": 1921,
      "angle": 1922,
      "painting": 1923,
      "fie": 1924,
      "suit": 1925,
      "zy": 1926,
      "band": 1927,
      "screw": 1928,
      "block": 1929,
      "splash": 1930,
      "port": 1931,
      "daisy": 1932,
      "pra": 1933,
      "brilli": 1934,
      "friday": 1935,
      "brilliant": 1936,
      "dough": 1937,
      "gentle": 1938,
      "tw": 1939,
      "tight": 1940,
      "trick": 1941,
      "oc": 1942,
      "chips": 1943,
      "ret": 1944,
      "fence": 1945,
      "gara": 1946,
      "buttons": 1947,
      "lance": 1948,
      "zorg": 1949,
      "station": 1950,
      "clown": 1951,
      "por": 1952,
      "youn": 1953,
      "waiting": 1954,
      "itched": 1955,
      "crash": 1956,
      "picked": 1957,
      "leng": 1958,
      "tub": 1959,
      "net": 1960,
      "zzy": 1961,
      "ak": 1962,
      "ped": 1963,
      "dominic": 1964,
      "flying": 1965,
      "belong": 1966,
      "baa": 1967,
      "save": 1968,
      "slow": 1969,
      "cows": 1970,
      "satur": 1971,
      "meal": 1972,
      "icy": 1973,
      "early": 1974,
      "pencil": 1975,
      "io": 1976,
      "scary": 1977,
      "exce": 1978,
      "pay": 1979,
      "mel": 1980,
      "welcome": 1981,
      "unk": 1982,
      "imme": 1983,
      "corner": 1984,
      "garage": 1985,
      "ited": 1986,
      "cast": 1987,
      "farmer": 1988,
      "nel": 1989,
      "bears": 1990,
      "gently": 1991,
      "sausage": 1992,
      "ants": 1993,
      "ickey": 1994,
      "hour": 1995,
      "noon": 1996,
      "machine": 1997,
      "caroline": 1998,
      "mickey": 1999,
      "noisy": 2000,
      "world": 2001,
      "mirror": 2002,
      "den": 2003,
      "smile": 2004,
      "ppers": 2005,
      "anywhere": 2006,
      "eaten": 2007,
      "scrat": 2008,
      "crayon": 2009,
      "games": 2010,
      "lengthen": 2011,
      "saturday": 2012,
      "knif": 2013,
      "roof": 2014,
      "sea": 2015,
      "till": 2016,
      "barn": 2017,
      "jamas": 2018,
      "tip": 2019,
      "problem": 2020,
      "lamb": 2021,
      "fully": 2022,
      "short": 2023,
      "crac": 2024,
      "tiss": 2025,
      "trucks": 2026,
      "hosp": 2027,
      "knife": 2028,
      "hospital": 2029,
      "hurry": 2030,
      "napp": 2031,
      "cop": 2032,
      "whoo": 2033,
      "cal": 2034,
      "caught": 2035,
      "met": 2036,
      "bert": 2037,
      "tried": 2038,
      "cess": 2039,
      "pound": 2040,
      "woo": 2041,
      "smart": 2042,
      "zebra": 2043,
      "tha": 2044,
      "medic": 2045,
      "hop": 2046,
      "vision": 2047,
      "biscuits": 2048,
      "ruth": 2049,
      "gimme": 2050,
      "motor": 2051,
      "poin": 2052,
      "chew": 2053,
      "closed": 2054,
      "raining": 2055,
      "pitched": 2056,
      "delicious": 2057,
      "bor": 2058,
      "otherwise": 2059,
      "chairs": 2060,
      "swim": 2061,
      "lucky": 2062,
      "wave": 2063,
      "granny": 2064,
      "hippo": 2065,
      "worry": 2066,
      "cuddle": 2067,
      "moving": 2068,
      "afternoon": 2069,
      "horses": 2070,
      "dolls": 2071,
      "thir": 2072,
      "toi": 2073,
      "snap": 2074,
      "riding": 2075,
      "policeman": 2076,
      "cen": 2077,
      "sid": 2078,
      "goo": 2079,
      "molly": 2080,
      "trains": 2081,
      "panda": 2082,
      "prin": 2083,
      "lengthened": 2084,
      "lets": 2085,
      "matthe": 2086,
      "feeling": 2087,
      "television": 2088,
      "batter": 2089,
      "across": 2090,
      "eleven": 2091,
      "field": 2092,
      "coloring": 2093,
      "weeks": 2094,
      "fre": 2095,
      "chel": 2096,
      "enjoy": 2097,
      "tong": 2098,
      "hook": 2099,
      "eats": 2100,
      "roman": 2101,
      "rice": 2102,
      "monday": 2103,
      "rather": 2104,
      "ign": 2105,
      "matthew": 2106,
      "wish": 2107,
      "nicole": 2108,
      "fork": 2109,
      "toilet": 2110,
      "mary": 2111,
      "candy": 2112,
      "jac": 2113,
      "himself": 2114,
      "sticky": 2115,
      "isha": 2116,
      "cupboard": 2117,
      "mcdonald": 2118,
      "sticker": 2119,
      "strawberries": 2120,
      "throwing": 2121,
      "hee": 2122,
      "fair": 2123,
      "everyone": 2124,
      "apples": 2125,
      "twel": 2126,
      "between": 2127,
      "toe": 2128,
      "magic": 2129,
      "ather": 2130,
      "ladder": 2131,
      "ilt": 2132,
      "dragon": 2133,
      "medicine": 2134,
      "heart": 2135,
      "exact": 2136,
      "numbers": 2137,
      "supper": 2138,
      "twelve": 2139,
      "rachel": 2140,
      "ambu": 2141,
      "cooking": 2142,
      "tongue": 2143,
      "heli": 2144,
      "'...": 2145,
      "takes": 2146,
      "lin": 2147,
      "stri": 2148,
      "myself": 2149,
      "seem": 2150,
      "squee": 2151,
      "nin": 2152,
      "oven": 2153,
      "gold": 2154,
      "cking": 2155,
      "irsty": 2156,
      "everywhere": 2157,
      "turtle": 2158,
      "pumpkin": 2159,
      "fill": 2160,
      "ily": 2161,
      "lu": 2162,
      "vide": 2163,
      "cog": 2164,
      "plastic": 2165,
      "free": 2166,
      "meow": 2167,
      "sleepy": 2168,
      "och": 2169,
      "spell": 2170,
      "wra": 2171,
      "drinking": 2172,
      "cot": 2173,
      "names": 2174,
      "suppose": 2175,
      "grandpa": 2176,
      "bags": 2177,
      "fig": 2178,
      "copter": 2179,
      "sting": 2180,
      "lwww": 2181,
      "mail": 2182,
      "race": 2183,
      "cap": 2184,
      "mia": 2185,
      "tony": 2186,
      "cris": 2187,
      "carrot": 2188,
      "ambulance": 2189,
      "taken": 2190,
      "sock": 2191,
      "cough": 2192,
      "lying": 2193,
      "fits": 2194,
      "bless": 2195,
      "helicopter": 2196,
      "cand": 2197,
      "seems": 2198,
      "urs": 2199,
      "mit": 2200,
      "buzz": 2201,
      "pigs": 2202,
      "pillow": 2203,
      "1w": 2204,
      "yeh": 2205,
      "carrots": 2206,
      "owed": 2207,
      "leaf": 2208,
      "recog": 2209,
      "potty": 2210,
      "thirsty": 2211,
      "rat": 2212,
      "icycle": 2213,
      "town": 2214,
      "lyn": 2215,
      "marky": 2216,
      "jim": 2217,
      "sn": 2218,
      "knocked": 2219,
      "laughing": 2220,
      "colle": 2221,
      "news": 2222,
      "squea": 2223,
      "oy": 2224,
      "visit": 2225,
      "presents": 2226,
      "recogni": 2227,
      "video": 2228,
      "kne": 2229,
      "fle": 2230,
      "nathan": 2231,
      "listening": 2232,
      "ob": 2233,
      "winnie": 2234,
      "hoor": 2235,
      "safe": 2236,
      "defin": 2237,
      "ance": 2238,
      "tissue": 2239,
      "geor": 2240,
      "hooray": 2241,
      "ated": 2242,
      "least": 2243,
      "rings": 2244,
      "craw": 2245,
      "lar": 2246,
      "goat": 2247,
      "waff": 2248,
      "sauce": 2249,
      "tles": 2250,
      "anas": 2251,
      "backwards": 2252,
      "follow": 2253,
      "lemon": 2254,
      "spoons": 2255,
      "aero": 2256,
      "sel": 2257,
      "leaves": 2258,
      "exactly": 2259,
      "aah": 2260,
      "james": 2261,
      "rh": 2262,
      "itely": 2263,
      "nappie": 2264,
      "fox": 2265,
      "builder": 2266,
      "biscuit": 2267,
      "ginger": 2268,
      "\".\"": 2269,
      "penny": 2270,
      "castle": 2271,
      "kis": 2272,
      "ction": 2273,
      "danger": 2274,
      "momma": 2275,
      "dead": 2276,
      "umbre": 2277,
      "shower": 2278,
      "clou": 2279,
      "dding": 2280,
      "pear": 2281,
      "aroo": 2282,
      "pajamas": 2283,
      "figure": 2284,
      "sis": 2285,
      "living": 2286,
      "rubb": 2287,
      "doors": 2288,
      "mustn": 2289,
      "choose": 2290,
      "pho": 2291,
      "jacket": 2292,
      "jess": 2293,
      "iron": 2294,
      "hay": 2295,
      "penguin": 2296,
      "definitely": 2297,
      "vege": 2298,
      "peek": 2299,
      "kang": 2300,
      "threw": 2301,
      "kinds": 2302,
      "ag": 2303,
      "vegetable": 2304,
      "dred": 2305,
      "puppet": 2306,
      "kangaroo": 2307,
      "jumped": 2308,
      "washed": 2309,
      "comb": 2310,
      "elephants": 2311,
      "scratch": 2312,
      "vel": 2313,
      "lap": 2314,
      "paul": 2315,
      "hundred": 2316,
      "yy": 2317,
      "certain": 2318,
      "ane": 2319,
      "nicely": 2320,
      "older": 2321,
      "yog": 2322,
      "months": 2323,
      "umbrella": 2324,
      "hammer": 2325,
      "sees": 2326,
      "plant": 2327,
      "digger": 2328,
      "jason": 2329,
      "allowed": 2330,
      "pea": 2331,
      "excited": 2332,
      "tank": 2333,
      "roo": 2334,
      "cone": 2335,
      "topher": 2336,
      "squir": 2337,
      "inning": 2338,
      "ens": 2339,
      "maggie": 2340,
      "awful": 2341,
      "base": 2342,
      "quar": 2343,
      "ises": 2344,
      "sore": 2345,
      "life": 2346,
      "cus": 2347,
      "dinosaurs": 2348,
      "ray": 2349,
      "iches": 2350,
      "raid": 2351,
      "flat": 2352,
      "stars": 2353,
      "soap": 2354,
      "holes": 2355,
      "shin": 2356,
      "bucket": 2357,
      "spots": 2358,
      "grab": 2359,
      "snack": 2360,
      "bounce": 2361,
      "true": 2362,
      "trip": 2363,
      "gab": 2364,
      "pad": 2365,
      "easier": 2366,
      "mmy": 2367,
      "belly": 2368,
      "woman": 2369,
      "chim": 2370,
      "flakes": 2371,
      "afraid": 2372,
      "kn": 2373,
      "gettin": 2374,
      "peep": 2375,
      "mbur": 2376,
      "hh": 2377,
      "umper": 2378,
      "ica": 2379,
      "upset": 2380,
      "goodbye": 2381,
      "exciting": 2382,
      "bananas": 2383,
      "tunnel": 2384,
      "pies": 2385,
      "lose": 2386,
      "warren": 2387,
      "whether": 2388,
      "shops": 2389,
      "ggy": 2390,
      "sandwiches": 2391,
      "hambur": 2392,
      "stopped": 2393,
      "sign": 2394,
      "match": 2395,
      "answer": 2396,
      "pack": 2397,
      "donkey": 2398,
      "size": 2399,
      "pulling": 2400,
      "sharp": 2401,
      "shapes": 2402,
      "bage": 2403,
      "wonderful": 2404,
      "squeeze": 2405,
      "rel": 2406,
      "string": 2407,
      "rot": 2408,
      "dunno": 2409,
      "issor": 2410,
      "comput": 2411,
      "fan": 2412,
      "scissor": 2413,
      "wedn": 2414,
      "rr": 2415,
      "chick": 2416,
      "octo": 2417,
      "ater": 2418,
      "helping": 2419,
      "hurts": 2420,
      "sides": 2421,
      "glad": 2422,
      "alex": 2423,
      "asure": 2424,
      "hill": 2425,
      "boxes": 2426,
      "kill": 2427,
      "kets": 2428,
      "cheer": 2429,
      "cloth": 2430,
      "ia": 2431,
      "rocket": 2432,
      "bib": 2433,
      "chess": 2434,
      "ala": 2435,
      "easter": 2436,
      "cous": 2437,
      "christopher": 2438,
      "photo": 2439,
      "bicycle": 2440,
      "va": 2441,
      "telet": 2442,
      "stickers": 2443,
      "duh": 2444,
      "eme": 2445,
      "ute": 2446,
      "gest": 2447,
      "carri": 2448,
      "record": 2449,
      "changed": 2450,
      "teletu": 2451,
      "nina": 2452,
      "gers": 2453,
      "rad": 2454,
      "sue": 2455,
      "coco": 2456,
      "joey": 2457,
      "cock": 2458,
      "diff": 2459,
      "mcdonalds": 2460,
      "bright": 2461,
      "plates": 2462,
      "jose": 2463,
      "teach": 2464,
      "fridge": 2465,
      "balloons": 2466,
      "potatoes": 2467,
      "keeps": 2468,
      "thurs": 2469,
      "anges": 2470,
      "scissors": 2471,
      "difficul": 2472,
      "uff": 2473,
      "carpet": 2474,
      "lind": 2475,
      "tuesday": 2476,
      "salt": 2477,
      "salad": 2478,
      "skin": 2479,
      "remind": 2480,
      "gum": 2481,
      "asking": 2482,
      "yuck": 2483,
      "pages": 2484,
      "taperecorder": 2485,
      "slice": 2486,
      "stir": 2487,
      "playgroup": 2488,
      "missus": 2489,
      "wednesday": 2490,
      "opened": 2491,
      "send": 2492,
      "rench": 2493,
      "ions": 2494,
      "computer": 2495,
      "gate": 2496,
      "fer": 2497,
      "pas": 2498,
      "steps": 2499,
      "gabr": 2500,
      "joseph": 2501,
      "beat": 2502,
      "bedtime": 2503,
      "drum": 2504,
      "young": 2505,
      "kat": 2506,
      "pit": 2507,
      "kept": 2508,
      "lia": 2509,
      "pepper": 2510,
      "graeme": 2511,
      "fixed": 2512,
      "triangle": 2513,
      "dustbin": 2514,
      "sno": 2515,
      "tap": 2516,
      "joe": 2517,
      "fifteen": 2518,
      "vroom": 2519,
      "zing": 2520,
      "weeken": 2521,
      "spon": 2522,
      "meant": 2523,
      "smar": 2524,
      "⌉?": 2525,
      "stuffed": 2526,
      "gram": 2527,
      "glue": 2528,
      "sink": 2529,
      "forty": 2530,
      "whale": 2531,
      "bill": 2532,
      "fect": 2533,
      "giant": 2534,
      "difficult": 2535,
      "couch": 2536,
      "gaz": 2537,
      "pair": 2538,
      "nan": 2539,
      "thro": 2540,
      "res": 2541,
      "igator": 2542,
      "cutting": 2543,
      "mor": 2544,
      "nty": 2545,
      "princess": 2546,
      "thursday": 2547,
      "sell": 2548,
      "sweets": 2549,
      "plain": 2550,
      "fel": 2551,
      "hon": 2552,
      "swww": 2553,
      "magaz": 2554,
      "manage": 2555,
      "norm": 2556,
      "pasta": 2557,
      "dream": 2558,
      "helmet": 2559,
      "normally": 2560,
      "kins": 2561,
      "pretending": 2562,
      "messy": 2563,
      "dangerous": 2564,
      "fifty": 2565,
      "loo": 2566,
      "sol": 2567,
      "steady": 2568,
      "pri": 2569,
      "lego": 2570,
      "mitra": 2571,
      "lettu": 2572,
      "buddy": 2573,
      "rubbish": 2574,
      "inv": 2575,
      "vest": 2576,
      "stam": 2577,
      "mud": 2578,
      "turning": 2579,
      "dimitra": 2580,
      "strange": 2581,
      "ron": 2582,
      "nails": 2583,
      "psy": 2584,
      "slippers": 2585,
      "weekend": 2586,
      "”?": 2587,
      "june": 2588,
      "plays": 2589,
      "inde": 2590,
      "chimney": 2591,
      "led": 2592,
      "accid": 2593,
      "softly": 2594,
      "fact": 2595,
      "steve": 2596,
      "lettuce": 2597,
      "aran": 2598,
      "chip": 2599,
      "zed": 2600,
      "cab": 2601,
      "climbing": 2602,
      "supposed": 2603,
      "tast": 2604,
      "pulled": 2605,
      "roller": 2606,
      "ues": 2607,
      "crazy": 2608,
      "chur": 2609,
      "odle": 2610,
      "surprise": 2611,
      "george": 2612,
      "seed": 2613,
      "questions": 2614,
      "felt": 2615,
      "lookin": 2616,
      "whisper": 2617,
      "bother": 2618,
      "terrible": 2619,
      "bbies": 2620,
      "cornflakes": 2621,
      "brian": 2622,
      "pond": 2623,
      "knees": 2624,
      "deer": 2625,
      "stayed": 2626,
      "beads": 2627,
      "houses": 2628,
      "ew": 2629,
      "tool": 2630,
      "horrible": 2631,
      "feels": 2632,
      "cin": 2633,
      "yucky": 2634,
      "dora": 2635,
      "hadn": 2636,
      "rolling": 2637,
      "thumb": 2638,
      "purse": 2639,
      "snowman": 2640,
      "cco": 2641,
      "gas": 2642,
      "geous": 2643,
      "neigh": 2644,
      "pets": 2645,
      "ppin": 2646,
      "perfect": 2647,
      "brook": 2648,
      "kisses": 2649,
      "fright": 2650,
      "frig": 2651,
      "linda": 2652,
      "bby": 2653,
      "shem": 2654,
      "unless": 2655,
      "wolf": 2656,
      "muf": 2657,
      "mush": 2658,
      "sert": 2659,
      "pushing": 2660,
      "yard": 2661,
      "ita": 2662,
      "lick": 2663,
      "seeing": 2664,
      "clear": 2665,
      "calling": 2666,
      "picking": 2667,
      "hamburger": 2668,
      "iry": 2669,
      "erator": 2670,
      "anyone": 2671,
      "gun": 2672,
      "ared": 2673,
      "thinks": 2674,
      "gorgeous": 2675,
      "smarties": 2676,
      "pears": 2677,
      "nathaniel": 2678,
      "none": 2679,
      "debbie": 2680,
      "turkey": 2681,
      "ming": 2682,
      "scream": 2683,
      "meet": 2684,
      "tigger": 2685,
      "igg": 2686,
      "log": 2687,
      "gee": 2688,
      "fold": 2689,
      "derwood": 2690,
      "longer": 2691,
      "church": 2692,
      "reason": 2693,
      "hanna": 2694,
      "drawer": 2695,
      "mill": 2696,
      "nce": 2697,
      "whatcha": 2698,
      "jun": 2699,
      "stories": 2700,
      "smaller": 2701,
      "pir": 2702,
      "isabe": 2703,
      "traile": 2704,
      "billy": 2705,
      "pile": 2706,
      "tasty": 2707,
      "pow": 2708,
      "fil": 2709,
      "velo": 2710,
      "blowing": 2711,
      "aeroplane": 2712,
      "bon": 2713,
      "zip": 2714,
      "herself": 2715,
      "flew": 2716,
      "tro": 2717,
      "nomi": 2718,
      "walked": 2719,
      "au": 2720,
      "als": 2721,
      "sausages": 2722,
      "oranges": 2723,
      "eric": 2724,
      "uring": 2725,
      "mantha": 2726,
      "frigerator": 2727,
      "iced": 2728,
      "comin": 2729,
      "sticking": 2730,
      "flies": 2731,
      "accident": 2732,
      "plants": 2733,
      "bunch": 2734,
      "crisps": 2735,
      "reg": 2736,
      "vers": 2737,
      "fresh": 2738,
      "pushed": 2739,
      "sticks": 2740,
      "speak": 2741,
      "kipper": 2742,
      "gies": 2743,
      "uhhum": 2744,
      "carefully": 2745,
      "cleaning": 2746,
      "karen": 2747,
      "pony": 2748,
      "”!": 2749,
      "therine": 2750,
      "shor": 2751,
      "charlie": 2752,
      "noises": 2753,
      "newspaper": 2754,
      "quarter": 2755,
      "zi": 2756,
      "nest": 2757,
      "type": 2758,
      "stove": 2759,
      "bugs": 2760,
      "ache": 2761,
      "mmm": 2762,
      "bathtub": 2763,
      "erin": 2764,
      "cent": 2765,
      "french": 2766,
      "jumper": 2767,
      "inkle": 2768,
      "spin": 2769,
      "dishes": 2770,
      "fifi": 2771,
      "hannah": 2772,
      "samantha": 2773,
      "aces": 2774,
      "goose": 2775,
      "robin": 2776,
      "aunty": 2777,
      "mwww": 2778,
      "sponge": 2779,
      "stret": 2780,
      "often": 2781,
      "playdough": 2782,
      "rainbow": 2783,
      "frogs": 2784,
      "lph": 2785,
      "rug": 2786,
      "stru": 2787,
      "rip": 2788,
      "ballet": 2789,
      "circus": 2790,
      "queen": 2791,
      "ewww": 2792,
      "sail": 2793,
      "trailer": 2794,
      "ashed": 2795,
      "bumble": 2796,
      "cracker": 2797,
      "hic": 2798,
      "chickens": 2799,
      "certainly": 2800,
      "pus": 2801,
      "march": 2802,
      "icket": 2803,
      "beginning": 2804,
      "puzzles": 2805,
      "snee": 2806,
      "chop": 2807,
      "recording": 2808,
      "jenny": 2809,
      "muffin": 2810,
      "cti": 2811,
      "ned": 2812,
      "arent": 2813,
      "whoop": 2814,
      "hmm": 2815,
      "moved": 2816,
      "birdie": 2817,
      "crab": 2818,
      "shoot": 2819,
      "teletubbies": 2820,
      "ced": 2821,
      "yed": 2822,
      "built": 2823,
      "mike": 2824,
      "tryin": 2825,
      "dish": 2826,
      "nies": 2827,
      "wen": 2828,
      "lastname": 2829,
      "cially": 2830,
      "llent": 2831,
      "trunk": 2832,
      "pottie": 2833,
      "dollars": 2834,
      "bank": 2835,
      "organ": 2836,
      "frighten": 2837,
      "office": 2838,
      "tray": 2839,
      "span": 2840,
      "ws": 2841,
      "remi": 2842,
      "icing": 2843,
      "watched": 2844,
      "lisa": 2845,
      "wings": 2846,
      "claus": 2847,
      "excellent": 2848,
      "cousin": 2849,
      "doh": 2850,
      "grown": 2851,
      "fy": 2852,
      "brooklyn": 2853,
      "dolph": 2854,
      "popcorn": 2855,
      "cove": 2856,
      "mot": 2857,
      "bull": 2858,
      "berry": 2859,
      "chin": 2860,
      "join": 2861,
      "zoom": 2862,
      "hoo": 2863,
      "form": 2864,
      "ima": 2865,
      "kim": 2866,
      "hood": 2867,
      "...\"": 2868,
      "ford": 2869,
      "ship": 2870,
      "pens": 2871,
      "ssh": 2872,
      "ged": 2873,
      "puts": 2874,
      "stomach": 2875,
      "monkeys": 2876,
      "hate": 2877,
      "ras": 2878,
      "tains": 2879,
      "peel": 2880,
      "bush": 2881,
      "horn": 2882,
      "yell": 2883,
      "pipe": 2884,
      "dden": 2885,
      "windows": 2886,
      "born": 2887,
      "hallo": 2888,
      "beds": 2889,
      "angry": 2890,
      "dwww": 2891,
      "daniel": 2892,
      "ature": 2893,
      "ann": 2894,
      "lored": 2895,
      "jus": 2896,
      "starts": 2897,
      "pram": 2898,
      "except": 2899,
      "shell": 2900,
      "recognize": 2901,
      "yoghurt": 2902,
      "octopus": 2903,
      "een": 2904,
      "hig": 2905,
      "ric": 2906,
      "inter": 2907,
      "add": 2908,
      "shine": 2909,
      "playin": 2910,
      "decor": 2911,
      "given": 2912,
      "bone": 2913,
      "morgan": 2914,
      "bake": 2915,
      "bury": 2916,
      "ladybird": 2917,
      "broom": 2918,
      "ond": 2919,
      "rais": 2920,
      "vegetables": 2921,
      "dill": 2922,
      "bees": 2923,
      "uses": 2924,
      "papa": 2925,
      "garbage": 2926,
      "waffle": 2927,
      "fis": 2928,
      "catherine": 2929,
      "indian": 2930,
      "winter": 2931,
      "snea": 2932,
      "heal": 2933,
      "talkin": 2934,
      "places": 2935,
      "berries": 2936,
      "rubber": 2937,
      "witch": 2938,
      "hanging": 2939,
      "surprised": 2940,
      "tastes": 2941,
      "halloween": 2942,
      "lier": 2943,
      "parrot": 2944,
      "turns": 2945,
      "lip": 2946,
      "starting": 2947,
      "dessert": 2948,
      "belt": 2949,
      "rooster": 2950,
      "clouds": 2951,
      "ernie": 2952,
      "bottles": 2953,
      "magnet": 2954,
      "scoop": 2955,
      "third": 2956,
      "colored": 2957,
      "sweep": 2958,
      "lob": 2959,
      "closer": 2960,
      "difference": 2961,
      "cycle": 2962,
      "ible": 2963,
      "lon": 2964,
      "pine": 2965,
      "plum": 2966,
      "plug": 2967,
      "rhy": 2968,
      "dillon": 2969,
      "dum": 2970,
      "rick": 2971,
      "lolli": 2972,
      "libr": 2973,
      "noticed": 2974,
      "babys": 2975,
      "mkay": 2976,
      "bean": 2977,
      "showing": 2978,
      "sudden": 2979,
      "fluff": 2980,
      "pingu": 2981,
      "pounds": 2982,
      ",,": 2983,
      "handle": 2984,
      "ously": 2985,
      "cmon": 2986,
      "sil": 2987,
      "sorts": 2988,
      "neckla": 2989,
      "baseball": 2990,
      "lock": 2991,
      "solute": 2992,
      "cas": 2993,
      "mice": 2994,
      "wah": 2995,
      "eddie": 2996,
      "absolute": 2997,
      "aunt": 2998,
      "forgotten": 2999,
      "ccoli": 3000,
      "nail": 3001,
      "extra": 3002,
      "falls": 3003,
      "broccoli": 3004,
      "barb": 3005,
      "earlier": 3006,
      "shark": 3007,
      "poss": 3008,
      "squash": 3009,
      "mart": 3010,
      "alligator": 3011,
      "abo": 3012,
      "kite": 3013,
      "racing": 3014,
      "woah": 3015,
      "tools": 3016,
      "market": 3017,
      "pippin": 3018,
      "rabbits": 3019,
      "circles": 3020,
      "covered": 3021,
      "feeding": 3022,
      "pecially": 3023,
      "comp": 3024,
      "comfor": 3025,
      "stre": 3026,
      "iggle": 3027,
      "tent": 3028,
      "burger": 3029,
      "library": 3030,
      "loads": 3031,
      "hose": 3032,
      "rocks": 3033,
      "crunch": 3034,
      "counting": 3035,
      "sma": 3036,
      "dipsy": 3037,
      "snakes": 3038,
      "',": 3039,
      "mper": 3040,
      "oat": 3041,
      "especially": 3042,
      "fishing": 3043,
      "scot": 3044,
      "melon": 3045,
      "crawl": 3046,
      "''": 3047,
      "rect": 3048,
      "lions": 3049,
      "cush": 3050,
      "disap": 3051,
      "gabrie": 3052,
      "moun": 3053,
      "sally": 3054,
      "sofa": 3055,
      "shes": 3056,
      "maisy": 3057,
      "dere": 3058,
      "stack": 3059,
      "johnny": 3060,
      "switch": 3061,
      "gordon": 3062,
      "squirrel": 3063,
      "imagine": 3064,
      "⌋?": 3065,
      "order": 3066,
      "babe": 3067,
      "telly": 3068,
      "hurting": 3069,
      "highchair": 3070,
      "crackers": 3071,
      "pops": 3072,
      "bouncy": 3073,
      "cherry": 3074,
      "zoe": 3075,
      "pointing": 3076,
      "candles": 3077,
      "magazine": 3078,
      "absolutely": 3079,
      "sir": 3080,
      "ona": 3081,
      "nah": 3082,
      "bran": 3083,
      "opens": 3084,
      "dent": 3085,
      "edge": 3086,
      "feather": 3087,
      "worm": 3088,
      "sweeties": 3089,
      "plenty": 3090,
      "ribbit": 3091,
      "nuts": 3092,
      "gs": 3093,
      "mandy": 3094,
      "twee": 3095,
      "walks": 3096,
      "clip": 3097,
      "carriage": 3098,
      "non": 3099,
      "woke": 3100,
      "atta": 3101,
      "carrying": 3102,
      "belongs": 3103,
      "refrigerator": 3104,
      "stones": 3105,
      "player": 3106,
      "above": 3107,
      "smil": 3108,
      "wild": 3109,
      "tention": 3110,
      "awright": 3111,
      "mend": 3112,
      "ages": 3113,
      "hid": 3114,
      "rwww": 3115,
      "ano": 3116,
      "oking": 3117,
      "ril": 3118,
      "dee": 3119,
      "patty": 3120,
      "fuzzy": 3121,
      "mixed": 3122,
      "via": 3123,
      "seeds": 3124,
      "crow": 3125,
      "itter": 3126,
      "lissa": 3127,
      "gabriella": 3128,
      "cried": 3129,
      "wide": 3130,
      "named": 3131,
      "snail": 3132,
      "kitten": 3133,
      "quietly": 3134,
      "huge": 3135,
      "katie": 3136,
      "cru": 3137,
      "grey": 3138,
      "tric": 3139,
      "bringing": 3140,
      "sixteen": 3141,
      "songs": 3142,
      "wrap": 3143,
      "yor": 3144,
      "envelo": 3145,
      "decid": 3146,
      "shot": 3147,
      "napkin": 3148,
      "higher": 3149,
      "ckets": 3150,
      "meg": 3151,
      "member": 3152,
      "melissa": 3153,
      "spring": 3154,
      "skirt": 3155,
      "::": 3156,
      "deep": 3157,
      "lobster": 3158,
      "icked": 3159,
      "pumpkins": 3160,
      "xi": 3161,
      "cowboy": 3162,
      "batteries": 3163,
      "dge": 3164,
      "os": 3165,
      "cooked": 3166,
      "diam": 3167,
      "graph": 3168,
      "sweater": 3169,
      "squeak": 3170,
      "oli": 3171,
      "scra": 3172,
      "ida": 3173,
      "pol": 3174,
      "percy": 3175,
      "sits": 3176,
      "fourteen": 3177,
      "growing": 3178,
      "bles": 3179,
      "necklace": 3180,
      "attention": 3181,
      "eatin": 3182,
      "treat": 3183,
      "radio": 3184,
      "jan": 3185,
      "inse": 3186,
      "dec": 3187,
      "cupcake": 3188,
      "gym": 3189,
      "bumped": 3190,
      "kicking": 3191,
      "tidying": 3192,
      "fancy": 3193,
      "runs": 3194,
      "flash": 3195,
      "slipper": 3196,
      "bend": 3197,
      "makin": 3198,
      "staying": 3199,
      "cocoon": 3200,
      "decided": 3201,
      "pha": 3202,
      "ters": 3203,
      "biggest": 3204,
      "thirteen": 3205,
      "frightened": 3206,
      "alice": 3207,
      "lead": 3208,
      "rose": 3209,
      "shelf": 3210,
      "power": 3211,
      "others": 3212,
      "penguins": 3213,
      "comfortable": 3214,
      "lk": 3215,
      "ering": 3216,
      "lips": 3217,
      "harry": 3218,
      "motorcycle": 3219,
      "selves": 3220,
      "smiling": 3221,
      "york": 3222,
      "est": 3223,
      "weather": 3224,
      "robbie": 3225,
      "sharing": 3226,
      "waving": 3227,
      "banging": 3228,
      "iam": 3229,
      "pete": 3230,
      "hers": 3231,
      "iling": 3232,
      "martin": 3233,
      "rope": 3234,
      "mammy": 3235,
      "anging": 3236,
      "daught": 3237,
      "mushroom": 3238,
      "lala": 3239,
      "zes": 3240,
      "zer": 3241,
      "ime": 3242,
      "remy": 3243,
      "fairy": 3244,
      "talked": 3245,
      "hump": 3246,
      "lines": 3247,
      "ult": 3248,
      "smoke": 3249,
      "awake": 3250,
      "cted": 3251,
      "han": 3252,
      "although": 3253,
      "peach": 3254,
      "ruff": 3255,
      "smells": 3256,
      "deliver": 3257,
      "zel": 3258,
      "weir": 3259,
      "naw": 3260,
      "jeremy": 3261,
      "treasure": 3262,
      "burn": 3263,
      "grocer": 3264,
      "pract": 3265,
      "aster": 3266,
      "load": 3267,
      "adad": 3268,
      "poop": 3269,
      "shi": 3270,
      "trash": 3271,
      "ella": 3272,
      "ved": 3273,
      "rob": 3274,
      "river": 3275,
      "mash": 3276,
      "brothers": 3277,
      "powder": 3278,
      "dirt": 3279,
      "ust": 3280,
      "thou": 3281,
      "sean": 3282,
      "leaving": 3283,
      "pickle": 3284,
      "pirate": 3285,
      "umpy": 3286,
      "dres": 3287,
      "sunny": 3288,
      "sunshine": 3289,
      "shorts": 3290,
      "city": 3291,
      "nick": 3292,
      "bec": 3293,
      "lollipop": 3294,
      "vy": 3295,
      "nasty": 3296,
      "itten": 3297,
      "tern": 3298,
      "suitcase": 3299,
      "stripes": 3300,
      "fed": 3301,
      "hus": 3302,
      "rosie": 3303,
      "bling": 3304,
      "cind": 3305,
      "showed": 3306,
      "flor": 3307,
      "movies": 3308,
      "las": 3309,
      "beside": 3310,
      "chance": 3311,
      "click": 3312,
      "flour": 3313,
      "tricky": 3314,
      "jar": 3315,
      "whin": 3316,
      "robert": 3317,
      "eighteen": 3318,
      "okey": 3319,
      "boring": 3320,
      "shiny": 3321,
      "thousand": 3322,
      "bash": 3323,
      "oughta": 3324,
      "blood": 3325,
      "scoo": 3326,
      "hours": 3327,
      "cts": 3328,
      "roar": 3329,
      "tire": 3330,
      "tells": 3331,
      "angel": 3332,
      "hats": 3333,
      "sisters": 3334,
      "slowly": 3335,
      "ama": 3336,
      "hone": 3337,
      "nat": 3338,
      "ub": 3339,
      "liar": 3340,
      "uni": 3341,
      "faces": 3342,
      "planes": 3343,
      "grover": 3344,
      "daughter": 3345,
      "tinky": 3346,
      "lean": 3347,
      "faster": 3348,
      "lived": 3349,
      "fixing": 3350,
      "screwdriver": 3351,
      "obvi": 3352,
      "gwww": 3353,
      "ison": 3354,
      "pence": 3355,
      "cudd": 3356,
      "london": 3357,
      "nwww": 3358,
      "nanny": 3359,
      "doodle": 3360,
      "wedding": 3361,
      "heads": 3362,
      "drinks": 3363,
      "country": 3364,
      "nifer": 3365,
      "oatmeal": 3366,
      "cindere": 3367,
      "crib": 3368,
      "fred": 3369,
      "suck": 3370,
      "tes": 3371,
      "changing": 3372,
      "marie": 3373,
      "tuna": 3374,
      "afterwards": 3375,
      "nineteen": 3376,
      "jennifer": 3377,
      "weird": 3378,
      "dup": 3379,
      "soda": 3380,
      "rolan": 3381,
      "teas": 3382,
      "ific": 3383,
      "ours": 3384,
      "pret": 3385,
      "bones": 3386,
      "parent": 3387,
      "vet": 3388,
      "forward": 3389,
      "alpha": 3390,
      "stays": 3391,
      "bells": 3392,
      "toothbrush": 3393,
      "plo": 3394,
      "seve": 3395,
      "hall": 3396,
      "stal": 3397,
      "test": 3398,
      "grape": 3399,
      "merry": 3400,
      "cinderella": 3401,
      "piglet": 3402,
      "curtains": 3403,
      "tomatoes": 3404,
      "instru": 3405,
      "stone": 3406,
      "roy": 3407,
      "notice": 3408,
      "pots": 3409,
      "hiya": 3410,
      "chest": 3411,
      "miche": 3412,
      "chalk": 3413,
      "reminds": 3414,
      "slid": 3415,
      "vill": 3416,
      "dot": 3417,
      "particul": 3418,
      "chase": 3419,
      "mbed": 3420,
      "tad": 3421,
      "twww": 3422,
      "thick": 3423,
      "ends": 3424,
      "program": 3425,
      "dentist": 3426,
      "kwww": 3427,
      "boing": 3428,
      "tear": 3429,
      "ular": 3430,
      "pati": 3431,
      "buying": 3432,
      "wooden": 3433,
      "sense": 3434,
      "photograph": 3435,
      "barbie": 3436,
      "particular": 3437,
      "jes": 3438,
      "mabel": 3439,
      "ief": 3440,
      "dizzy": 3441,
      "touching": 3442,
      "airport": 3443,
      "candle": 3444,
      "tweet": 3445,
      "cage": 3446,
      "lamp": 3447,
      "against": 3448,
      "phones": 3449,
      "during": 3450,
      "secre": 3451,
      "keisha": 3452,
      "mashed": 3453,
      "parce": 3454,
      "stache": 3455,
      "forest": 3456,
      "import": 3457,
      "pancakes": 3458,
      "climbed": 3459,
      "husband": 3460,
      "noo": 3461,
      "seas": 3462,
      "shoo": 3463,
      "dressing": 3464,
      "yyy": 3465,
      "winky": 3466,
      "crumb": 3467,
      "beef": 3468,
      "shining": 3469,
      "ame": 3470,
      "isie": 3471,
      "cean": 3472,
      "honest": 3473,
      "important": 3474,
      "sus": 3475,
      "gori": 3476,
      "ketch": 3477,
      "crane": 3478,
      "jungle": 3479,
      "dah": 3480,
      "gloves": 3481,
      "jill": 3482,
      "yah": 3483,
      "polly": 3484,
      "april": 3485,
      "magne": 3486,
      "battery": 3487,
      "obviously": 3488,
      "william": 3489,
      "kissing": 3490,
      "twinkle": 3491,
      "kip": 3492,
      "copy": 3493,
      "tied": 3494,
      "pickles": 3495,
      "conf": 3496,
      "danny": 3497,
      "gener": 3498,
      "cheerio": 3499,
      "healthy": 3500,
      "diamond": 3501,
      "humpty": 3502,
      "cting": 3503,
      "ocean": 3504,
      "tic": 3505,
      "ices": 3506,
      "max": 3507,
      "carto": 3508,
      "deal": 3509,
      "curly": 3510,
      "enjoying": 3511,
      "rattle": 3512,
      "pineapple": 3513,
      "envelope": 3514,
      "ko": 3515,
      "besides": 3516,
      "locked": 3517,
      "taxi": 3518,
      "gives": 3519,
      "harder": 3520,
      "barbar": 3521,
      "flip": 3522,
      "wro": 3523,
      "costu": 3524,
      "fries": 3525,
      "alphabet": 3526,
      "nit": 3527,
      "ush": 3528,
      "whats": 3529,
      "scarf": 3530,
      "florida": 3531,
      "'!": 3532,
      "resta": 3533,
      "stup": 3534,
      "chat": 3535,
      "maisie": 3536,
      "wagon": 3537,
      "expe": 3538,
      "wondering": 3539,
      "cents": 3540,
      "zipper": 3541,
      "restaur": 3542,
      "cum": 3543,
      "sham": 3544,
      "grumpy": 3545,
      "friendly": 3546,
      "fighting": 3547,
      "iggly": 3548,
      "barbara": 3549,
      "wrote": 3550,
      "chard": 3551,
      "macdonald": 3552,
      "biting": 3553,
      "needed": 3554,
      "windy": 3555,
      "tigers": 3556,
      "boats": 3557,
      "neighbor": 3558,
      "fluffy": 3559,
      "pil": 3560,
      "spark": 3561,
      "cost": 3562,
      "boot": 3563,
      "seemed": 3564,
      "packet": 3565,
      "loved": 3566,
      "bbly": 3567,
      "richard": 3568,
      "phi": 3569,
      "mee": 3570,
      "contain": 3571,
      "dollar": 3572,
      "wendy": 3573,
      "tou": 3574,
      "spr": 3575,
      "shows": 3576,
      "prom": 3577,
      "fran": 3578,
      "pilot": 3579,
      "pussycat": 3580,
      "shouting": 3581,
      "megan": 3582,
      "hwww": 3583,
      "kit": 3584,
      "popped": 3585,
      "paste": 3586,
      "chewing": 3587,
      "2w": 3588,
      "pudding": 3589,
      "prote": 3590,
      "calm": 3591,
      "waffles": 3592,
      "secret": 3593,
      "dep": 3594,
      "muse": 3595,
      "boop": 3596,
      "pota": 3597,
      "laun": 3598,
      "pleased": 3599,
      "closet": 3600,
      "ations": 3601,
      "museum": 3602,
      "oni": 3603,
      "helped": 3604,
      "spea": 3605,
      "ctions": 3606,
      "dolphin": 3607,
      "dies": 3608,
      "ode": 3609,
      "grew": 3610,
      "skip": 3611,
      "jesus": 3612,
      "tween": 3613,
      "val": 3614,
      "julia": 3615,
      "plus": 3616,
      "shy": 3617,
      "worried": 3618,
      "steam": 3619,
      "exer": 3620,
      "monsters": 3621,
      "stretch": 3622,
      "stupid": 3623,
      "double": 3624,
      "lawn": 3625,
      "rush": 3626,
      "teapot": 3627,
      "died": 3628,
      "ketchup": 3629,
      "promise": 3630,
      "troll": 3631,
      "rec": 3632,
      "nothin": 3633,
      "spread": 3634,
      "firefight": 3635,
      "ments": 3636,
      "learned": 3637,
      "pretzel": 3638,
      "magnets": 3639,
      "shampoo": 3640,
      "laundry": 3641,
      "kie": 3642,
      "ley": 3643,
      "blew": 3644,
      "furry": 3645,
      "pitcher": 3646,
      "seal": 3647,
      "foods": 3648,
      "patrick": 3649,
      "capital": 3650,
      "ironing": 3651,
      "smack": 3652,
      "aven": 3653,
      "snif": 3654,
      "ryan": 3655,
      "playground": 3656,
      "remen": 3657,
      "flavor": 3658,
      "learning": 3659,
      "rett": 3660,
      "vie": 3661,
      "whenever": 3662,
      "comple": 3663,
      "crack": 3664,
      "pinch": 3665,
      "gingerbread": 3666,
      "regular": 3667,
      "hitting": 3668,
      "tum": 3669,
      "vit": 3670,
      "⌋,": 3671,
      "host": 3672,
      "bud": 3673,
      "cation": 3674,
      "begins": 3675,
      "film": 3676,
      "decide": 3677,
      "michelle": 3678,
      "pilchard": 3679,
      "exerc": 3680,
      "jing": 3681,
      "ics": 3682,
      "engl": 3683,
      "worked": 3684,
      "spend": 3685,
      "iled": 3686,
      "piano": 3687,
      "whistle": 3688,
      "bs": 3689,
      "vale": 3690,
      "ribb": 3691,
      "duckie": 3692,
      "passen": 3693,
      "brett": 3694,
      "mob": 3695,
      "rag": 3696,
      "milar": 3697,
      "crumbs": 3698,
      "tough": 3699,
      "beer": 3700,
      "peri": 3701,
      "homework": 3702,
      "opening": 3703,
      "ffic": 3704,
      "similar": 3705,
      "hippopota": 3706,
      "silver": 3707,
      "feathers": 3708,
      "tan": 3709,
      "towards": 3710,
      "rac": 3711,
      "cart": 3712,
      "cleaned": 3713,
      "chas": 3714,
      "lun": 3715,
      "hog": 3716,
      "ski": 3717,
      "basketball": 3718,
      "familiar": 3719,
      "rocking": 3720,
      "lucy": 3721,
      "snip": 3722,
      "rol": 3723,
      "odles": 3724,
      "seconds": 3725,
      "whiskers": 3726,
      "indeed": 3727,
      "bwww": 3728,
      "ridge": 3729,
      "cele": 3730,
      "helps": 3731,
      "spit": 3732,
      "married": 3733,
      "hedge": 3734,
      "camel": 3735,
      "kittens": 3736,
      "louder": 3737,
      "rides": 3738,
      "ious": 3739,
      "xav": 3740,
      "seri": 3741,
      "stood": 3742,
      "gues": 3743,
      "firemen": 3744,
      "brushing": 3745,
      "crown": 3746,
      "brace": 3747,
      "raisins": 3748,
      "gorilla": 3749,
      "alive": 3750,
      "reinde": 3751,
      "toddle": 3752,
      "sesame": 3753,
      "arch": 3754,
      "nappy": 3755,
      "shame": 3756,
      "illa": 3757,
      "trina": 3758,
      "madam": 3759,
      "jimmy": 3760,
      "lemonade": 3761,
      "!\"": 3762,
      "ghost": 3763,
      "bered": 3764,
      "lize": 3765,
      "eng": 3766,
      "tracks": 3767,
      "emily": 3768,
      "ringing": 3769,
      "throat": 3770,
      "suddenly": 3771,
      "complete": 3772,
      "resc": 3773,
      "soph": 3774,
      "gotten": 3775,
      "chester": 3776,
      "traffic": 3777,
      "restaurant": 3778,
      "del": 3779,
      "fanta": 3780,
      "anno": 3781,
      "annie": 3782,
      "arri": 3783,
      "era": 3784,
      "taught": 3785,
      "male": 3786,
      "ittin": 3787,
      "remem": 3788,
      "sim": 3789,
      "study": 3790,
      "ninety": 3791,
      "clay": 3792,
      "whoosh": 3793,
      "mobile": 3794,
      "bah": 3795,
      "daf": 3796,
      "knot": 3797,
      "swall": 3798,
      "iness": 3799,
      "weight": 3800,
      "irts": 3801,
      "bacon": 3802,
      "rican": 3803,
      "puff": 3804,
      "tracy": 3805,
      "pennies": 3806,
      "sixty": 3807,
      "seesaw": 3808,
      "stamp": 3809,
      "mountain": 3810,
      "fantastic": 3811,
      "smoo": 3812,
      "dots": 3813,
      "chug": 3814,
      "joel": 3815,
      "conor": 3816,
      "barry": 3817,
      "plums": 3818,
      "('": 3819,
      "cuse": 3820,
      "ire": 3821,
      "rinse": 3822,
      "tch": 3823,
      "tisha": 3824,
      "syl": 3825,
      "equ": 3826,
      "ied": 3827,
      "wife": 3828,
      "law": 3829,
      "action": 3830,
      "frank": 3831,
      "muscle": 3832,
      "charlot": 3833,
      "ded": 3834,
      "twin": 3835,
      "vac": 3836,
      "bernice": 3837,
      "parts": 3838,
      "watermelon": 3839,
      "landed": 3840,
      "teachers": 3841,
      "bouncing": 3842,
      "dumpty": 3843,
      "sophie": 3844,
      "zero": 3845,
      "heat": 3846,
      "wire": 3847,
      "chan": 3848,
      "terr": 3849,
      "sayin": 3850,
      "gail": 3851,
      "acti": 3852,
      "usual": 3853,
      "porridge": 3854,
      "xavier": 3855,
      "oned": 3856,
      "opy": 3857,
      "breath": 3858,
      "tons": 3859,
      "cluck": 3860,
      "drives": 3861,
      "peanuts": 3862,
      "spilled": 3863,
      "isabelle": 3864,
      "charlotte": 3865,
      "wears": 3866,
      "ander": 3867,
      "ada": 3868,
      "sher": 3869,
      "guard": 3870,
      "watering": 3871,
      "oooo": 3872,
      "following": 3873,
      "thrown": 3874,
      "rescue": 3875,
      "pun": 3876,
      "sou": 3877,
      "choc": 3878,
      "piggie": 3879,
      "evening": 3880,
      "mostly": 3881,
      "rhin": 3882,
      "amazing": 3883,
      "engines": 3884,
      "remembered": 3885,
      "kris": 3886,
      "oil": 3887,
      "sca": 3888,
      "tabi": 3889,
      "dered": 3890,
      "choice": 3891,
      "crashed": 3892,
      "hunh": 3893,
      "dire": 3894,
      "earrings": 3895,
      "drops": 3896,
      "seventeen": 3897,
      "collect": 3898,
      "costume": 3899,
      "hippopotamus": 3900,
      "jer": 3901,
      "lee": 3902,
      "sold": 3903,
      "temper": 3904,
      "wool": 3905,
      "ately": 3906,
      "matty": 3907,
      "rude": 3908,
      "cricket": 3909,
      "drew": 3910,
      "duckling": 3911,
      "patch": 3912,
      "pattern": 3913,
      "tickling": 3914,
      "stool": 3915,
      "sep": 3916,
      "math": 3917,
      "pole": 3918,
      "themselves": 3919,
      "spray": 3920,
      "realize": 3921,
      "matches": 3922,
      "cupcakes": 3923,
      "keeping": 3924,
      "kath": 3925,
      "hhh": 3926,
      "niture": 3927,
      "rup": 3928,
      "sings": 3929,
      "ladies": 3930,
      "cherries": 3931,
      "furniture": 3932,
      "cushion": 3933,
      "jingle": 3934,
      "rm": 3935,
      "lic": 3936,
      "rold": 3937,
      "upon": 3938,
      "team": 3939,
      "cement": 3940,
      "ripped": 3941,
      "club": 3942,
      "lolly": 3943,
      "tel": 3944,
      "lazy": 3945,
      "doggies": 3946,
      "spilt": 3947,
      "elec": 3948,
      "breaking": 3949,
      "dried": 3950,
      "loose": 3951,
      "chasing": 3952,
      "ory": 3953,
      "baked": 3954,
      "tember": 3955,
      "pered": 3956,
      "worms": 3957,
      "squish": 3958,
      "langu": 3959,
      "bench": 3960,
      "normal": 3961,
      "centre": 3962,
      "ites": 3963,
      "metal": 3964,
      "arr": 3965,
      "cam": 3966,
      "judy": 3967,
      "earth": 3968,
      "september": 3969,
      "gid": 3970,
      "mitt": 3971,
      "site": 3972,
      "wine": 3973,
      "noodles": 3974,
      "toby": 3975,
      "choke": 3976,
      "aling": 3977,
      "pose": 3978,
      "laid": 3979,
      "brum": 3980,
      "spiders": 3981,
      "diapers": 3982,
      "toothpaste": 3983,
      "3w": 3984,
      "jona": 3985,
      "uum": 3986,
      "todd": 3987,
      "ler": 3988,
      "cob": 3989,
      "prefer": 3990,
      "nia": 3991,
      "drawn": 3992,
      "slee": 3993,
      "hehe": 3994,
      "lif": 3995,
      "reindeer": 3996,
      "4w": 3997,
      "beard": 3998,
      "stock": 3999,
      "ami": 4000,
      "froggie": 4001,
      "jake": 4002,
      "charac": 4003,
      "kiwi": 4004,
      "tat": 4005,
      "thunder": 4006,
      "macar": 4007,
      "rasp": 4008,
      "parents": 4009,
      "buh": 4010,
      "noah": 4011,
      "mers": 4012,
      "sey": 4013,
      "area": 4014,
      "mam": 4015,
      "women": 4016,
      "oppo": 4017,
      "explain": 4018,
      "disney": 4019,
      "nibble": 4020,
      "curtain": 4021,
      "squares": 4022,
      "enjoyed": 4023,
      "swiss": 4024,
      "vacation": 4025,
      "lt": 4026,
      "sang": 4027,
      "vator": 4028,
      "vent": 4029,
      "ston": 4030,
      "lian": 4031,
      "bored": 4032,
      "bled": 4033,
      "everyday": 4034,
      "cleaner": 4035,
      "isabel": 4036,
      "cker": 4037,
      "fas": 4038,
      "ony": 4039,
      "gobble": 4040,
      "cucum": 4041,
      "language": 4042,
      "vol": 4043,
      "oud": 4044,
      "ryn": 4045,
      "calls": 4046,
      "moves": 4047,
      "barrow": 4048,
      "prince": 4049,
      "further": 4050,
      "vanilla": 4051,
      "aid": 4052,
      "ticket": 4053,
      "wis": 4054,
      "onna": 4055,
      "poppy": 4056,
      "shaking": 4057,
      "dae": 4058,
      "list": 4059,
      "kidding": 4060,
      "slip": 4061,
      "ladders": 4062,
      "jessica": 4063,
      "rhino": 4064,
      "kathryn": 4065,
      "ib": 4066,
      "mies": 4067,
      "nis": 4068,
      "sbury": 4069,
      "von": 4070,
      "noddy": 4071,
      "manchester": 4072,
      "sounded": 4073,
      "dresser": 4074,
      "duplo": 4075,
      "container": 4076,
      "tweenies": 4077,
      "itself": 4078,
      "web": 4079,
      "arrow": 4080,
      "loft": 4081,
      "baker": 4082,
      "shirts": 4083,
      "emma": 4084,
      "contro": 4085,
      "butterflies": 4086,
      "slept": 4087,
      "captain": 4088,
      "large": 4089,
      "ribbon": 4090,
      "cucumber": 4091,
      "awe": 4092,
      "fes": 4093,
      "edy": 4094,
      "abc": 4095,
      "steering": 4096,
      "slug": 4097,
      "mixer": 4098,
      "sneeze": 4099,
      "parcel": 4100,
      "dam": 4101,
      "pwww": 4102,
      "sittin": 4103,
      "itar": 4104,
      "asher": 4105,
      "rail": 4106,
      "serve": 4107,
      "puppets": 4108,
      "tails": 4109,
      "luke": 4110,
      "whining": 4111,
      "guesses": 4112,
      "vacuum": 4113,
      "cht": 4114,
      "luck": 4115,
      "ners": 4116,
      "sets": 4117,
      "weigh": 4118,
      "goof": 4119,
      "cannot": 4120,
      "main": 4121,
      "shoulder": 4122,
      "sleeps": 4123,
      "pencils": 4124,
      "waved": 4125,
      "cloud": 4126,
      "whispering": 4127,
      "bracelet": 4128,
      "apr": 4129,
      "gh": 4130,
      "anten": 4131,
      "lies": 4132,
      "didsbury": 4133,
      "preschool": 4134,
      "choochoo": 4135,
      "filled": 4136,
      "firefighter": 4137,
      "mittens": 4138,
      "xy": 4139,
      "robe": 4140,
      "mustache": 4141,
      "guitar": 4142,
      "petrol": 4143,
      "loudly": 4144,
      "hiccups": 4145,
      "trolley": 4146,
      "sylvia": 4147,
      "macaroni": 4148,
      "dling": 4149,
      "nicke": 4150,
      "thered": 4151,
      "outta": 4152,
      "stage": 4153,
      "brave": 4154,
      "swinging": 4155,
      "becca": 4156,
      "honestly": 4157,
      "fford": 4158,
      "ium": 4159,
      "zen": 4160,
      "tot": 4161,
      "address": 4162,
      "lynet": 4163,
      "ickets": 4164,
      "rolled": 4165,
      "giraffes": 4166,
      "lized": 4167,
      "scooter": 4168,
      "seaside": 4169,
      "cheerios": 4170,
      "smooth": 4171,
      "lynette": 4172,
      "separ": 4173,
      "julie": 4174,
      "gran": 4175,
      "dining": 4176,
      "business": 4177,
      "jumps": 4178,
      "buns": 4179,
      "rolls": 4180,
      "proud": 4181,
      "stamps": 4182,
      "screaming": 4183,
      "coke": 4184,
      "ial": 4185,
      "chu": 4186,
      "finding": 4187,
      "concen": 4188,
      "woods": 4189,
      "sweat": 4190,
      "teasing": 4191,
      "jonathan": 4192,
      "reci": 4193,
      "heh": 4194,
      "sec": 4195,
      "soa": 4196,
      "holly": 4197,
      "note": 4198,
      "tex": 4199,
      "anged": 4200,
      "pip": 4201,
      "puppies": 4202,
      "pork": 4203,
      "terrific": 4204,
      "dumb": 4205,
      "wie": 4206,
      "outfit": 4207,
      "finally": 4208,
      "yawn": 4209,
      "kayode": 4210,
      "desk": 4211,
      "jor": 4212,
      "jane": 4213,
      "punch": 4214,
      "⌉,": 4215,
      "mey": 4216,
      "lower": 4217,
      "coll": 4218,
      "gedy": 4219,
      "mac": 4220,
      "gotcha": 4221,
      "cont": 4222,
      "talks": 4223,
      "tommy": 4224,
      "torto": 4225,
      "knocking": 4226,
      "hugs": 4227,
      "twice": 4228,
      "crawling": 4229,
      "village": 4230,
      "passengers": 4231,
      "giddy": 4232,
      "concentr": 4233,
      "rels": 4234,
      "whad": 4235,
      "tory": 4236,
      "deed": 4237,
      "comfy": 4238,
      "josh": 4239,
      "jolly": 4240,
      "jeans": 4241,
      "walls": 4242,
      "mixing": 4243,
      "sammy": 4244,
      "touched": 4245,
      "electric": 4246,
      "⌉...": 4247,
      "dollies": 4248,
      "cord": 4249,
      "messing": 4250,
      "wheelbarrow": 4251,
      "serious": 4252,
      "aug": 4253,
      "kate": 4254,
      "ola": 4255,
      "measure": 4256,
      "tune": 4257,
      "firetruck": 4258,
      "bark": 4259,
      "swings": 4260,
      "holidays": 4261,
      "sleeves": 4262,
      "dodo": 4263,
      "stinky": 4264,
      "ically": 4265,
      "tab": 4266,
      "robot": 4267,
      "ups": 4268,
      "items": 4269,
      "kettle": 4270,
      "sip": 4271,
      "spain": 4272,
      "flag": 4273,
      "grocery": 4274,
      "raggedy": 4275,
      "awesome": 4276,
      "awhile": 4277,
      "borrow": 4278,
      "cred": 4279,
      "date": 4280,
      "tock": 4281,
      "andrew": 4282,
      "esca": 4283,
      "chuck": 4284,
      "tran": 4285,
      "steak": 4286,
      "drank": 4287,
      "gging": 4288,
      "saucer": 4289,
      "abeth": 4290,
      "whispered": 4291,
      "snoopy": 4292,
      "muffins": 4293,
      "muscles": 4294,
      "nu": 4295,
      "licking": 4296,
      "sometime": 4297,
      "cases": 4298,
      "elmo": 4299,
      "mous": 4300,
      "patsy": 4301,
      "doctors": 4302,
      "company": 4303,
      "branches": 4304,
      "luncht": 4305,
      "august": 4306,
      "lunchtime": 4307,
      "whi": 4308,
      "odd": 4309,
      "wanting": 4310,
      "iffy": 4311,
      "ceiling": 4312,
      "worth": 4313,
      "bbin": 4314,
      "tickly": 4315,
      "lizabeth": 4316,
      "smartie": 4317,
      "rhyme": 4318,
      "patient": 4319,
      "aar": 4320,
      "onion": 4321,
      "sewing": 4322,
      "tage": 4323,
      "ummhm": 4324,
      "sake": 4325,
      "cheep": 4326,
      "worse": 4327,
      "shoulders": 4328,
      "cutter": 4329,
      "conne": 4330,
      "fuss": 4331,
      "laying": 4332,
      "spanish": 4333,
      "cash": 4334,
      "hut": 4335,
      "smash": 4336,
      "reck": 4337,
      "calen": 4338,
      "timmy": 4339,
      "dece": 4340,
      "grade": 4341,
      "tru": 4342,
      "sub": 4343,
      "stroke": 4344,
      "bumpy": 4345,
      "painted": 4346,
      "horns": 4347,
      "tesco": 4348,
      "yall": 4349,
      "ition": 4350,
      "vey": 4351,
      "allen": 4352,
      "plat": 4353,
      "ppa": 4354,
      "kinder": 4355,
      "hardly": 4356,
      "awoh": 4357,
      "salami": 4358,
      "taller": 4359,
      "pointed": 4360,
      "kneel": 4361,
      "pensive": 4362,
      "tortoise": 4363,
      "calendar": 4364,
      "gare": 4365,
      "mpo": 4366,
      "urt": 4367,
      "written": 4368,
      "disgu": 4369,
      "smelly": 4370,
      "freezer": 4371,
      "hy": 4372,
      "nal": 4373,
      "undo": 4374,
      "letting": 4375,
      "ribe": 4376,
      "fool": 4377,
      "tube": 4378,
      "papers": 4379,
      "jail": 4380,
      "itches": 4381,
      "bowls": 4382,
      "jigsaws": 4383,
      "checking": 4384,
      "leader": 4385,
      "fid": 4386,
      "lily": 4387,
      "july": 4388,
      "minnie": 4389,
      "bunnies": 4390,
      "mistake": 4391,
      "problems": 4392,
      "mailbox": 4393,
      "snug": 4394,
      "paddling": 4395,
      "recently": 4396,
      "become": 4397,
      "soc": 4398,
      "roast": 4399,
      "chine": 4400,
      "sage": 4401,
      "bites": 4402,
      "pressed": 4403,
      "spi": 4404,
      "iles": 4405,
      "claws": 4406,
      "easily": 4407,
      "lord": 4408,
      "gabriel": 4409,
      "ae": 4410,
      "haw": 4411,
      "havin": 4412,
      "igan": 4413,
      "lake": 4414,
      "shadow": 4415,
      "quit": 4416,
      "tickles": 4417,
      "eighty": 4418,
      "squeaky": 4419,
      "flashing": 4420,
      "mushrooms": 4421,
      "ducklings": 4422,
      "bare": 4423,
      "dummy": 4424,
      "koo": 4425,
      "smi": 4426,
      "alley": 4427,
      "baking": 4428,
      "calf": 4429,
      "polar": 4430,
      "peared": 4431,
      "path": 4432,
      "expensive": 4433,
      "plaster": 4434,
      "sonia": 4435,
      "starfish": 4436,
      "october": 4437,
      "register": 4438,
      "sailor": 4439,
      "sla": 4440,
      "tone": 4441,
      "meas": 4442,
      "edward": 4443,
      "rage": 4444,
      "paws": 4445,
      "mask": 4446,
      "spade": 4447,
      "cheeks": 4448,
      "wrapped": 4449,
      "peaches": 4450,
      "crunchy": 4451,
      "swallow": 4452,
      "invest": 4453,
      "stink": 4454,
      "bam": 4455,
      "master": 4456,
      "alarm": 4457,
      "jamie": 4458,
      "ronald": 4459,
      "cartoon": 4460,
      "december": 4461,
      "stem": 4462,
      "idi": 4463,
      "cos": 4464,
      "ral": 4465,
      "ung": 4466,
      "unks": 4467,
      "paid": 4468,
      "spinning": 4469,
      "mari": 4470,
      "cooker": 4471,
      "creature": 4472,
      "fireworks": 4473,
      "sunglasses": 4474,
      "rence": 4475,
      "applesauce": 4476,
      "sentence": 4477,
      "moosha": 4478,
      "coats": 4479,
      "paints": 4480,
      "garten": 4481,
      "heehee": 4482,
      "yogurt": 4483,
      "valent": 4484,
      "bebe": 4485,
      "elbow": 4486,
      "shaped": 4487,
      "cheers": 4488,
      "realized": 4489,
      "beak": 4490,
      "burp": 4491,
      "marks": 4492,
      "batman": 4493,
      "sweeping": 4494,
      "possible": 4495,
      "kindergarten": 4496,
      "chinese": 4497,
      "gri": 4498,
      "gross": 4499,
      "tickets": 4500,
      "toaster": 4501,
      "seek": 4502,
      "maid": 4503,
      "sab": 4504,
      "packed": 4505,
      "tyre": 4506,
      "spor": 4507,
      "chocolates": 4508,
      "nicola": 4509,
      "seventy": 4510,
      "banged": 4511,
      "fry": 4512,
      "ative": 4513,
      "oked": 4514,
      "kevin": 4515,
      "rom": 4516,
      "bal": 4517,
      "bertie": 4518,
      "joy": 4519,
      "forever": 4520,
      "single": 4521,
      "alexander": 4522,
      "ians": 4523,
      "joke": 4524,
      "rebecca": 4525,
      "dokey": 4526,
      "vehic": 4527,
      "behave": 4528,
      "comm": 4529,
      "advent": 4530,
      "pockets": 4531,
      "buck": 4532,
      "blank": 4533,
      "dip": 4534,
      "oopsie": 4535,
      "clapping": 4536,
      "saved": 4537,
      "cindy": 4538,
      "possib": 4539,
      "cke": 4540,
      "cones": 4541,
      "doug": 4542,
      "tar": 4543,
      "vice": 4544,
      "bella": 4545,
      "sack": 4546,
      "fake": 4547,
      "shovel": 4548,
      "blind": 4549,
      "drill": 4550,
      "ject": 4551,
      "tries": 4552,
      "bikes": 4553,
      "pouring": 4554,
      "yore": 4555,
      "stream": 4556,
      "5w": 4557,
      "poke": 4558,
      "wiping": 4559,
      "abi": 4560,
      "gray": 4561,
      "cutie": 4562,
      "custo": 4563,
      "sukie": 4564,
      "catching": 4565,
      "moose": 4566,
      "skate": 4567,
      "stephan": 4568,
      "digging": 4569,
      "vitam": 4570,
      "toddler": 4571,
      "jas": 4572,
      "kar": 4573,
      "mall": 4574,
      "munch": 4575,
      "tuck": 4576,
      "lois": 4577,
      "forth": 4578,
      "shaky": 4579,
      "fac": 4580,
      "beaker": 4581,
      "lately": 4582,
      "hedgehog": 4583,
      "completely": 4584,
      "dick": 4585,
      "jay": 4586,
      "pal": 4587,
      "xter": 4588,
      "ying": 4589,
      "stable": 4590,
      "wherever": 4591,
      "rily": 4592,
      "spare": 4593,
      "louise": 4594,
      "vio": 4595,
      "charge": 4596,
      "sleeve": 4597,
      "younger": 4598,
      "paying": 4599,
      "honk": 4600,
      "magazines": 4601,
      "rhymes": 4602,
      "practice": 4603,
      "stalk": 4604,
      "control": 4605,
      "soccer": 4606,
      "oscar": 4607,
      "rah": 4608,
      "rum": 4609,
      "weed": 4610,
      "leen": 4611,
      "tapes": 4612,
      "diddle": 4613,
      "mood": 4614,
      "mower": 4615,
      "hies": 4616,
      "febru": 4617,
      "perri": 4618,
      "ugly": 4619,
      "blues": 4620,
      "booboo": 4621,
      "gravy": 4622,
      "settee": 4623,
      "flap": 4624,
      "screws": 4625,
      "sneakers": 4626,
      "expect": 4627,
      "twins": 4628,
      "february": 4629,
      "hin": 4630,
      "miffy": 4631,
      "swan": 4632,
      "sword": 4633,
      "stops": 4634,
      "betty": 4635,
      "grandmother": 4636,
      "brings": 4637,
      "awfully": 4638,
      "price": 4639,
      "windmill": 4640,
      "splashing": 4641,
      "cottage": 4642,
      "kissed": 4643,
      "camping": 4644,
      "achoo": 4645,
      "lump": 4646,
      "uary": 4647,
      "onions": 4648,
      "gown": 4649,
      "ark": 4650,
      "umn": 4651,
      "headache": 4652,
      "mini": 4653,
      "fourth": 4654,
      "spaces": 4655,
      "prick": 4656,
      "scarecrow": 4657,
      "radi": 4658,
      "invite": 4659,
      "fishies": 4660,
      "goofy": 4661,
      "gue": 4662,
      "lone": 4663,
      "wiggle": 4664,
      "memor": 4665,
      "hotel": 4666,
      "ents": 4667,
      "bothered": 4668,
      "bul": 4669,
      "nighttime": 4670,
      "stuart": 4671,
      "cran": 4672,
      "brushed": 4673,
      "clifford": 4674,
      "eeyore": 4675,
      "screen": 4676,
      "swish": 4677,
      "cotton": 4678,
      "chicks": 4679,
      "nancy": 4680,
      "tadah": 4681,
      "cers": 4682,
      "rang": 4683,
      "rece": 4684,
      "sheet": 4685,
      "welling": 4686,
      "iff": 4687,
      "shush": 4688,
      "laug": 4689,
      "buggy": 4690,
      "needle": 4691,
      "puddle": 4692,
      "chops": 4693,
      "froggy": 4694,
      "waste": 4695,
      "greedy": 4696,
      "angles": 4697,
      "elevator": 4698,
      "squirt": 4699,
      "drove": 4700,
      "sweetcorn": 4701,
      "jackie": 4702,
      "oliver": 4703,
      "confused": 4704,
      "laughed": 4705,
      "aut": 4706,
      "brow": 4707,
      "sies": 4708,
      "anth": 4709,
      "rod": 4710,
      "wires": 4711,
      "bobo": 4712,
      "tipped": 4713,
      "waves": 4714,
      "closing": 4715,
      "handies": 4716,
      "sandbox": 4717,
      "hotdog": 4718,
      "dingo": 4719,
      "classroom": 4720,
      "banda": 4721,
      "gall": 4722,
      "gary": 4723,
      "wit": 4724,
      "theo": 4725,
      "sippy": 4726,
      "pancake": 4727,
      "poppet": 4728,
      "ipment": 4729,
      "weener": 4730,
      "rectangle": 4731,
      "january": 4732,
      "krispies": 4733,
      "deedee": 4734,
      "radiator": 4735,
      "ome": 4736,
      "wand": 4737,
      "balance": 4738,
      "wheat": 4739,
      "puss": 4740,
      "joanna": 4741,
      "postbox": 4742,
      "beets": 4743,
      "stripy": 4744,
      "pennys": 4745,
      "hidden": 4746,
      "robber": 4747,
      "meeting": 4748,
      "equipment": 4749,
      "stephanie": 4750,
      "anthony": 4751,
      "fen": 4752,
      "jour": 4753,
      "nas": 4754,
      "yu": 4755,
      "err": 4756,
      "puttin": 4757,
      "dest": 4758,
      "drunk": 4759,
      "keeper": 4760,
      "jacks": 4761,
      "badge": 4762,
      "mbi": 4763,
      "brushes": 4764,
      "snowing": 4765,
      "north": 4766,
      "goats": 4767,
      "exercise": 4768,
      "antenna": 4769,
      "controller": 4770,
      "investigator": 4771,
      "wiggly": 4772,
      "held": 4773,
      "coin": 4774,
      "takin": 4775,
      "bambi": 4776,
      "channe": 4777,
      "cali": 4778,
      "peg": 4779,
      "backpack": 4780,
      "brand": 4781,
      "sorted": 4782,
      "hurray": 4783,
      "yelling": 4784,
      "pattycake": 4785,
      "uniform": 4786,
      "bing": 4787,
      "bars": 4788,
      "kan": 4789,
      "lit": 4790,
      "miles": 4791,
      "heaven": 4792,
      "icle": 4793,
      "whoever": 4794,
      "haircut": 4795,
      "rules": 4796,
      "picks": 4797,
      "sandy": 4798,
      "barney": 4799,
      "clues": 4800,
      "splish": 4801,
      "lipstick": 4802,
      "temperature": 4803,
      "autumn": 4804,
      "dare": 4805,
      "tte": 4806,
      "thread": 4807,
      "mec": 4808,
      "washer": 4809,
      "camp": 4810,
      "petal": 4811,
      "feli": 4812,
      "lax": 4813,
      "helpful": 4814,
      "squashed": 4815,
      "ipad": 4816,
      "saurus": 4817,
      "miaow": 4818,
      "spongebob": 4819,
      "measuring": 4820,
      "ai": 4821,
      "mate": 4822,
      "zach": 4823,
      "nove": 4824,
      "roland": 4825,
      "gru": 4826,
      "ducky": 4827,
      "cube": 4828,
      "partic": 4829,
      "clue": 4830,
      "airplanes": 4831,
      "center": 4832,
      "figured": 4833,
      "speaking": 4834,
      "mooshas": 4835,
      "possibly": 4836,
      "ranger": 4837,
      "tops": 4838,
      "gory": 4839,
      "bey": 4840,
      "posit": 4841,
      "abby": 4842,
      "toot": 4843,
      "turtles": 4844,
      "botbot": 4845,
      "breaks": 4846,
      "cheek": 4847,
      "jeff": 4848,
      "points": 4849,
      "olivia": 4850,
      "protect": 4851,
      "drain": 4852,
      "gif": 4853,
      "relax": 4854,
      "tag": 4855,
      "jug": 4856,
      "peppa": 4857,
      "waking": 4858,
      "beauty": 4859,
      "killed": 4860,
      "gramma": 4861,
      "geese": 4862,
      "cushions": 4863,
      "english": 4864,
      "separate": 4865,
      "disgusting": 4866,
      "channel": 4867,
      "november": 4868,
      "sig": 4869,
      "vity": 4870,
      "soil": 4871,
      "cano": 4872,
      "ical": 4873,
      "map": 4874,
      "dadda": 4875,
      "musab": 4876,
      "amoun": 4877,
      "trum": 4878,
      "helper": 4879,
      "spout": 4880,
      "marmal": 4881,
      "purpose": 4882,
      "merrily": 4883,
      "beaver": 4884,
      "dancer": 4885,
      "neenaw": 4886,
      "begin": 4887,
      "view": 4888,
      "stockport": 4889,
      "nickel": 4890,
      "bandaid": 4891,
      "marmalade": 4892,
      ",.": 4893,
      "ali": 4894,
      "fod": 4895,
      "hero": 4896,
      "harold": 4897,
      "hops": 4898,
      "alal": 4899,
      "wobbly": 4900,
      "weetabi": 4901,
      "explo": 4902,
      "breakdown": 4903,
      "began": 4904,
      "tights": 4905,
      "nappies": 4906,
      "recognizes": 4907,
      "susan": 4908,
      "weetabix": 4909,
      "bre": 4910,
      "slight": 4911,
      "hae": 4912,
      "ram": 4913,
      "nei": 4914,
      "iest": 4915,
      "ela": 4916,
      "ives": 4917,
      "tennis": 4918,
      "rist": 4919,
      "darlin": 4920,
      "float": 4921,
      "greens": 4922,
      "mustard": 4923,
      "clar": 4924,
      "skunk": 4925,
      "delivery": 4926,
      "fishes": 4927,
      "disappeared": 4928,
      "factory": 4929,
      "califor": 4930,
      "gill": 4931,
      "swa": 4932,
      "loaf": 4933,
      "locks": 4934,
      "cheating": 4935,
      "trade": 4936,
      "hunm": 4937,
      "grace": 4938,
      "favorites": 4939,
      "golden": 4940,
      "cousins": 4941,
      "prize": 4942,
      "sliding": 4943,
      "daffod": 4944,
      "apron": 4945,
      "amount": 4946,
      "brain": 4947,
      "mc": 4948,
      "mite": 4949,
      "phe": 4950,
      "pitch": 4951,
      "island": 4952,
      "dor": 4953,
      "golf": 4954,
      "taping": 4955,
      "chief": 4956,
      "forwards": 4957,
      "unusual": 4958,
      "wore": 4959,
      "dya": 4960,
      "anyways": 4961,
      "fault": 4962,
      "wondered": 4963,
      "blueberry": 4964,
      "ickers": 4965,
      "ruin": 4966,
      "dime": 4967,
      "vase": 4968,
      "whispers": 4969,
      "bumblebee": 4970,
      "opposite": 4971,
      "totally": 4972,
      "neither": 4973,
      "california": 4974,
      "dou": 4975,
      "joking": 4976,
      "kicked": 4977,
      "seth": 4978,
      "rode": 4979,
      "bop": 4980,
      "bolog": 4981,
      "ramp": 4982,
      "tered": 4983,
      "itty": 4984,
      "sorta": 4985,
      "convers": 4986,
      "chain": 4987,
      "supermarket": 4988,
      "court": 4989,
      "crocodiles": 4990,
      "managed": 4991,
      "lonely": 4992,
      "particip": 4993,
      "ais": 4994,
      "jilly": 4995,
      "snot": 4996,
      "losing": 4997,
      "tsk": 4998,
      "dexter": 4999,
      "parade": 5000,
      "gregory": 5001,
      "concer": 5002,
      "barking": 5003,
      "dropping": 5004,
      "yoyo": 5005,
      "superman": 5006,
      "wrapping": 5007,
      "cuddles": 5008,
      "celery": 5009,
      "ef": 5010,
      "rus": 5011,
      "vil": 5012,
      "wrist": 5013,
      "sew": 5014,
      "hoover": 5015,
      "roses": 5016,
      "wipes": 5017,
      "edges": 5018,
      "storm": 5019,
      "harvey": 5020,
      "burnt": 5021,
      "benjam": 5022,
      "lessons": 5023,
      "clowns": 5024,
      "motorbike": 5025,
      "cabbage": 5026,
      "scott": 5027,
      "arrived": 5028,
      "benjamin": 5029,
      "snor": 5030,
      "twi": 5031,
      "vine": 5032,
      "oper": 5033,
      "tellie": 5034,
      "pairs": 5035,
      "muddy": 5036,
      "sorting": 5037,
      "marbles": 5038,
      "simon": 5039,
      "apparent": 5040,
      "dryer": 5041,
      "woody": 5042,
      "frustr": 5043,
      "lizard": 5044,
      "melt": 5045,
      "scratched": 5046,
      "tissues": 5047,
      "morgie": 5048,
      "junk": 5049,
      "nonna": 5050,
      "lifting": 5051,
      "koolaid": 5052,
      "kanga": 5053,
      "dumper": 5054,
      "fs": 5055,
      "ith": 5056,
      "ique": 5057,
      "trans": 5058,
      "horsies": 5059,
      "stands": 5060,
      "piggies": 5061,
      "whoopsie": 5062,
      "scri": 5063,
      "sharks": 5064,
      "syrup": 5065,
      "straighten": 5066,
      "ctive": 5067,
      "stress": 5068,
      "elizabeth": 5069,
      "var": 5070,
      "sess": 5071,
      "gogg": 5072,
      "oken": 5073,
      "stan": 5074,
      "state": 5075,
      "kee": 5076,
      "erial": 5077,
      "bae": 5078,
      "players": 5079,
      "situ": 5080,
      "trapped": 5081,
      "roundabout": 5082,
      "jects": 5083,
      "choos": 5084,
      "bbles": 5085,
      "musical": 5086,
      "prints": 5087,
      "knickers": 5088,
      "bothering": 5089,
      "scotland": 5090,
      "violet": 5091,
      "participant": 5092,
      "apparently": 5093,
      "bil": 5094,
      "lves": 5095,
      "ua": 5096,
      "tow": 5097,
      "howe": 5098,
      "chic": 5099,
      "mop": 5100,
      "cait": 5101,
      "backyard": 5102,
      "pical": 5103,
      "sport": 5104,
      "fires": 5105,
      "jello": 5106,
      "ellen": 5107,
      "fifth": 5108,
      "blankets": 5109,
      "filling": 5110,
      "rubbing": 5111,
      "nibbled": 5112,
      "ave": 5113,
      "pher": 5114,
      "rant": 5115,
      "tus": 5116,
      "rever": 5117,
      "dom": 5118,
      "okes": 5119,
      "nowhere": 5120,
      "ene": 5121,
      "pox": 5122,
      "gabe": 5123,
      "paw": 5124,
      "dey": 5125,
      "blink": 5126,
      "barber": 5127,
      "bunk": 5128,
      "scrub": 5129,
      "ribly": 5130,
      "cocoa": 5131,
      "skinny": 5132,
      "shells": 5133,
      "sparkly": 5134,
      "valentine": 5135,
      "journey": 5136,
      "ffa": 5137,
      "wil": 5138,
      "julian": 5139,
      "butt": 5140,
      "fetch": 5141,
      "colin": 5142,
      "sandals": 5143,
      "kitties": 5144,
      "peace": 5145,
      "rhinocer": 5146,
      "truth": 5147,
      "aches": 5148,
      "aquar": 5149,
      "dock": 5150,
      "stat": 5151,
      "geun": 5152,
      "tim": 5153,
      "eater": 5154,
      "label": 5155,
      "hairdresser": 5156,
      "margar": 5157,
      "icker": 5158,
      "owls": 5159,
      "tinker": 5160,
      "teeny": 5161,
      "message": 5162,
      "youngeun": 5163,
      "dumbo": 5164,
      "slippery": 5165,
      "delivering": 5166,
      "felix": 5167,
      "however": 5168,
      "ffalo": 5169,
      "glo": 5170,
      "pou": 5171,
      "za": 5172,
      "rex": 5173,
      "dong": 5174,
      "boss": 5175,
      "rap": 5176,
      "unic": 5177,
      "tears": 5178,
      "litter": 5179,
      "dea": 5180,
      "steal": 5181,
      "sque": 5182,
      "sunflower": 5183,
      "tina": 5184,
      "print": 5185,
      "dub": 5186,
      "eyebrow": 5187,
      "currant": 5188,
      "hopefully": 5189,
      "design": 5190,
      "dungare": 5191,
      "doughnut": 5192,
      "twist": 5193,
      "recognized": 5194,
      "conversation": 5195,
      "amen": 5196,
      "bt": 5197,
      "wicked": 5198,
      "messed": 5199,
      "cans": 5200,
      "frost": 5201,
      "breathe": 5202,
      "birdies": 5203,
      "eagle": 5204,
      "counter": 5205,
      "pyjamas": 5206,
      "hugging": 5207,
      "hamster": 5208,
      "beepbeep": 5209,
      "coughing": 5210,
      "knit": 5211,
      "perfectly": 5212,
      "branch": 5213,
      "general": 5214,
      "depends": 5215,
      "direction": 5216,
      "brumm": 5217,
      "6w": 5218,
      "ail": 5219,
      "cling": 5220,
      "dand": 5221,
      "level": 5222,
      "stard": 5223,
      "adle": 5224,
      "peck": 5225,
      "hive": 5226,
      "gaga": 5227,
      "parking": 5228,
      "ulp": 5229,
      "guine": 5230,
      "monique": 5231,
      "experi": 5232,
      "cuts": 5233,
      "tins": 5234,
      "bobble": 5235,
      "johnathan": 5236,
      "potatos": 5237,
      "strap": 5238,
      "shouted": 5239,
      "basement": 5240,
      "character": 5241,
      "memory": 5242,
      "rhinoceros": 5243,
      "aquarium": 5244,
      "pli": 5245,
      "vic": 5246,
      "beth": 5247,
      "coach": 5248,
      "bossy": 5249,
      "forks": 5250,
      "maker": 5251,
      "timer": 5252,
      "mass": 5253,
      "muck": 5254,
      "acting": 5255,
      "scoot": 5256,
      "microwave": 5257,
      "college": 5258,
      "polish": 5259,
      "simple": 5260,
      "clarice": 5261,
      "margarine": 5262,
      "bics": 5263,
      "jones": 5264,
      "ashes": 5265,
      "arer": 5266,
      "known": 5267,
      "raa": 5268,
      "terribly": 5269,
      "parked": 5270,
      "spent": 5271,
      "sushi": 5272,
      "bowling": 5273,
      "snowball": 5274,
      "wakes": 5275,
      "caterpillars": 5276,
      "spiderman": 5277,
      "covers": 5278,
      "drawers": 5279,
      "pippo": 5280,
      "karate": 5281,
      "gillian": 5282,
      "guinea": 5283,
      "cig": 5284,
      "nug": 5285,
      "ito": 5286,
      "seam": 5287,
      "pest": 5288,
      "carried": 5289,
      "buss": 5290,
      "stew": 5291,
      "marble": 5292,
      "nights": 5293,
      "hearing": 5294,
      "fasten": 5295,
      "jewel": 5296,
      "speed": 5297,
      "rained": 5298,
      "claire": 5299,
      "lane": 5300,
      "nior": 5301,
      "aerobics": 5302,
      "teaching": 5303,
      "scram": 5304,
      "dungarees": 5305,
      "dut": 5306,
      "dal": 5307,
      "imag": 5308,
      "rout": 5309,
      "rita": 5310,
      "sour": 5311,
      "heidi": 5312,
      "stall": 5313,
      "liqu": 5314,
      "tellin": 5315,
      "chose": 5316,
      "sideways": 5317,
      "ighth": 5318,
      "ladybug": 5319,
      "pray": 5320,
      "dusting": 5321,
      "bandage": 5322,
      "tricks": 5323,
      "scratchy": 5324,
      "hamburgers": 5325,
      "prim": 5326,
      "iggling": 5327,
      "stretched": 5328,
      "decorate": 5329,
      "several": 5330,
      "slides": 5331,
      "mamma": 5332,
      "doubt": 5333,
      "slap": 5334,
      "vous": 5335,
      "cope": 5336,
      "bol": 5337,
      "shit": 5338,
      "sale": 5339,
      "ideas": 5340,
      "bras": 5341,
      "tricycle": 5342,
      "pige": 5343,
      "cromer": 5344,
      "mailman": 5345,
      "bulldo": 5346,
      "spaceship": 5347,
      "wellingtons": 5348,
      "gal": 5349,
      "relat": 5350,
      "llies": 5351,
      "ery": 5352,
      "wiped": 5353,
      "fortun": 5354,
      "juicy": 5355,
      "judge": 5356,
      "carle": 5357,
      "tables": 5358,
      "frame": 5359,
      "correct": 5360,
      "scope": 5361,
      "sharon": 5362,
      "particularly": 5363,
      "period": 5364,
      "blankie": 5365,
      "twir": 5366,
      "caitlin": 5367,
      "imagin": 5368,
      "fty": 5369,
      "pah": 5370,
      "tuh": 5371,
      "lena": 5372,
      "cane": 5373,
      "cafe": 5374,
      "posed": 5375,
      "bushes": 5376,
      "bleed": 5377,
      "frosting": 5378,
      "frozen": 5379,
      "grr": 5380,
      "blah": 5381,
      "african": 5382,
      "spank": 5383,
      "sleepin": 5384,
      "dollie": 5385,
      "kathy": 5386,
      "nik": 5387,
      "pressing": 5388,
      "tidied": 5389,
      "kimber": 5390,
      "whales": 5391,
      "event": 5392,
      "obser": 5393,
      "photos": 5394,
      "dresses": 5395,
      "univer": 5396,
      "england": 5397,
      "raspberries": 5398,
      "kneeling": 5399,
      "customer": 5400,
      "ckey": 5401,
      "fal": 5402,
      "hoh": 5403,
      "ike": 5404,
      "igno": 5405,
      "donna": 5406,
      "rake": 5407,
      "wasp": 5408,
      "wobble": 5409,
      "anya": 5410,
      "offic": 5411,
      "stepped": 5412,
      "diet": 5413,
      "porcup": 5414,
      "dragons": 5415,
      "pillows": 5416,
      "squirrels": 5417,
      "grabbed": 5418,
      "janet": 5419,
      "instructions": 5420,
      "annoyed": 5421,
      "aaron": 5422,
      "ethan": 5423,
      "heel": 5424,
      "nom": 5425,
      "mere": 5426,
      "sello": 5427,
      "coins": 5428,
      "ursu": 5429,
      "mug": 5430,
      "spen": 5431,
      "service": 5432,
      "siren": 5433,
      "dama": 5434,
      "custard": 5435,
      "blackpool": 5436,
      "trips": 5437,
      "organi": 5438,
      "itchy": 5439,
      "huff": 5440,
      "pocketbook": 5441,
      "scratching": 5442,
      "pirates": 5443,
      "bonk": 5444,
      "mended": 5445,
      "avenue": 5446,
      "dalmat": 5447,
      "ursula": 5448,
      "amer": 5449,
      "crea": 5450,
      "slo": 5451,
      "west": 5452,
      "erina": 5453,
      "tack": 5454,
      "bald": 5455,
      "abra": 5456,
      "babydoll": 5457,
      "stocking": 5458,
      "ballerina": 5459,
      "spina": 5460,
      "torch": 5461,
      "fireplace": 5462,
      "hunhunh": 5463,
      "patio": 5464,
      "hush": 5465,
      "hooked": 5466,
      "collecting": 5467,
      "cheerleader": 5468,
      "passed": 5469,
      "ewok": 5470,
      "south": 5471,
      "adventure": 5472,
      "spinach": 5473,
      "gin": 5474,
      "ila": 5475,
      "ostr": 5476,
      "slot": 5477,
      "incred": 5478,
      "ista": 5479,
      "ller": 5480,
      "someday": 5481,
      "poles": 5482,
      "laur": 5483,
      "inet": 5484,
      "sity": 5485,
      "ended": 5486,
      "hearts": 5487,
      "otter": 5488,
      "milo": 5489,
      "wardrobe": 5490,
      "slipped": 5491,
      "cardigan": 5492,
      "grows": 5493,
      "napkins": 5494,
      "crossing": 5495,
      "baaee": 5496,
      "freya": 5497,
      "cotch": 5498,
      "cartoons": 5499,
      "jerry": 5500,
      "hopscotch": 5501,
      "tusks": 5502,
      "dande": 5503,
      "cigare": 5504,
      "kimberly": 5505,
      "fab": 5506,
      "guh": 5507,
      "mur": 5508,
      "san": 5509,
      "shave": 5510,
      "ually": 5511,
      "zic": 5512,
      "repe": 5513,
      "bent": 5514,
      "belle": 5515,
      "lotion": 5516,
      "coo": 5517,
      "hoops": 5518,
      "outs": 5519,
      "somehow": 5520,
      "trap": 5521,
      "smallest": 5522,
      "kalie": 5523,
      "braid": 5524,
      "apartment": 5525,
      "goldfish": 5526,
      "knives": 5527,
      "lawnmower": 5528,
      "onnaise": 5529,
      "ribena": 5530,
      "daffodils": 5531,
      "snort": 5532,
      "seamstress": 5533,
      "laurie": 5534,
      "glove": 5535,
      "pitter": 5536,
      "tanya": 5537,
      "yuh": 5538,
      "stroller": 5539,
      "bead": 5540,
      "arrest": 5541,
      "allow": 5542,
      "ener": 5543,
      "fort": 5544,
      "necess": 5545,
      "playroom": 5546,
      "wayne": 5547,
      "stopping": 5548,
      "pub": 5549,
      "willie": 5550,
      "margie": 5551,
      "barbec": 5552,
      "jobs": 5553,
      "norman": 5554,
      "lifted": 5555,
      "towels": 5556,
      "matching": 5557,
      "disappear": 5558,
      "american": 5559,
      "fascin": 5560,
      "barbecue": 5561,
      "gulp": 5562,
      "owe": 5563,
      "xcuse": 5564,
      "wea": 5565,
      "lewis": 5566,
      "kent": 5567,
      "liam": 5568,
      "coole": 5569,
      "boiled": 5570,
      "cave": 5571,
      "background": 5572,
      "reads": 5573,
      "britt": 5574,
      "mayonnaise": 5575,
      "holds": 5576,
      "marmite": 5577,
      "horrid": 5578,
      "workin": 5579,
      "settle": 5580,
      "blackcurrant": 5581,
      "blows": 5582,
      "seats": 5583,
      "iculous": 5584,
      "sleigh": 5585,
      "carriages": 5586,
      "raisin": 5587,
      "scrape": 5588,
      "porcupine": 5589,
      "sellotape": 5590,
      "nuhhuh": 5591,
      "tut": 5592,
      "llen": 5593,
      "below": 5594,
      "erica": 5595,
      "ede": 5596,
      "notes": 5597,
      "junior": 5598,
      "makeup": 5599,
      "pave": 5600,
      "bern": 5601,
      "types": 5602,
      "ulk": 5603,
      "trampo": 5604,
      "express": 5605,
      "milkshake": 5606,
      "barret": 5607,
      "lids": 5608,
      "basically": 5609,
      "sled": 5610,
      "attached": 5611,
      "cuddly": 5612,
      "texture": 5613,
      "bulldozer": 5614,
      "agg": 5615,
      "bzz": 5616,
      "cad": 5617,
      "dice": 5618,
      "pys": 5619,
      "ordin": 5620,
      "donut": 5621,
      "daycare": 5622,
      "kings": 5623,
      "wai": 5624,
      "meaning": 5625,
      "creep": 5626,
      "cradle": 5627,
      "dave": 5628,
      "pulls": 5629,
      "fishie": 5630,
      "appreci": 5631,
      "curious": 5632,
      "sharpen": 5633,
      "suitcases": 5634,
      "lambs": 5635,
      "agh": 5636,
      "guns": 5637,
      "crust": 5638,
      "squishy": 5639,
      "poured": 5640,
      "bbling": 5641,
      "kleen": 5642,
      "oi": 5643,
      "ume": 5644,
      "lola": 5645,
      "coles": 5646,
      "sains": 5647,
      "female": 5648,
      "follo": 5649,
      "dem": 5650,
      "mane": 5651,
      "hairbrush": 5652,
      "handsome": 5653,
      "everytime": 5654,
      "rule": 5655,
      "hunt": 5656,
      "duckies": 5657,
      "lightyear": 5658,
      "jeep": 5659,
      "spoonful": 5660,
      "walkie": 5661,
      "puppys": 5662,
      "nicer": 5663,
      "burgers": 5664,
      "splinter": 5665,
      "swam": 5666,
      "ridiculous": 5667,
      "hippos": 5668,
      "agree": 5669,
      "cabinet": 5670,
      "pretzels": 5671,
      "raspberry": 5672,
      "swap": 5673,
      "phew": 5674,
      "america": 5675,
      "trampoline": 5676,
      "sainsbury": 5677,
      "ax": 5678,
      "riet": 5679,
      "sso": 5680,
      "sci": 5681,
      "tangle": 5682,
      "remo": 5683,
      "balan": 5684,
      "gage": 5685,
      "typical": 5686,
      "foo": 5687,
      "blon": 5688,
      "fizz": 5689,
      "spoil": 5690,
      "dale": 5691,
      "germs": 5692,
      "noses": 5693,
      "runny": 5694,
      "mermaid": 5695,
      "snacks": 5696,
      "zebras": 5697,
      "triangles": 5698,
      "planet": 5699,
      "beehive": 5700,
      "gardening": 5701,
      "stephen": 5702,
      "thanksgiving": 5703,
      "stingo": 5704,
      "objects": 5705,
      "peeping": 5706,
      "carrier": 5707,
      "teletubby": 5708,
      "rescu": 5709,
      "copying": 5710,
      "railway": 5711,
      "fortunately": 5712,
      "kleenex": 5713,
      "coleslaw": 5714,
      "dwar": 5715,
      "fers": 5716,
      "mah": 5717,
      "tit": 5718,
      "wuh": 5719,
      "loop": 5720,
      "utter": 5721,
      "boston": 5722,
      "teat": 5723,
      "butcher": 5724,
      "indians": 5725,
      "brr": 5726,
      "pudd": 5727,
      "artist": 5728,
      "blown": 5729,
      "toybox": 5730,
      "givin": 5731,
      "moosh": 5732,
      "burned": 5733,
      "viol": 5734,
      "garlic": 5735,
      "stronger": 5736,
      "strawberrys": 5737,
      "dolphins": 5738,
      "mountains": 5739,
      "primrose": 5740,
      "emer": 5741,
      "kna": 5742,
      "lass": 5743,
      "owie": 5744,
      "ware": 5745,
      "leop": 5746,
      "kelly": 5747,
      "hockey": 5748,
      "tacos": 5749,
      "roz": 5750,
      "bolt": 5751,
      "mock": 5752,
      "model": 5753,
      "unhunh": 5754,
      "ppity": 5755,
      "fear": 5756,
      "fellow": 5757,
      "handed": 5758,
      "reached": 5759,
      "markers": 5760,
      "fried": 5761,
      "mouthful": 5762,
      "mornin": 5763,
      "mornings": 5764,
      "pushchair": 5765,
      "snails": 5766,
      "distra": 5767,
      "landing": 5768,
      "roads": 5769,
      "twis": 5770,
      "fields": 5771,
      "planted": 5772,
      "sneak": 5773,
      "polite": 5774,
      "joshua": 5775,
      "smily": 5776,
      "sports": 5777,
      "vehicles": 5778,
      "skateboard": 5779,
      "slightly": 5780,
      "situation": 5781,
      "ore": 5782,
      "wrench": 5783,
      "tots": 5784,
      "season": 5785,
      "stiff": 5786,
      "asso": 5787,
      "mosqu": 5788,
      "nearer": 5789,
      "poison": 5790,
      "shade": 5791,
      "buzzy": 5792,
      "facing": 5793,
      "develo": 5794,
      "clop": 5795,
      "mightn": 5796,
      "exam": 5797,
      "dav": 5798,
      "contin": 5799,
      "christine": 5800,
      "flu": 5801,
      "gency": 5802,
      "piggybank": 5803,
      "tunde": 5804,
      "signs": 5805,
      "dreams": 5806,
      "beanstalk": 5807,
      "collar": 5808,
      "platform": 5809,
      "scrambled": 5810,
      "ostrich": 5811,
      "followed": 5812,
      "blonde": 5813,
      "leopard": 5814,
      "mare": 5815,
      "pins": 5816,
      "woken": 5817,
      "heck": 5818,
      "isco": 5819,
      "bein": 5820,
      "coal": 5821,
      "hopping": 5822,
      "roared": 5823,
      "untie": 5824,
      "cept": 5825,
      "dadaw": 5826,
      "grad": 5827,
      "handbag": 5828,
      "writ": 5829,
      "wrink": 5830,
      "sandpit": 5831,
      "jamm": 5832,
      "imit": 5833,
      "pans": 5834,
      "hens": 5835,
      "salmon": 5836,
      "voices": 5837,
      "split": 5838,
      "machines": 5839,
      "batterys": 5840,
      "package": 5841,
      "decorations": 5842,
      "attack": 5843,
      "crowded": 5844,
      "amelia": 5845,
      "philip": 5846,
      "characters": 5847,
      "fiddle": 5848,
      "puddles": 5849,
      "aa": 5850,
      "cie": 5851,
      "ech": 5852,
      "gates": 5853,
      "hick": 5854,
      "jj": 5855,
      "uss": 5856,
      "doc": 5857,
      "tires": 5858,
      "grrr": 5859,
      "cate": 5860,
      "rise": 5861,
      "spotty": 5862,
      "barrel": 5863,
      "finishing": 5864,
      "tractors": 5865,
      "occas": 5866,
      "georgie": 5867,
      "velcro": 5868,
      "lasag": 5869,
      "chugga": 5870,
      "eyebrows": 5871,
      "nuggets": 5872,
      "nikki": 5873,
      ",...": 5874,
      "cries": 5875,
      "witches": 5876,
      "soo": 5877,
      "tale": 5878,
      "alista": 5879,
      "tilly": 5880,
      "mommies": 5881,
      "travis": 5882,
      "colorful": 5883,
      "complain": 5884,
      "promis": 5885,
      "dial": 5886,
      "barri": 5887,
      "posting": 5888,
      "dudu": 5889,
      "skating": 5890,
      "slices": 5891,
      "buildings": 5892,
      "lesson": 5893,
      "spelling": 5894,
      "morag": 5895,
      "tasted": 5896,
      "million": 5897,
      "scooby": 5898,
      "shooting": 5899,
      "annoying": 5900,
      "prickly": 5901,
      "scribble": 5902,
      "energy": 5903,
      "alistair": 5904,
      "dye": 5905,
      "kka": 5906,
      "whing": 5907,
      "noodle": 5908,
      "meter": 5909,
      "hoping": 5910,
      "enter": 5911,
      "changes": 5912,
      "mole": 5913,
      "someplace": 5914,
      "useful": 5915,
      "fet": 5916,
      "pap": 5917,
      "girlfriend": 5918,
      "handy": 5919,
      "stein": 5920,
      "moustache": 5921,
      "horsey": 5922,
      "cubby": 5923,
      "fussy": 5924,
      "straps": 5925,
      "goldi": 5926,
      "macdonalds": 5927,
      "yawning": 5928,
      "reckon": 5929,
      "grill": 5930,
      "mallard": 5931,
      "signal": 5932,
      "university": 5933,
      "emergency": 5934,
      "cine": 5935,
      "das": 5936,
      "gah": 5937,
      "gla": 5938,
      "hits": 5939,
      "sin": 5940,
      "tess": 5941,
      "army": 5942,
      "hoop": 5943,
      "poodle": 5944,
      "ripe": 5945,
      "dadadad": 5946,
      "offer": 5947,
      "cheat": 5948,
      "funnel": 5949,
      "floating": 5950,
      "hears": 5951,
      "mousie": 5952,
      "dais": 5953,
      "nervous": 5954,
      "walkin": 5955,
      "bobbles": 5956,
      "flags": 5957,
      "fruits": 5958,
      "warmer": 5959,
      "doughnuts": 5960,
      "denver": 5961,
      "fairly": 5962,
      "linn": 5963,
      "collection": 5964,
      "jessie": 5965,
      "padding": 5966,
      "dishwasher": 5967,
      "sprinkle": 5968,
      "escape": 5969,
      "vitamins": 5970,
      "gift": 5971,
      "vinegar": 5972,
      "goldilocks": 5973,
      "loun": 5974,
      "sight": 5975,
      "yi": 5976,
      "atops": 5977,
      "ishes": 5978,
      "iche": 5979,
      "shee": 5980,
      "force": 5981,
      "alfie": 5982,
      "tech": 5983,
      "lette": 5984,
      "laure": 5985,
      "buster": 5986,
      "wered": 5987,
      "watches": 5988,
      "pers": 5989,
      "waist": 5990,
      "cata": 5991,
      "blouse": 5992,
      "prope": 5993,
      "milkman": 5994,
      "cuss": 5995,
      "badger": 5996,
      "tripped": 5997,
      "drying": 5998,
      "towers": 5999,
      "bands": 6000,
      "snat": 6001,
      "marching": 6002,
      "sneezing": 6003,
      "photographs": 6004,
      "expecting": 6005,
      "neighbors": 6006,
      "volcano": 6007,
      "aislinn": 6008,
      "observer": 6009,
      "remote": 6010,
      "teatime": 6011,
      "thief": 6012,
      "hare": 6013,
      "cola": 6014,
      "raise": 6015,
      "floppy": 6016,
      "marker": 6017,
      "harriet": 6018,
      "rusty": 6019,
      "sible": 6020,
      "pipes": 6021,
      "potter": 6022,
      "letterbox": 6023,
      "peepo": 6024,
      "cryin": 6025,
      "teething": 6026,
      "selling": 6027,
      "quarters": 6028,
      "celebr": 6029,
      "erase": 6030,
      "tabitha": 6031,
      "tyrese": 6032,
      "elaine": 6033,
      ":.": 6034,
      "giggle": 6035,
      "hulk": 6036,
      "mun": 6037,
      "mitten": 6038,
      "toad": 6039,
      "wes": 6040,
      "stac": 6041,
      "asha": 6042,
      "colla": 6043,
      "umhum": 6044,
      "unfortunately": 6045,
      "saving": 6046,
      "gam": 6047,
      "willy": 6048,
      "wawa": 6049,
      "lenita": 6050,
      "runnin": 6051,
      "barks": 6052,
      "speech": 6053,
      "crooked": 6054,
      "cardboard": 6055,
      "crashing": 6056,
      "lynn": 6057,
      "peacock": 6058,
      "knick": 6059,
      "sailing": 6060,
      "popsicle": 6061,
      "marianne": 6062,
      "bologna": 6063,
      "frustrated": 6064,
      "bethany": 6065,
      "appreciate": 6066,
      "lassie": 6067,
      "associ": 6068,
      "jammies": 6069,
      "dles": 6070,
      "gys": 6071,
      "rie": 6072,
      "skitt": 6073,
      "wre": 6074,
      "wrest": 6075,
      "rek": 6076,
      "rey": 6077,
      "andre": 6078,
      "arth": 6079,
      "ico": 6080,
      "peppers": 6081,
      "quicker": 6082,
      "brid": 6083,
      "desert": 6084,
      "presid": 6085,
      "shove": 6086,
      "headsets": 6087,
      "waited": 6088,
      "glug": 6089,
      "dancin": 6090,
      "earring": 6091,
      "snowy": 6092,
      "fingernails": 6093,
      "burning": 6094,
      "mixture": 6095,
      "desc": 6096,
      "porch": 6097,
      "hooks": 6098,
      "crisp": 6099,
      "safety": 6100,
      "invited": 6101,
      "freddy": 6102,
      "jillian": 6103,
      "generally": 6104,
      "activity": 6105,
      "damn": 6106,
      "cubes": 6107,
      "position": 6108,
      "courtney": 6109,
      "incredible": 6110,
      "occasion": 6111,
      "lounge": 6112,
      "pouch": 6113,
      "rica": 6114,
      "vas": 6115,
      "hairy": 6116,
      "coaster": 6117,
      "chor": 6118,
      "wellies": 6119,
      "unhuh": 6120,
      "carries": 6121,
      "checked": 6122,
      "preg": 6123,
      "frosty": 6124,
      "cated": 6125,
      "mars": 6126,
      "nightmare": 6127,
      "gerrold": 6128,
      "bbing": 6129,
      "mothers": 6130,
      "pastry": 6131,
      "ponies": 6132,
      "pinched": 6133,
      "melted": 6134,
      "spells": 6135,
      "ledge": 6136,
      "groceries": 6137,
      "whiny": 6138,
      "teaspo": 6139,
      "parcels": 6140,
      "sniffing": 6141,
      "jordan": 6142,
      "transm": 6143,
      "snuggle": 6144,
      "creatures": 6145,
      "petals": 6146,
      "pliers": 6147,
      "eventually": 6148,
      "lauren": 6149,
      "buses": 6150,
      "gree": 6151,
      "mps": 6152,
      "ske": 6153,
      "wig": 6154,
      "strings": 6155,
      "became": 6156,
      "oho": 6157,
      "yey": 6158,
      "mos": 6159,
      "abig": 6160,
      "fei": 6161,
      "material": 6162,
      "spec": 6163,
      "blame": 6164,
      "crystal": 6165,
      "records": 6166,
      "prof": 6167,
      "bats": 6168,
      "gentleman": 6169,
      "logs": 6170,
      "filming": 6171,
      "sucking": 6172,
      "tadpoles": 6173,
      "scales": 6174,
      "arrange": 6175,
      "fences": 6176,
      "dyou": 6177,
      "nn": 6178,
      "wid": 6179,
      "yol": 6180,
      "inches": 6181,
      "ising": 6182,
      "seuss": 6183,
      "lofty": 6184,
      "baw": 6185,
      "racco": 6186,
      "undone": 6187,
      "ply": 6188,
      "altogether": 6189,
      "pebbles": 6190,
      "moms": 6191,
      "stole": 6192,
      "worn": 6193,
      "shock": 6194,
      "mint": 6195,
      "africa": 6196,
      "eled": 6197,
      "project": 6198,
      "jet": 6199,
      "snaps": 6200,
      "diesel": 6201,
      "glu": 6202,
      "suggest": 6203,
      "woofwoof": 6204,
      "sledge": 6205,
      "rotten": 6206,
      "chickie": 6207,
      "millions": 6208,
      "leaning": 6209,
      "bernard": 6210,
      "abigail": 6211,
      "7w": 6212,
      "dive": 6213,
      "smashed": 6214,
      "tart": 6215,
      "dore": 6216,
      "goal": 6217,
      "leo": 6218,
      "adri": 6219,
      "tipping": 6220,
      "pud": 6221,
      "chopping": 6222,
      "greg": 6223,
      "spins": 6224,
      "mation": 6225,
      "ggies": 6226,
      "driven": 6227,
      "mimi": 6228,
      "winner": 6229,
      "washcloth": 6230,
      "pleas": 6231,
      "beast": 6232,
      "ladybirds": 6233,
      "eee": 6234,
      "ural": 6235,
      "smelling": 6236,
      "castles": 6237,
      "smiley": 6238,
      "safely": 6239,
      "drums": 6240,
      "tricer": 6241,
      "nicky": 6242,
      "ville": 6243,
      "recipe": 6244,
      "unicorn": 6245,
      "liquid": 6246,
      "officer": 6247,
      "cinema": 6248,
      "paddington": 6249,
      "cul": 6250,
      "dly": 6251,
      "fir": 6252,
      "iers": 6253,
      "sche": 6254,
      "wreck": 6255,
      "ats": 6256,
      "dobbin": 6257,
      "search": 6258,
      "beating": 6259,
      "arian": 6260,
      "ution": 6261,
      "tac": 6262,
      "rolly": 6263,
      "rocky": 6264,
      "buckets": 6265,
      "shore": 6266,
      "ulous": 6267,
      "trunks": 6268,
      "crum": 6269,
      "teaches": 6270,
      "sillybilly": 6271,
      "pier": 6272,
      "actual": 6273,
      "setting": 6274,
      "blackberries": 6275,
      "raincoat": 6276,
      "distur": 6277,
      "trim": 6278,
      "duvet": 6279,
      "boards": 6280,
      "drivers": 6281,
      "skates": 6282,
      "piles": 6283,
      "neighborhood": 6284,
      "tablets": 6285,
      "violin": 6286,
      "alike": 6287,
      "bie": 6288,
      "fuck": 6289,
      "ude": 6290,
      "vans": 6291,
      "thump": 6292,
      "lls": 6293,
      "medi": 6294,
      "arily": 6295,
      "lollies": 6296,
      "ident": 6297,
      "cowen": 6298,
      "rover": 6299,
      "wiz": 6300,
      "bom": 6301,
      "chilly": 6302,
      "moth": 6303,
      "tem": 6304,
      "justin": 6305,
      "shawn": 6306,
      "tyran": 6307,
      "ourselves": 6308,
      "pushes": 6309,
      "alrighty": 6310,
      "ults": 6311,
      "finds": 6312,
      "darker": 6313,
      "stetho": 6314,
      "storys": 6315,
      "walker": 6316,
      "gerbil": 6317,
      "appro": 6318,
      "suc": 6319,
      "drown": 6320,
      "elli": 6321,
      "knob": 6322,
      "bumps": 6323,
      "spotted": 6324,
      "spilling": 6325,
      "ninight": 6326,
      "videos": 6327,
      "aeroplanes": 6328,
      "rrrr": 6329,
      "italian": 6330,
      "ponytail": 6331,
      "magnetic": 6332,
      "budgie": 6333,
      "exercises": 6334,
      "tata": 6335,
      "abcs": 6336,
      "snatch": 6337,
      "triceratops": 6338,
      "fris": 6339,
      "sch": 6340,
      "tread": 6341,
      "theater": 6342,
      "meike": 6343,
      "andra": 6344,
      "igu": 6345,
      "cocke": 6346,
      "adult": 6347,
      "boiling": 6348,
      "itted": 6349,
      "shie": 6350,
      "shrek": 6351,
      "matt": 6352,
      "cookin": 6353,
      "dripping": 6354,
      "dawn": 6355,
      "piggle": 6356,
      "ooo": 6357,
      "graham": 6358,
      "barrels": 6359,
      "chickenpox": 6360,
      "ladybugs": 6361,
      "counted": 6362,
      "menti": 6363,
      "lantern": 6364,
      "misses": 6365,
      "scene": 6366,
      "winding": 6367,
      "covering": 6368,
      "doodoo": 6369,
      "freezing": 6370,
      "lemons": 6371,
      "sailboat": 6372,
      "crabs": 6373,
      "decoration": 6374,
      "pavement": 6375,
      "mosquito": 6376,
      "arthur": 6377,
      "president": 6378,
      "stethoscope": 6379,
      "aur": 6380,
      "astr": 6381,
      "glitter": 6382,
      "hint": 6383,
      "lish": 6384,
      "rich": 6385,
      "sul": 6386,
      "spic": 6387,
      "wars": 6388,
      "xie": 6389,
      "thor": 6390,
      "refle": 6391,
      "repair": 6392,
      "loops": 6393,
      "soggy": 6394,
      "rodu": 6395,
      "jugg": 6396,
      "pompo": 6397,
      "shri": 6398,
      "babyschool": 6399,
      "dads": 6400,
      "pac": 6401,
      "chemis": 6402,
      "storage": 6403,
      "parach": 6404,
      "rooms": 6405,
      "spitting": 6406,
      "cooks": 6407,
      "farmers": 6408,
      "hanger": 6409,
      "telephones": 6410,
      "bumper": 6411,
      "whack": 6412,
      "tighten": 6413,
      "smiles": 6414,
      "newspapers": 6415,
      "rascal": 6416,
      "instruments": 6417,
      "soldiers": 6418,
      "joyce": 6419,
      "jaylen": 6420,
      "jackson": 6421,
      "bink": 6422,
      "kong": 6423,
      "tling": 6424,
      "wink": 6425,
      "yan": 6426,
      "argu": 6427,
      "cocon": 6428,
      "unzip": 6429,
      "alad": 6430,
      "gavin": 6431,
      "bitsy": 6432,
      "mul": 6433,
      "mummys": 6434,
      "sidewalk": 6435,
      "stain": 6436,
      "compost": 6437,
      "final": 6438,
      "surely": 6439,
      "dribble": 6440,
      "blosso": 6441,
      "mouths": 6442,
      "winning": 6443,
      "cula": 6444,
      "sixth": 6445,
      "cia": 6446,
      "swiper": 6447,
      "saucers": 6448,
      "bangs": 6449,
      "shakes": 6450,
      "meals": 6451,
      "collected": 6452,
      "knitting": 6453,
      "gums": 6454,
      "priv": 6455,
      "folded": 6456,
      "grownups": 6457,
      "plugged": 6458,
      "chatter": 6459,
      "patterns": 6460,
      "texas": 6461,
      "whaddya": 6462,
      "jasmine": 6463,
      "rangers": 6464,
      "reversing": 6465,
      "squeal": 6466,
      "imagination": 6467,
      "coconut": 6468,
      "flan": 6469,
      "muh": 6470,
      "sigh": 6471,
      "tck": 6472,
      "mechan": 6473,
      "aroun": 6474,
      "xxxx": 6475,
      "cobra": 6476,
      "taped": 6477,
      "root": 6478,
      "likely": 6479,
      "boil": 6480,
      "bomb": 6481,
      "mow": 6482,
      "within": 6483,
      "rack": 6484,
      "teles": 6485,
      "testing": 6486,
      "peggy": 6487,
      "urgh": 6488,
      "daddies": 6489,
      "dadada": 6490,
      "famous": 6491,
      "deid": 6492,
      "muff": 6493,
      "manners": 6494,
      "gras": 6495,
      "ulah": 6496,
      "trave": 6497,
      "ending": 6498,
      "reamed": 6499,
      "training": 6500,
      "standin": 6501,
      "bloom": 6502,
      "bathtime": 6503,
      "gracious": 6504,
      "introdu": 6505,
      "panties": 6506,
      "rainy": 6507,
      "shopkeeper": 6508,
      "drag": 6509,
      "sensible": 6510,
      "microphones": 6511,
      "summertime": 6512,
      "denise": 6513,
      "freeze": 6514,
      "combing": 6515,
      "invit": 6516,
      "ronnie": 6517,
      "gasped": 6518,
      "health": 6519,
      "natural": 6520,
      "koala": 6521,
      "sniff": 6522,
      "tumble": 6523,
      "concentrate": 6524,
      "gruffalo": 6525,
      "organized": 6526,
      "tangled": 6527,
      "cockerel": 6528,
      "toward": 6529,
      "sted": 6530,
      "sof": 6531,
      "liver": 6532,
      "lilly": 6533,
      "holy": 6534,
      "shelves": 6535,
      "polo": 6536,
      "pple": 6537,
      "laces": 6538,
      "gather": 6539,
      "pau": 6540,
      "packing": 6541,
      "among": 6542,
      "parties": 6543,
      "prefers": 6544,
      "redi": 6545,
      "omi": 6546,
      "chili": 6547,
      "angels": 6548,
      "blueberries": 6549,
      "doorbell": 6550,
      "dripped": 6551,
      "throws": 6552,
      "oldest": 6553,
      "direct": 6554,
      "fishy": 6555,
      "hotdogs": 6556,
      "glor": 6557,
      "impress": 6558,
      "ticktock": 6559,
      "seventh": 6560,
      "struck": 6561,
      "banner": 6562,
      "bottoms": 6563,
      "policemen": 6564,
      "tickled": 6565,
      "seagu": 6566,
      "hills": 6567,
      "stirring": 6568,
      "legos": 6569,
      "spanking": 6570,
      "rushing": 6571,
      "toddlers": 6572,
      "xylo": 6573,
      "bulb": 6574,
      "session": 6575,
      "jewelry": 6576,
      "spencer": 6577,
      "transmitter": 6578,
      "mentioned": 6579,
      "deidre": 6580,
      "fum": 6581,
      "kk": 6582,
      "lug": 6583,
      "oof": 6584,
      "oom": 6585,
      "sara": 6586,
      "ual": 6587,
      "usher": 6588,
      "attic": 6589,
      "rer": 6590,
      "ingredi": 6591,
      "dotty": 6592,
      "mering": 6593,
      "igloo": 6594,
      "aller": 6595,
      "hol": 6596,
      "tam": 6597,
      "tips": 6598,
      "playdoh": 6599,
      "chef": 6600,
      "muddle": 6601,
      "happily": 6602,
      "tens": 6603,
      "betcha": 6604,
      "mince": 6605,
      "psst": 6606,
      "drip": 6607,
      "talkie": 6608,
      "lightning": 6609,
      "jacob": 6610,
      "hangers": 6611,
      "tress": 6612,
      "dracula": 6613,
      "flush": 6614,
      "miser": 6615,
      "peekababy": 6616,
      "vida": 6617,
      "hula": 6618,
      "vinny": 6619,
      "wooly": 6620,
      "larry": 6621,
      "bonfire": 6622,
      "grownup": 6623,
      "babysitter": 6624,
      "alligators": 6625,
      "attach": 6626,
      "lobsters": 6627,
      "ships": 6628,
      "archie": 6629,
      "simba": 6630,
      "scale": 6631,
      "directions": 6632,
      "concentrating": 6633,
      "connect": 6634,
      "vitamin": 6635,
      "bingo": 6636,
      "statue": 6637,
      "rapid": 6638,
      "bleeding": 6639,
      "fabulous": 6640,
      "fascinated": 6641,
      "ordinary": 6642,
      "teaspoon": 6643,
      "dit": 6644,
      "kuh": 6645,
      "nant": 6646,
      "scan": 6647,
      "zie": 6648,
      "inje": 6649,
      "lers": 6650,
      "iris": 6651,
      "rains": 6652,
      "cape": 6653,
      "nemo": 6654,
      "anytime": 6655,
      "brisco": 6656,
      "worst": 6657,
      "shook": 6658,
      "chio": 6659,
      "florence": 6660,
      "sizes": 6661,
      "baths": 6662,
      "squid": 6663,
      "sandcastle": 6664,
      "asks": 6665,
      "east": 6666,
      "fella": 6667,
      "discuss": 6668,
      "cycling": 6669,
      "movin": 6670,
      "splat": 6671,
      "diggers": 6672,
      "jellyfish": 6673,
      "lynne": 6674,
      "paddy": 6675,
      "cockro": 6676,
      "beanbag": 6677,
      "compli": 6678,
      "stressed": 6679,
      "franc": 6680,
      "massive": 6681,
      "science": 6682,
      "entertain": 6683,
      "sheets": 6684,
      "pregnant": 6685,
      "medium": 6686,
      "elliot": 6687,
      "telescope": 6688,
      "xylophone": 6689,
      "bree": 6690,
      "due": 6691,
      "ez": 6692,
      "git": 6693,
      "gus": 6694,
      "glen": 6695,
      "jon": 6696,
      "lks": 6697,
      "mye": 6698,
      "owww": 6699,
      "oval": 6700,
      "sile": 6701,
      "stant": 6702,
      "keith": 6703,
      "asian": 6704,
      "ades": 6705,
      "bots": 6706,
      "myard": 6707,
      "vert": 6708,
      "carav": 6709,
      "icky": 6710,
      "deter": 6711,
      "choices": 6712,
      "catches": 6713,
      "stacking": 6714,
      "spy": 6715,
      "purr": 6716,
      "pips": 6717,
      "pleasure": 6718,
      "sundae": 6719,
      "jama": 6720,
      "guessing": 6721,
      "clips": 6722,
      "farmyard": 6723,
      "dude": 6724,
      "burst": 6725,
      "slipping": 6726,
      "syll": 6727,
      "jams": 6728,
      "rider": 6729,
      "recorded": 6730,
      "invol": 6731,
      "spanner": 6732,
      "squashing": 6733,
      "compared": 6734,
      "depart": 6735,
      "nuis": 6736,
      "sooty": 6737,
      "raccoon": 6738,
      "pleasant": 6739,
      "wizard": 6740,
      "chemist": 6741,
      "bitty": 6742,
      "⌋...": 6743,
      "attra": 6744,
      "rent": 6745,
      "return": 6746,
      "nother": 6747,
      "tol": 6748,
      "toss": 6749,
      "mea": 6750,
      "coca": 6751,
      "adjust": 6752,
      "chucky": 6753,
      "uppy": 6754,
      "neil": 6755,
      "terms": 6756,
      "dying": 6757,
      "daytime": 6758,
      "cello": 6759,
      "cara": 6760,
      "pail": 6761,
      "overall": 6762,
      "chewed": 6763,
      "delive": 6764,
      "sss": 6765,
      "precious": 6766,
      "phon": 6767,
      "combin": 6768,
      "shown": 6769,
      "schools": 6770,
      "underwear": 6771,
      "torn": 6772,
      "piglets": 6773,
      "ference": 6774,
      "diego": 6775,
      "impressed": 6776,
      "beetle": 6777,
      "visible": 6778,
      "curl": 6779,
      "stores": 6780,
      "courage": 6781,
      "surfing": 6782,
      "tallulah": 6783,
      "style": 6784,
      "lorrys": 6785,
      "ninth": 6786,
      "paddle": 6787,
      "snoo": 6788,
      "auber": 6789,
      "fisher": 6790,
      "sneaky": 6791,
      "envelopes": 6792,
      "cuddling": 6793,
      "frances": 6794,
      "franken": 6795,
      "skipping": 6796,
      "swallowed": 6797,
      "active": 6798,
      "soaking": 6799,
      "smith": 6800,
      "vehicle": 6801,
      "guest": 6802,
      "trumpet": 6803,
      "goggins": 6804,
      "barrier": 6805,
      "catalog": 6806,
      "nuisance": 6807,
      "cri": 6808,
      "nummy": 6809,
      "rit": 6810,
      "valley": 6811,
      "youse": 6812,
      "ata": 6813,
      "infor": 6814,
      "llas": 6815,
      "mex": 6816,
      "lene": 6817,
      "ari": 6818,
      "wanta": 6819,
      "bobbin": 6820,
      "und": 6821,
      "pling": 6822,
      "albert": 6823,
      "pegs": 6824,
      "playpen": 6825,
      "ounce": 6826,
      "pamper": 6827,
      "qui": 6828,
      "brad": 6829,
      "spir": 6830,
      "steep": 6831,
      "marty": 6832,
      "tablecloth": 6833,
      "fallin": 6834,
      "differently": 6835,
      "kyle": 6836,
      "patter": 6837,
      "clk": 6838,
      "itsy": 6839,
      "pizzas": 6840,
      "straws": 6841,
      "benny": 6842,
      "laughs": 6843,
      "drawings": 6844,
      "babababa": 6845,
      "version": 6846,
      "barbies": 6847,
      "poopie": 6848,
      "skipped": 6849,
      "soldier": 6850,
      "dickory": 6851,
      "omelette": 6852,
      "snotty": 6853,
      "pigeons": 6854,
      "necessarily": 6855,
      "weasel": 6856,
      "barrette": 6857,
      "propeller": 6858,
      "miserable": 6859,
      "bound": 6860,
      "ient": 6861,
      "rsa": 6862,
      "ud": 6863,
      "wanda": 6864,
      "inton": 6865,
      "anchor": 6866,
      "namon": 6867,
      "coaches": 6868,
      "gem": 6869,
      "chill": 6870,
      "shepher": 6871,
      "putta": 6872,
      "hmallow": 6873,
      "thingy": 6874,
      "popping": 6875,
      "term": 6876,
      "whew": 6877,
      "toots": 6878,
      "chees": 6879,
      "ulu": 6880,
      "trad": 6881,
      "trust": 6882,
      "blin": 6883,
      "spice": 6884,
      "watchin": 6885,
      "peoples": 6886,
      "drinkin": 6887,
      "grandfather": 6888,
      "diary": 6889,
      "cuff": 6890,
      "snapped": 6891,
      "mummies": 6892,
      "snowballs": 6893,
      "hahaha": 6894,
      "scruff": 6895,
      "flake": 6896,
      "pointment": 6897,
      "smiled": 6898,
      "luca": 6899,
      "cinnamon": 6900,
      "peeling": 6901,
      "lollipops": 6902,
      "crunching": 6903,
      "credit": 6904,
      "smashing": 6905,
      "hickory": 6906,
      "marshmallow": 6907,
      "parachute": 6908,
      "blossom": 6909,
      "ingredients": 6910,
      "delivered": 6911,
      "1u": 6912,
      "bic": 6913,
      "blast": 6914,
      "dash": 6915,
      "jt": 6916,
      "lab": 6917,
      "sill": 6918,
      "sses": 6919,
      "tah": 6920,
      "zita": 6921,
      "respon": 6922,
      "nosy": 6923,
      "rots": 6924,
      "nels": 6925,
      "plu": 6926,
      "pope": 6927,
      "bub": 6928,
      "willem": 6929,
      "wax": 6930,
      "grin": 6931,
      "headed": 6932,
      "waterfall": 6933,
      "stealing": 6934,
      "marvel": 6935,
      "dairy": 6936,
      "ladys": 6937,
      "squiggly": 6938,
      "grammy": 6939,
      "rollers": 6940,
      "bruise": 6941,
      "chased": 6942,
      "treating": 6943,
      "brakes": 6944,
      "ette": 6945,
      "struction": 6946,
      "ription": 6947,
      "yelled": 6948,
      "disappointed": 6949,
      ":::": 6950,
      "instrument": 6951,
      "patience": 6952,
      "sprouts": 6953,
      "jersey": 6954,
      "destroy": 6955,
      "routine": 6956,
      "damage": 6957,
      "occasionally": 6958,
      "caravan": 6959,
      "meadow": 6960,
      "8w": 6961,
      "dition": 6962,
      "evil": 6963,
      "pok": 6964,
      "tay": 6965,
      "doro": 6966,
      "habit": 6967,
      "stin": 6968,
      "advert": 6969,
      "lookit": 6970,
      "didl": 6971,
      "myster": 6972,
      "china": 6973,
      "somersa": 6974,
      "major": 6975,
      "united": 6976,
      "goody": 6977,
      "goodnight": 6978,
      "anyhow": 6979,
      "backs": 6980,
      "gap": 6981,
      "parrots": 6982,
      "travel": 6983,
      "phy": 6984,
      "mara": 6985,
      "daet": 6986,
      "planning": 6987,
      "peeking": 6988,
      "drool": 6989,
      "posted": 6990,
      "strate": 6991,
      "mending": 6992,
      "answered": 6993,
      "sieve": 6994,
      "excused": 6995,
      "personal": 6996,
      "ankle": 6997,
      "kenny": 6998,
      "tomatos": 6999,
      "reaching": 7000,
      "snoring": 7001,
      "clearly": 7002,
      "sprink": 7003,
      "fashi": 7004,
      "sweatshirt": 7005,
      "baloney": 7006,
      "yuc": 7007,
      "concert": 7008,
      "sainsburys": 7009,
      "shield": 7010,
      "grassho": 7011,
      "ase": 7012,
      "bay": 7013,
      "ext": 7014,
      "ji": 7015,
      "nuh": 7016,
      "ption": 7017,
      "rash": 7018,
      "ttes": 7019,
      "”,": 7020,
      "renee": 7021,
      "ities": 7022,
      "isa": 7023,
      "tore": 7024,
      "gop": 7025,
      "lef": 7026,
      "hap": 7027,
      "oky": 7028,
      "lod": 7029,
      "naway": 7030,
      "cosy": 7031,
      "donkeys": 7032,
      "thinkin": 7033,
      "alison": 7034,
      "pety": 7035,
      "carwash": 7036,
      "pause": 7037,
      "brrm": 7038,
      "chopped": 7039,
      "alrightie": 7040,
      "ulars": 7041,
      "headband": 7042,
      "zzie": 7043,
      "comma": 7044,
      "stest": 7045,
      "marry": 7046,
      "deary": 7047,
      "runaway": 7048,
      "birthdays": 7049,
      "cuz": 7050,
      "partner": 7051,
      "awk": 7052,
      "missy": 7053,
      "ticky": 7054,
      "staring": 7055,
      "cracked": 7056,
      "visiting": 7057,
      "nips": 7058,
      "salty": 7059,
      "lands": 7060,
      "chers": 7061,
      "calpol": 7062,
      "squeaks": 7063,
      "flatten": 7064,
      "scottie": 7065,
      "diamon": 7066,
      "passenger": 7067,
      "weights": 7068,
      "soul": 7069,
      "barely": 7070,
      "slam": 7071,
      "weeds": 7072,
      "ignore": 7073,
      "dalmatian": 7074,
      "flannel": 7075,
      "department": 7076,
      "pluto": 7077,
      "dorothy": 7078,
      "didldow": 7079,
      "ace": 7080,
      "pand": 7081,
      "poking": 7082,
      "vir": 7083,
      "yip": 7084,
      "inn": 7085,
      "erh": 7086,
      "geoff": 7087,
      "tales": 7088,
      "roger": 7089,
      "umsy": 7090,
      "washes": 7091,
      "unhappy": 7092,
      "uncomfortable": 7093,
      "tive": 7094,
      "saint": 7095,
      "elsie": 7096,
      "lac": 7097,
      "devil": 7098,
      "ility": 7099,
      "mana": 7100,
      "clocks": 7101,
      "mines": 7102,
      "serving": 7103,
      "mighty": 7104,
      "psi": 7105,
      "dries": 7106,
      "daw": 7107,
      "singsong": 7108,
      "wins": 7109,
      "france": 7110,
      "clumsy": 7111,
      "swims": 7112,
      "binoc": 7113,
      "baskets": 7114,
      "burgl": 7115,
      "pinga": 7116,
      "flipping": 7117,
      "switched": 7118,
      "tubby": 7119,
      "lined": 7120,
      "eensie": 7121,
      "nonsense": 7122,
      "confusing": 7123,
      "bootie": 7124,
      "firefighters": 7125,
      "whizz": 7126,
      "spiky": 7127,
      "beyond": 7128,
      "edena": 7129,
      "$=": 7130,
      "ewe": 7131,
      "eva": 7132,
      "gang": 7133,
      "ois": 7134,
      "rin": 7135,
      "spar": 7136,
      "reel": 7137,
      "invisible": 7138,
      "hell": 7139,
      "dodie": 7140,
      "gos": 7141,
      "whata": 7142,
      "ors": 7143,
      "sten": 7144,
      "logy": 7145,
      "icter": 7146,
      "naomi": 7147,
      "macha": 7148,
      "poppers": 7149,
      "indi": 7150,
      "pappy": 7151,
      "cheap": 7152,
      "mucky": 7153,
      "stomacha": 7154,
      "grou": 7155,
      "grant": 7156,
      "shots": 7157,
      "accent": 7158,
      "darn": 7159,
      "homemade": 7160,
      "commer": 7161,
      "finishes": 7162,
      "stepping": 7163,
      "exha": 7164,
      "listens": 7165,
      "danie": 7166,
      "ticklish": 7167,
      "mention": 7168,
      "beautifu": 7169,
      "pron": 7170,
      "astic": 7171,
      "slur": 7172,
      "swimmin": 7173,
      "curls": 7174,
      "lley": 7175,
      "sym": 7176,
      "washington": 7177,
      "cloudy": 7178,
      "bellybutton": 7179,
      "sells": 7180,
      "dreaming": 7181,
      "babes": 7182,
      "flashlight": 7183,
      "vities": 7184,
      "slugs": 7185,
      "mariana": 7186,
      "munching": 7187,
      "sippycup": 7188,
      "death": 7189,
      "repeat": 7190,
      "promised": 7191,
      "success": 7192,
      "private": 7193,
      "popeye": 7194,
      "binoculars": 7195,
      "stomachache": 7196,
      "ered": 7197,
      "eighth": 7198,
      "kah": 7199,
      "lighth": 7200,
      "mich": 7201,
      "pala": 7202,
      "trot": 7203,
      "indoors": 7204,
      "ante": 7205,
      "strain": 7206,
      "loving": 7207,
      "ences": 7208,
      "chy": 7209,
      "forms": 7210,
      "raggy": 7211,
      "unscrew": 7212,
      "comere": 7213,
      "safar": 7214,
      "carni": 7215,
      "uckle": 7216,
      "coln": 7217,
      "spoke": 7218,
      "ruby": 7219,
      "forehead": 7220,
      "cricter": 7221,
      "resting": 7222,
      "plans": 7223,
      "sully": 7224,
      "dollys": 7225,
      "challen": 7226,
      "human": 7227,
      "italy": 7228,
      "twig": 7229,
      "wishing": 7230,
      "lincoln": 7231,
      "crispies": 7232,
      "rrr": 7233,
      "sneezed": 7234,
      "onaut": 7235,
      "practicing": 7236,
      "kota": 7237,
      "delight": 7238,
      "chantilly": 7239,
      "luckily": 7240,
      "buckle": 7241,
      "robbers": 7242,
      "heavens": 7243,
      "brittany": 7244,
      "rescued": 7245,
      "skittles": 7246,
      "bawk": 7247,
      "luggage": 7248,
      "overalls": 7249,
      "aubergine": 7250,
      "frankenstein": 7251,
      "cheesy": 7252,
      "diamonds": 7253,
      "beautifully": 7254,
      "lighthouse": 7255,
      "palace": 7256,
      "ado": 7257,
      "dur": 7258,
      "kirst": 7259,
      "nip": 7260,
      "oid": 7261,
      "oca": 7262,
      "oly": 7263,
      "zig": 7264,
      "report": 7265,
      "recess": 7266,
      "init": 7267,
      "whiche": 7268,
      "mets": 7269,
      "orig": 7270,
      "ordered": 7271,
      "sti": 7272,
      "nac": 7273,
      "coop": 7274,
      "eddy": 7275,
      "littler": 7276,
      "sai": 7277,
      "girlie": 7278,
      "sites": 7279,
      "helmets": 7280,
      "fier": 7281,
      "stere": 7282,
      "marvin": 7283,
      "ruler": 7284,
      "madison": 7285,
      "leslie": 7286,
      "hatch": 7287,
      "smoking": 7288,
      "clara": 7289,
      "setto": 7290,
      "fudge": 7291,
      "stroking": 7292,
      "trevor": 7293,
      "dusty": 7294,
      "flaming": 7295,
      "sending": 7296,
      "bounces": 7297,
      "seatbelt": 7298,
      "desper": 7299,
      "zoie": 7300,
      "frida": 7301,
      "strip": 7302,
      "racecar": 7303,
      "rattles": 7304,
      "squeaking": 7305,
      "larger": 7306,
      "foxy": 7307,
      "passing": 7308,
      "audi": 7309,
      "austra": 7310,
      "interrup": 7311,
      "shire": 7312,
      "royal": 7313,
      "knots": 7314,
      "notebook": 7315,
      "whiz": 7316,
      "common": 7317,
      "concerned": 7318,
      "effort": 7319,
      "twirl": 7320,
      "falsetto": 7321,
      "dandelion": 7322,
      "cigarettes": 7323,
      "twisted": 7324,
      "astronaut": 7325,
      "exhaust": 7326,
      "whichever": 7327,
      "origin": 7328,
      "bins": 7329,
      "foun": 7330,
      "jum": 7331,
      "mup": 7332,
      "pity": 7333,
      "uu": 7334,
      "wu": 7335,
      "wound": 7336,
      "yar": 7337,
      "yur": 7338,
      "inge": 7339,
      "nora": 7340,
      "legging": 7341,
      "hawai": 7342,
      "esdays": 7343,
      "licked": 7344,
      "enne": 7345,
      "admit": 7346,
      "wipers": 7347,
      "bathing": 7348,
      "chch": 7349,
      "poster": 7350,
      "peeled": 7351,
      "playschool": 7352,
      "cell": 7353,
      "indro": 7354,
      "packets": 7355,
      "brig": 7356,
      "mult": 7357,
      "stor": 7358,
      "stomp": 7359,
      "bookcase": 7360,
      "grind": 7361,
      "acha": 7362,
      "rounded": 7363,
      "breast": 7364,
      "pickin": 7365,
      "crate": 7366,
      "cameras": 7367,
      "tease": 7368,
      "olds": 7369,
      "pushin": 7370,
      "pia": 7371,
      "latte": 7372,
      "grabbing": 7373,
      "jeez": 7374,
      "japan": 7375,
      "bowwow": 7376,
      "teddys": 7377,
      "teetee": 7378,
      "closes": 7379,
      "katherine": 7380,
      "disaster": 7381,
      "weensie": 7382,
      "heavier": 7383,
      "kenned": 7384,
      "paintings": 7385,
      "feelings": 7386,
      "dragonfly": 7387,
      "ninja": 7388,
      "decorating": 7389,
      "crush": 7390,
      "speaks": 7391,
      "eraser": 7392,
      "daft": 7393,
      "railroad": 7394,
      "connected": 7395,
      "frying": 7396,
      "heels": 7397,
      "dyeisha": 7398,
      "doreen": 7399,
      "complicated": 7400,
      "yippee": 7401,
      "safari": 7402,
      "kennedy": 7403,
      "ik": 7404,
      "pure": 7405,
      "attend": 7406,
      "inju": 7407,
      "incl": 7408,
      "ists": 7409,
      "llie": 7410,
      "whip": 7411,
      "nod": 7412,
      "sels": 7413,
      "seals": 7414,
      "arf": 7415,
      "naked": 7416,
      "adults": 7417,
      "roly": 7418,
      "hmhm": 7419,
      "posh": 7420,
      "popu": 7421,
      "terry": 7422,
      "shaker": 7423,
      "prep": 7424,
      "percent": 7425,
      "grate": 7426,
      "uey": 7427,
      "expl": 7428,
      "trainers": 7429,
      "breathing": 7430,
      "dinners": 7431,
      "condition": 7432,
      "squished": 7433,
      "footprints": 7434,
      "jumpin": 7435,
      "impatient": 7436,
      "messin": 7437,
      "chael": 7438,
      "flute": 7439,
      "screamed": 7440,
      "bouncie": 7441,
      "diapie": 7442,
      "belts": 7443,
      "emphas": 7444,
      "tiptoe": 7445,
      "pointy": 7446,
      "snout": 7447,
      "hosepipe": 7448,
      "phil": 7449,
      "punish": 7450,
      "mainly": 7451,
      "fussing": 7452,
      "grubby": 7453,
      "tutu": 7454,
      "continue": 7455,
      "adrienne": 7456,
      "aurus": 7457,
      "shrimp": 7458,
      "muddled": 7459,
      "determin": 7460,
      "involved": 7461,
      "mystery": 7462,
      "extreme": 7463,
      "danielle": 7464,
      "stereo": 7465,
      "bli": 7466,
      "hank": 7467,
      "mble": 7468,
      "oes": 7469,
      "recycling": 7470,
      "inc": 7471,
      "whine": 7472,
      "section": 7473,
      "aya": 7474,
      "beck": 7475,
      "bels": 7476,
      "utens": 7477,
      "asy": 7478,
      "hopped": 7479,
      "bax": 7480,
      "maw": 7481,
      "pepsi": 7482,
      "abouts": 7483,
      "gae": 7484,
      "bulle": 7485,
      "quie": 7486,
      "mans": 7487,
      "hairs": 7488,
      "handles": 7489,
      "margare": 7490,
      "tubbies": 7491,
      "constant": 7492,
      "singin": 7493,
      "teddies": 7494,
      "hotter": 7495,
      "badly": 7496,
      "cliff": 7497,
      "bible": 7498,
      "skill": 7499,
      "climbs": 7500,
      "system": 7501,
      "melting": 7502,
      "dents": 7503,
      "buzzing": 7504,
      "leafs": 7505,
      "pita": 7506,
      "toolbox": 7507,
      "shorter": 7508,
      "joined": 7509,
      "gymna": 7510,
      "susie": 7511,
      "arrive": 7512,
      "disneyland": 7513,
      "brek": 7514,
      "bolts": 7515,
      "celebrate": 7516,
      "catalogue": 7517,
      "information": 7518,
      "intonation": 7519,
      "leggings": 7520,
      "explor": 7521,
      "brew": 7522,
      "echo": 7523,
      "frea": 7524,
      "gig": 7525,
      "gling": 7526,
      "hong": 7527,
      "ivy": 7528,
      "jok": 7529,
      "relie": 7530,
      "dood": 7531,
      "weak": 7532,
      "adrum": 7533,
      "rowed": 7534,
      "bapo": 7535,
      "rachael": 7536,
      "tippy": 7537,
      "carton": 7538,
      "readin": 7539,
      "deck": 7540,
      "ders": 7541,
      "clothing": 7542,
      "blas": 7543,
      "remembering": 7544,
      "flood": 7545,
      "waitin": 7546,
      "ffle": 7547,
      "otto": 7548,
      "conven": 7549,
      "throwin": 7550,
      "numnum": 7551,
      "lighter": 7552,
      "planting": 7553,
      "specially": 7554,
      "glory": 7555,
      "cords": 7556,
      "danced": 7557,
      "bangadrum": 7558,
      "buried": 7559,
      "mischief": 7560,
      "curran": 7561,
      "hammering": 7562,
      "learnt": 7563,
      "midnight": 7564,
      "butterflys": 7565,
      "sample": 7566,
      "woolly": 7567,
      "rats": 7568,
      "mushy": 7569,
      "insects": 7570,
      "chalkboard": 7571,
      "speaker": 7572,
      "seriously": 7573,
      "elbows": 7574,
      "wilson": 7575,
      "hohoho": 7576,
      "knack": 7577,
      "develop": 7578,
      "collap": 7579,
      "bridges": 7580,
      "softer": 7581,
      "injection": 7582,
      "phoning": 7583,
      "stenc": 7584,
      "commercial": 7585,
      "carnival": 7586,
      "australia": 7587,
      "determined": 7588,
      "alie": 7589,
      "aboard": 7590,
      "eel": 7591,
      "gic": 7592,
      "iwww": 7593,
      "jah": 7594,
      "jaw": 7595,
      "psh": 7596,
      "rone": 7597,
      "vim": 7598,
      "thre": 7599,
      "thri": 7600,
      "hea": 7601,
      "dope": 7602,
      "dozen": 7603,
      "series": 7604,
      "leon": 7605,
      "stab": 7606,
      "stung": 7607,
      "asda": 7608,
      "hoe": 7609,
      "entire": 7610,
      "bak": 7611,
      "raindro": 7612,
      "cau": 7613,
      "whereabouts": 7614,
      "wowie": 7615,
      "indic": 7616,
      "oping": 7617,
      "gain": 7618,
      "dese": 7619,
      "needles": 7620,
      "grouch": 7621,
      "grees": 7622,
      "trail": 7623,
      "flown": 7624,
      "mont": 7625,
      "prob": 7626,
      "holdin": 7627,
      "iley": 7628,
      "maddy": 7629,
      "yai": 7630,
      "dame": 7631,
      "consid": 7632,
      "construction": 7633,
      "german": 7634,
      "diplo": 7635,
      "floors": 7636,
      "sandra": 7637,
      "cub": 7638,
      "grain": 7639,
      "flys": 7640,
      "strug": 7641,
      "yumyum": 7642,
      "dull": 7643,
      "duke": 7644,
      "halfway": 7645,
      "dramat": 7646,
      "pressure": 7647,
      "slimy": 7648,
      "score": 7649,
      "humming": 7650,
      "dumped": 7651,
      "borrowed": 7652,
      "jimjams": 7653,
      "silky": 7654,
      "insect": 7655,
      "loading": 7656,
      "tunafish": 7657,
      "plop": 7658,
      "boingy": 7659,
      "costumes": 7660,
      "phia": 7661,
      "wishes": 7662,
      "antennas": 7663,
      "electricity": 7664,
      "tablet": 7665,
      "jasper": 7666,
      "victor": 7667,
      "dutch": 7668,
      "cigarette": 7669,
      "specific": 7670,
      "combination": 7671,
      "mexico": 7672,
      "popular": 7673,
      "vimto": 7674,
      "cuck": 7675,
      "ese": 7676,
      "flight": 7677,
      "jokes": 7678,
      "pab": 7679,
      "tanger": 7680,
      "noone": 7681,
      "doris": 7682,
      "gopher": 7683,
      "allison": 7684,
      "tamb": 7685,
      "racket": 7686,
      "necks": 7687,
      "poly": 7688,
      "popp": 7689,
      "ppie": 7690,
      "bubbly": 7691,
      "foal": 7692,
      "brief": 7693,
      "colm": 7694,
      "tenth": 7695,
      "joo": 7696,
      "issy": 7697,
      "maria": 7698,
      "malcolm": 7699,
      "hurrah": 7700,
      "creche": 7701,
      "antic": 7702,
      "underpants": 7703,
      "dribbling": 7704,
      "stickin": 7705,
      "wearin": 7706,
      "suits": 7707,
      "listened": 7708,
      "coral": 7709,
      "easel": 7710,
      "kiddo": 7711,
      "bbard": 7712,
      "corners": 7713,
      "bobs": 7714,
      "appointment": 7715,
      "wallet": 7716,
      "flaps": 7717,
      "bounced": 7718,
      "groundhog": 7719,
      "pinoc": 7720,
      "jenell": 7721,
      "shouts": 7722,
      "pedal": 7723,
      "toenails": 7724,
      "yoghurts": 7725,
      "cheerlead": 7726,
      "gumdrop": 7727,
      "grampa": 7728,
      "bakery": 7729,
      "cruel": 7730,
      "chatty": 7731,
      "sniffs": 7732,
      "opposites": 7733,
      "aiden": 7734,
      "damp": 7735,
      "cranky": 7736,
      "ruined": 7737,
      "frostie": 7738,
      "experience": 7739,
      "dandelions": 7740,
      "cooled": 7741,
      "balancing": 7742,
      "pandas": 7743,
      "yarn": 7744,
      "margaret": 7745,
      "exploring": 7746,
      "currants": 7747,
      "tambour": 7748,
      "pinocchio": 7749,
      "&*": 7750,
      "fwww": 7751,
      "ired": 7752,
      "lah": 7753,
      "lum": 7754,
      "vable": 7755,
      "thee": 7756,
      "height": 7757,
      "weist": 7758,
      "beal": 7759,
      "argue": 7760,
      "solid": 7761,
      "liking": 7762,
      "cooper": 7763,
      "tapping": 7764,
      "bock": 7765,
      "forgetting": 7766,
      "knowing": 7767,
      "cages": 7768,
      "camper": 7769,
      "nect": 7770,
      "welly": 7771,
      "whom": 7772,
      "tiles": 7773,
      "shuff": 7774,
      "elves": 7775,
      "elastic": 7776,
      "carpark": 7777,
      "eaters": 7778,
      "pale": 7779,
      "pajama": 7780,
      "buffalo": 7781,
      "leavin": 7782,
      "bron": 7783,
      "boyfriend": 7784,
      "reds": 7785,
      "tender": 7786,
      "shoel": 7787,
      "tral": 7788,
      "tram": 7789,
      "finn": 7790,
      "fins": 7791,
      "joan": 7792,
      "tucked": 7793,
      "mikey": 7794,
      "torrence": 7795,
      "draws": 7796,
      "gery": 7797,
      "diving": 7798,
      "christa": 7799,
      "rossy": 7800,
      "badges": 7801,
      "sessed": 7802,
      "lunchbox": 7803,
      "petting": 7804,
      "nearby": 7805,
      "starving": 7806,
      "burgh": 7807,
      "appear": 7808,
      "magnif": 7809,
      "tummyache": 7810,
      "quackquack": 7811,
      "battle": 7812,
      "growl": 7813,
      "delicate": 7814,
      "kiki": 7815,
      "pedals": 7816,
      "motorway": 7817,
      "goldie": 7818,
      "obsessed": 7819,
      "iggles": 7820,
      "filthy": 7821,
      "plugs": 7822,
      "cruz": 7823,
      "amazed": 7824,
      "pinching": 7825,
      "spraying": 7826,
      "licken": 7827,
      "cranberry": 7828,
      "wilbur": 7829,
      "pigeon": 7830,
      "dwarves": 7831,
      "distracted": 7832,
      "writin": 7833,
      "daisys": 7834,
      "describe": 7835,
      "frisbee": 7836,
      "francis": 7837,
      "silent": 7838,
      "groups": 7839,
      "fierce": 7840,
      "quieter": 7841,
      "pablo": 7842,
      "nectar": 7843,
      "blick": 7844,
      "bitten": 7845,
      "ckers": 7846,
      "dang": 7847,
      "ditch": 7848,
      "emm": 7849,
      "gay": 7850,
      "gly": 7851,
      "jaf": 7852,
      "sult": 7853,
      "tford": 7854,
      "wick": 7855,
      "yer": 7856,
      "zu": 7857,
      "thas": 7858,
      "hest": 7859,
      "heather": 7860,
      "whil": 7861,
      "sele": 7862,
      "aside": 7863,
      "cant": 7864,
      "hoses": 7865,
      "ahor": 7866,
      "ading": 7867,
      "bathe": 7868,
      "maam": 7869,
      "cabin": 7870,
      "nese": 7871,
      "downtown": 7872,
      "buys": 7873,
      "folks": 7874,
      "bride": 7875,
      "stolen": 7876,
      "mmmm": 7877,
      "parlor": 7878,
      "chomp": 7879,
      "happier": 7880,
      "wag": 7881,
      "turkeys": 7882,
      "trace": 7883,
      "trough": 7884,
      "acorn": 7885,
      "writes": 7886,
      "harm": 7887,
      "rushed": 7888,
      "rudolph": 7889,
      "sized": 7890,
      "brodie": 7891,
      "concre": 7892,
      "cowboys": 7893,
      "pire": 7894,
      "oohoo": 7895,
      "dinnertime": 7896,
      "disc": 7897,
      "knocks": 7898,
      "kayla": 7899,
      "moomooshas": 7900,
      "appears": 7901,
      "potatohead": 7902,
      "skunks": 7903,
      "paintbrush": 7904,
      "splashed": 7905,
      "layer": 7906,
      "istic": 7907,
      "hubbard": 7908,
      "praise": 7909,
      "central": 7910,
      "crispy": 7911,
      "katy": 7912,
      "solution": 7913,
      "stamping": 7914,
      "longest": 7915,
      "dumpling": 7916,
      "smacked": 7917,
      "hidin": 7918,
      "treats": 7919,
      "costs": 7920,
      "kites": 7921,
      "stretching": 7922,
      "ribbons": 7923,
      "giddyup": 7924,
      "subway": 7925,
      "douglas": 7926,
      "gifts": 7927,
      "bolognese": 7928,
      "hairdressers": 7929,
      "lasagna": 7930,
      "andrena": 7931,
      "allergic": 7932,
      "burglar": 7933,
      "bangadrumtime": 7934,
      "cuckoo": 7935,
      "whilst": 7936,
      "-⌈": 7937,
      "_night": 7938,
      "aerial": 7939,
      "cong": 7940,
      "dread": 7941,
      "giggling": 7942,
      "hye": 7943,
      "kung": 7944,
      "pod": 7945,
      "pitt": 7946,
      "smock": 7947,
      "renal": 7948,
      "research": 7949,
      "seahor": 7950,
      "hake": 7951,
      "strea": 7952,
      "keen": 7953,
      "ohoo": 7954,
      "holl": 7955,
      "hoot": 7956,
      "bozo": 7957,
      "whereas": 7958,
      "nere": 7959,
      "unlock": 7960,
      "alous": 7961,
      "leton": 7962,
      "ift": 7963,
      "tions": 7964,
      "nts": 7965,
      "buff": 7966,
      "chea": 7967,
      "checks": 7968,
      "grease": 7969,
      "wont": 7970,
      "acro": 7971,
      "doggys": 7972,
      "birdy": 7973,
      "phys": 7974,
      "spat": 7975,
      "splo": 7976,
      "embar": 7977,
      "holder": 7978,
      "mario": 7979,
      "students": 7980,
      "conta": 7981,
      "singer": 7982,
      "walrus": 7983,
      "milky": 7984,
      "childmind": 7985,
      "mission": 7986,
      "dist": 7987,
      "hangin": 7988,
      "pills": 7989,
      "gia": 7990,
      "burt": 7991,
      "dley": 7992,
      "stepmother": 7993,
      "whisk": 7994,
      "itching": 7995,
      "viole": 7996,
      "rubbed": 7997,
      "miriam": 7998,
      "dennis": 7999,
      "scratches": 8000,
      "cense": 8001,
      "squeezing": 8002,
      "aguh": 8003,
      "hundreds": 8004,
      "answers": 8005,
      "answering": 8006,
      "bonnet": 8007,
      "trowel": 8008,
      "spinner": 8009,
      "tantrum": 8010,
      "chanel": 8011,
      "lifts": 8012,
      "nickels": 8013,
      "sweaty": 8014,
      "fiddly": 8015,
      "liter": 8016,
      "lizards": 8017,
      "prayers": 8018,
      "lasagne": 8019,
      "schedu": 8020,
      "tyranno": 8021,
      "spicy": 8022,
      "stained": 8023,
      "introduce": 8024,
      "invitation": 8025,
      "breeze": 8026,
      "scruffy": 8027,
      "marshmallows": 8028,
      "somersault": 8029,
      "hawaii": 8030,
      "gymnastic": 8031,
      "tambourine": 8032,
      "bealby": 8033,
      "shoelaces": 8034,
      "concrete": 8035,
      "renaldo": 8036,
      "hakeem": 8037,
      "violent": 8038,
      "9w": 8039,
      "cree": 8040,
      "cmere": 8041,
      "fitted": 8042,
      "knight": 8043,
      "mwah": 8044,
      "pss": 8045,
      "rare": 8046,
      "swat": 8047,
      "swear": 8048,
      "zar": 8049,
      "intell": 8050,
      "hem": 8051,
      "dose": 8052,
      "seg": 8053,
      "veget": 8054,
      "ands": 8055,
      "icles": 8056,
      "hopper": 8057,
      "wibbly": 8058,
      "ums": 8059,
      "ching": 8060,
      "rails": 8061,
      "undressed": 8062,
      "tile": 8063,
      "fered": 8064,
      "shaun": 8065,
      "leap": 8066,
      "fastest": 8067,
      "brrr": 8068,
      "deaf": 8069,
      "amber": 8070,
      "para": 8071,
      "perfor": 8072,
      "gregor": 8073,
      "cles": 8074,
      "callin": 8075,
      "stair": 8076,
      "spoilt": 8077,
      "produ": 8078,
      "mattress": 8079,
      "trainset": 8080,
      "grandmas": 8081,
      "boosh": 8082,
      "sweety": 8083,
      "jealous": 8084,
      "cleanup": 8085,
      "cheeseburger": 8086,
      "classes": 8087,
      "tinsel": 8088,
      "kaboom": 8089,
      "ticka": 8090,
      "discovered": 8091,
      "petite": 8092,
      "chap": 8093,
      "nicho": 8094,
      "scrib": 8095,
      "bending": 8096,
      "bumping": 8097,
      "growling": 8098,
      "painter": 8099,
      "surf": 8100,
      "fights": 8101,
      "chart": 8102,
      "wheelie": 8103,
      "footballs": 8104,
      "warning": 8105,
      "prawn": 8106,
      "tiptoes": 8107,
      "googoo": 8108,
      "georgia": 8109,
      "figures": 8110,
      "peeppeep": 8111,
      "chipm": 8112,
      "folding": 8113,
      "bonnie": 8114,
      "highest": 8115,
      "oats": 8116,
      "scrap": 8117,
      "spending": 8118,
      "hehehe": 8119,
      "volume": 8120,
      "controls": 8121,
      "cucumbers": 8122,
      "slugsy": 8123,
      "fooling": 8124,
      "tinkerbell": 8125,
      "glued": 8126,
      "iguana": 8127,
      "gloria": 8128,
      "syllable": 8129,
      "fashioned": 8130,
      "punishment": 8131,
      "bally": 8132,
      "ev": 8133,
      "enor": 8134,
      "fut": 8135,
      "jab": 8136,
      "mould": 8137,
      "ope": 8138,
      "rating": 8139,
      "smud": 8140,
      "tug": 8141,
      "outa": 8142,
      "rewind": 8143,
      "incy": 8144,
      "toads": 8145,
      "dos": 8146,
      "docus": 8147,
      "states": 8148,
      "yee": 8149,
      "cannon": 8150,
      "wix": 8151,
      "wibble": 8152,
      "boink": 8153,
      "raine": 8154,
      "iety": 8155,
      "pebble": 8156,
      "playtime": 8157,
      "playhouse": 8158,
      "elspe": 8159,
      "fection": 8160,
      "shaving": 8161,
      "foil": 8162,
      "tening": 8163,
      "grun": 8164,
      "grano": 8165,
      "tron": 8166,
      "remembers": 8167,
      "meanwhile": 8168,
      "joanne": 8169,
      "sers": 8170,
      "serv": 8171,
      "monarch": 8172,
      "wriggly": 8173,
      "maddie": 8174,
      "cutters": 8175,
      "smur": 8176,
      "phoned": 8177,
      "piper": 8178,
      "barbe": 8179,
      "plank": 8180,
      "patric": 8181,
      "sentences": 8182,
      "hangs": 8183,
      "farms": 8184,
      "sooner": 8185,
      "appe": 8186,
      "brake": 8187,
      "voca": 8188,
      "hammers": 8189,
      "families": 8190,
      "surgery": 8191,
      "charles": 8192,
      "meatballs": 8193,
      "length": 8194,
      "freight": 8195,
      "stripe": 8196,
      "muffet": 8197,
      "author": 8198,
      "hiccup": 8199,
      "adada": 8200,
      "natalie": 8201,
      "doodledoo": 8202,
      "ghosts": 8203,
      "vatory": 8204,
      "chubby": 8205,
      "blinds": 8206,
      "positive": 8207,
      "drainboard": 8208,
      "goggles": 8209,
      "chicago": 8210,
      "blinking": 8211,
      "experiment": 8212,
      "damaged": 8213,
      "wider": 8214,
      "yolk": 8215,
      "snooze": 8216,
      "japanese": 8217,
      "raindrops": 8218,
      "diplodocus": 8219,
      "enormous": 8220,
      "elspeth": 8221,
      "granola": 8222,
      "patricia": 8223,
      "aim": 8224,
      "bup": 8225,
      "binky": 8226,
      "eld": 8227,
      "eoi": 8228,
      "glow": 8229,
      "jad": 8230,
      "mick": 8231,
      "nes": 8232,
      "wished": 8233,
      "zacha": 8234,
      "ref": 8235,
      "meer": 8236,
      "mena": 8237,
      "yea": 8238,
      "nage": 8239,
      "ening": 8240,
      "role": 8241,
      "edna": 8242,
      "chute": 8243,
      "ifier": 8244,
      "abu": 8245,
      "labels": 8246,
      "babysit": 8247,
      "hiss": 8248,
      "epis": 8249,
      "epend": 8250,
      "brus": 8251,
      "daddys": 8252,
      "dei": 8253,
      "dern": 8254,
      "zzle": 8255,
      "file": 8256,
      "combed": 8257,
      "stern": 8258,
      "proof": 8259,
      "harbor": 8260,
      "drinkie": 8261,
      "pullin": 8262,
      "dibble": 8263,
      "sandcastles": 8264,
      "grams": 8265,
      "patting": 8266,
      "dances": 8267,
      "earphones": 8268,
      "eeee": 8269,
      "johnson": 8270,
      "fingernail": 8271,
      "bashed": 8272,
      "appetite": 8273,
      "crossed": 8274,
      "quavers": 8275,
      "dingaling": 8276,
      "scription": 8277,
      "shutting": 8278,
      "poohbear": 8279,
      "hopeless": 8280,
      "scarlet": 8281,
      "winds": 8282,
      "datdat": 8283,
      "calcul": 8284,
      "follows": 8285,
      "squirting": 8286,
      "bills": 8287,
      "clearing": 8288,
      "folder": 8289,
      "scotch": 8290,
      "derek": 8291,
      "sucks": 8292,
      "michele": 8293,
      "shoots": 8294,
      "containers": 8295,
      "ireland": 8296,
      "arrows": 8297,
      "soames": 8298,
      "collie": 8299,
      "dodododo": 8300,
      "escaped": 8301,
      "communic": 8302,
      "recei": 8303,
      "russell": 8304,
      "zack": 8305,
      "cooler": 8306,
      "example": 8307,
      "complaining": 8308,
      "blooming": 8309,
      "rapidly": 8310,
      "cockroach": 8311,
      "michigan": 8312,
      "desperate": 8313,
      "fountain": 8314,
      "embarras": 8315,
      "cture": 8316,
      "mone": 8317,
      "opp": 8318,
      "rate": 8319,
      "thigh": 8320,
      "ress": 8321,
      "itor": 8322,
      "icicle": 8323,
      "cody": 8324,
      "offered": 8325,
      "tapi": 8326,
      "tasting": 8327,
      "baloo": 8328,
      "choking": 8329,
      "moan": 8330,
      "caboo": 8331,
      "unity": 8332,
      "alan": 8333,
      "tial": 8334,
      "daya": 8335,
      "elana": 8336,
      "india": 8337,
      "independ": 8338,
      "festi": 8339,
      "ripping": 8340,
      "lam": 8341,
      "babydolls": 8342,
      "pam": 8343,
      "wwww": 8344,
      "shades": 8345,
      "tying": 8346,
      "focus": 8347,
      "devon": 8348,
      "degrees": 8349,
      "bookshelf": 8350,
      "mommys": 8351,
      "greta": 8352,
      "comic": 8353,
      "flop": 8354,
      "wriggle": 8355,
      "nightie": 8356,
      "ania": 8357,
      "daes": 8358,
      "dakota": 8359,
      "buildin": 8360,
      "grave": 8361,
      "vory": 8362,
      "mumbled": 8363,
      "counts": 8364,
      "disco": 8365,
      "brownie": 8366,
      "moomoo": 8367,
      "feeds": 8368,
      "kermit": 8369,
      "queens": 8370,
      "wallpaper": 8371,
      "aled": 8372,
      "sugge": 8373,
      "charming": 8374,
      "meatloaf": 8375,
      "godmother": 8376,
      "dumping": 8377,
      "youngest": 8378,
      "gooey": 8379,
      "striped": 8380,
      "snuff": 8381,
      "flee": 8382,
      "alexa": 8383,
      "ronny": 8384,
      "thumbs": 8385,
      "shorty": 8386,
      "necklaces": 8387,
      "springtime": 8388,
      "loaded": 8389,
      "bloody": 8390,
      "hallway": 8391,
      "generous": 8392,
      "crackle": 8393,
      "studying": 8394,
      "spikes": 8395,
      "palm": 8396,
      "reception": 8397,
      "alalalal": 8398,
      "floats": 8399,
      "settled": 8400,
      "expression": 8401,
      "donuts": 8402,
      "creepy": 8403,
      "oreos": 8404,
      "waistcoat": 8405,
      "munches": 8406,
      "pierre": 8407,
      "reflection": 8408,
      "personality": 8409,
      "sprinkles": 8410,
      "lefto": 8411,
      "brigade": 8412,
      "utensils": 8413,
      "constantly": 8414,
      "cheerleaders": 8415,
      "pitts": 8416,
      "seahorse": 8417,
      "nicholas": 8418,
      "tapioca": 8419,
      "eile": 8420,
      "fitting": 8421,
      "gles": 8422,
      "hhmm": 8423,
      "ized": 8424,
      "ox": 8425,
      "pokey": 8426,
      "tour": 8427,
      "thon": 8428,
      "rely": 8429,
      "heating": 8430,
      "heater": 8431,
      "ised": 8432,
      "wey": 8433,
      "weap": 8434,
      "leah": 8435,
      "okie": 8436,
      "argh": 8437,
      "essor": 8438,
      "ict": 8439,
      "addle": 8440,
      "rober": 8441,
      "robots": 8442,
      "edu": 8443,
      "bap": 8444,
      "bau": 8445,
      "chie": 8446,
      "poops": 8447,
      "sacks": 8448,
      "woop": 8449,
      "berty": 8450,
      "foam": 8451,
      "massa": 8452,
      "tingu": 8453,
      "grum": 8454,
      "darth": 8455,
      "floss": 8456,
      "servatory": 8457,
      "steals": 8458,
      "spoiled": 8459,
      "angela": 8460,
      "rube": 8461,
      "conservatory": 8462,
      "fringe": 8463,
      "diandra": 8464,
      "assume": 8465,
      "nevermind": 8466,
      "speedy": 8467,
      "mumbling": 8468,
      "pinky": 8469,
      "knobs": 8470,
      "craig": 8471,
      "cracking": 8472,
      "kerry": 8473,
      "dingdong": 8474,
      "scares": 8475,
      "sliced": 8476,
      "fighter": 8477,
      "screwing": 8478,
      "moments": 8479,
      "emptied": 8480,
      "immedi": 8481,
      "chewy": 8482,
      "cupboards": 8483,
      "fairies": 8484,
      "lining": 8485,
      "squeezed": 8486,
      "ratul": 8487,
      "kangaroos": 8488,
      "computers": 8489,
      "pascal": 8490,
      "beats": 8491,
      "decorated": 8492,
      "bashing": 8493,
      "grapefruit": 8494,
      "tweenie": 8495,
      "noahs": 8496,
      "transpor": 8497,
      "spike": 8498,
      "lumps": 8499,
      "canoe": 8500,
      "explore": 8501,
      "operation": 8502,
      "chico": 8503,
      "imitating": 8504,
      "yikes": 8505,
      "wrecking": 8506,
      "skeleton": 8507,
      "professor": 8508,
      "pompom": 8509,
      "seagull": 8510,
      "kuhz": 8511,
      "shepherd": 8512,
      "strategies": 8513,
      "lodlod": 8514,
      "challenge": 8515,
      "congratul": 8516,
      "childminder": 8517,
      "distance": 8518,
      "creek": 8519,
      "intellig": 8520,
      "scribbling": 8521,
      "jaden": 8522,
      "eileen": 8523,
      "bou": 8524,
      "byes": 8525,
      "bong": 8526,
      "kh": 8527,
      "nature": 8528,
      "rink": 8529,
      "vad": 8530,
      "”...": 8531,
      "reve": 8532,
      "infin": 8533,
      "ision": 8534,
      "nold": 8535,
      "webs": 8536,
      "hal": 8537,
      "orang": 8538,
      "stren": 8539,
      "becomes": 8540,
      "esther": 8541,
      "theresa": 8542,
      "license": 8543,
      "cocky": 8544,
      "adding": 8545,
      "tabby": 8546,
      "tags": 8547,
      "boon": 8548,
      "bodies": 8549,
      "upsy": 8550,
      "makka": 8551,
      "wasps": 8552,
      "terence": 8553,
      "goods": 8554,
      "ified": 8555,
      "playdays": 8556,
      "whey": 8557,
      "thomps": 8558,
      "reader": 8559,
      "chewin": 8560,
      "mushed": 8561,
      "blen": 8562,
      "wack": 8563,
      "cleared": 8564,
      "jog": 8565,
      "steer": 8566,
      "marti": 8567,
      "wriggling": 8568,
      "silo": 8569,
      "underground": 8570,
      "student": 8571,
      "connor": 8572,
      "blocked": 8573,
      "hates": 8574,
      "builders": 8575,
      "realistic": 8576,
      "rend": 8577,
      "spect": 8578,
      "glas": 8579,
      "flyin": 8580,
      "clink": 8581,
      "bows": 8582,
      "bruises": 8583,
      "clippers": 8584,
      "clothespins": 8585,
      "strang": 8586,
      "sheeps": 8587,
      "kerchief": 8588,
      "louie": 8589,
      "basic": 8590,
      "croa": 8591,
      "smelled": 8592,
      "slippy": 8593,
      "icecreams": 8594,
      "curry": 8595,
      "scaring": 8596,
      "lory": 8597,
      "whistles": 8598,
      "neatly": 8599,
      "warn": 8600,
      "flick": 8601,
      "oled": 8602,
      "ribs": 8603,
      "rory": 8604,
      "princes": 8605,
      "saucepan": 8606,
      "foxes": 8607,
      "killer": 8608,
      "reminded": 8609,
      "snowed": 8610,
      "throwed": 8611,
      "morris": 8612,
      "bumblebees": 8613,
      "announ": 8614,
      "polka": 8615,
      "practise": 8616,
      "lashes": 8617,
      "seasons": 8618,
      "chatting": 8619,
      "toucan": 8620,
      "whaddaya": 8621,
      "target": 8622,
      "huffed": 8623,
      "ewoks": 8624,
      "necessary": 8625,
      "brittney": 8626,
      "wrecked": 8627,
      "wrestle": 8628,
      "traveling": 8629,
      "directly": 8630,
      "kirsten": 8631,
      "initi": 8632,
      "exhausted": 8633,
      "joker": 8634,
      "convenient": 8635,
      "tangerine": 8636,
      "tyrannosaurus": 8637,
      "gymnastics": 8638,
      "future": 8639,
      "episode": 8640,
      "bid": 8641,
      "fant": 8642,
      "fond": 8643,
      "gli": 8644,
      "ivity": 8645,
      "kir": 8646,
      "lulu": 8647,
      "minky": 8648,
      "slower": 8649,
      "twe": 8650,
      "vam": 8651,
      "zin": 8652,
      "zag": 8653,
      "atic": 8654,
      "refer": 8655,
      "anti": 8656,
      "gow": 8657,
      "whatsa": 8658,
      "stitches": 8659,
      "lope": 8660,
      "locker": 8661,
      "loxy": 8662,
      "gear": 8663,
      "taps": 8664,
      "rockets": 8665,
      "diddy": 8666,
      "mold": 8667,
      "cable": 8668,
      "saves": 8669,
      "fever": 8670,
      "bubu": 8671,
      "overnight": 8672,
      "quo": 8673,
      "destru": 8674,
      "amanda": 8675,
      "paris": 8676,
      "itement": 8677,
      "wasting": 8678,
      "shocked": 8679,
      "trafford": 8680,
      "headphones": 8681,
      "commend": 8682,
      "trained": 8683,
      "granda": 8684,
      "dinah": 8685,
      "condu": 8686,
      "consis": 8687,
      "talkative": 8688,
      "sawing": 8689,
      "firetrucks": 8690,
      "creams": 8691,
      "aware": 8692,
      "patrol": 8693,
      "cork": 8694,
      "impossible": 8695,
      "eae": 8696,
      "earn": 8697,
      "excitement": 8698,
      "clothespin": 8699,
      "cyril": 8700,
      "beeba": 8701,
      "duster": 8702,
      "nurses": 8703,
      "basin": 8704,
      "flint": 8705,
      "eyelashes": 8706,
      "toasted": 8707,
      "avoid": 8708,
      "flavo": 8709,
      "skies": 8710,
      "voom": 8711,
      "bumpity": 8712,
      "tiddles": 8713,
      "whistling": 8714,
      "yoga": 8715,
      "surface": 8716,
      "hummus": 8717,
      "laughin": 8718,
      "superhero": 8719,
      "charity": 8720,
      "pongo": 8721,
      "understands": 8722,
      "tunnels": 8723,
      "blocking": 8724,
      "heehaw": 8725,
      "solve": 8726,
      "windowsill": 8727,
      "interview": 8728,
      "added": 8729,
      "wahwah": 8730,
      "beefburger": 8731,
      "bracelets": 8732,
      "concentration": 8733,
      "plattford": 8734,
      "jeffery": 8735,
      "spencers": 8736,
      "braids": 8737,
      "cadabra": 8738,
      "balanced": 8739,
      "dwarfs": 8740,
      "firm": 8741,
      "disturb": 8742,
      "gemma": 8743,
      "awkward": 8744,
      "strainer": 8745,
      "extremely": 8746,
      "emmitt": 8747,
      "vegetarian": 8748,
      "smudge": 8749,
      "scarlett": 8750,
      "infinity": 8751,
      "streng": 8752,
      "thompson": 8753,
      "flavored": 8754,
      "chad": 8755,
      "eu": 8756,
      "fist": 8757,
      "gut": 8758,
      "jars": 8759,
      "nces": 8760,
      "olives": 8761,
      "pb": 8762,
      "slob": 8763,
      "tis": 8764,
      "rejo": 8765,
      "inga": 8766,
      "total": 8767,
      "melan": 8768,
      "ayla": 8769,
      "lery": 8770,
      "stump": 8771,
      "behaving": 8772,
      "arar": 8773,
      "los": 8774,
      "lim": 8775,
      "cancer": 8776,
      "navy": 8777,
      "cops": 8778,
      "advan": 8779,
      "ropes": 8780,
      "upper": 8781,
      "ramid": 8782,
      "castic": 8783,
      "neys": 8784,
      "nelly": 8785,
      "tery": 8786,
      "shn": 8787,
      "celia": 8788,
      "pakka": 8789,
      "berg": 8790,
      "illu": 8791,
      "dete": 8792,
      "deserve": 8793,
      "needn": 8794,
      "preston": 8795,
      "prescription": 8796,
      "worker": 8797,
      "perfu": 8798,
      "happenin": 8799,
      "blades": 8800,
      "talcum": 8801,
      "homes": 8802,
      "carey": 8803,
      "eler": 8804,
      "armbands": 8805,
      "understood": 8806,
      "drivin": 8807,
      "concept": 8808,
      "piggys": 8809,
      "booster": 8810,
      "stuffing": 8811,
      "diane": 8812,
      "rung": 8813,
      "latch": 8814,
      "mercy": 8815,
      "sung": 8816,
      "fixin": 8817,
      "clicks": 8818,
      "clipped": 8819,
      "swir": 8820,
      "brownies": 8821,
      "driveway": 8822,
      "pyramid": 8823,
      "quet": 8824,
      "croak": 8825,
      "scree": 8826,
      "ava": 8827,
      "teacup": 8828,
      "deliber": 8829,
      "sarcastic": 8830,
      "sweetpeas": 8831,
      "surfer": 8832,
      "kiera": 8833,
      "poos": 8834,
      "oinkoink": 8835,
      "prison": 8836,
      "bababa": 8837,
      "miranda": 8838,
      "sledding": 8839,
      "surprises": 8840,
      "ribbet": 8841,
      "emptying": 8842,
      "seaweed": 8843,
      "ratty": 8844,
      "aneous": 8845,
      "peepbo": 8846,
      "bagel": 8847,
      "bicycles": 8848,
      "cocka": 8849,
      "accidents": 8850,
      "stretcher": 8851,
      "sneezy": 8852,
      "sneezes": 8853,
      "bulls": 8854,
      "ricky": 8855,
      "hides": 8856,
      "plod": 8857,
      "gorillas": 8858,
      "delay": 8859,
      "subject": 8860,
      "destro": 8861,
      "alien": 8862,
      "dalmatians": 8863,
      "sharpener": 8864,
      "gluing": 8865,
      "mechanic": 8866,
      "geoffrey": 8867,
      "inclu": 8868,
      "brewster": 8869,
      "dramatic": 8870,
      "briefcase": 8871,
      "hyena": 8872,
      "kungfu": 8873,
      "schedule": 8874,
      "festival": 8875,
      "roberts": 8876,
      "immediately": 8877,
      "glasgow": 8878,
      "strength": 8879,
      "perfume": 8880,
      "blea": 8881,
      "bzzz": 8882,
      "gent": 8883,
      "nation": 8884,
      "nicked": 8885,
      "oz": 8886,
      "range": 8887,
      "zers": 8888,
      "remove": 8889,
      "llys": 8890,
      "whir": 8891,
      "doot": 8892,
      "weig": 8893,
      "goals": 8894,
      "beater": 8895,
      "arnold": 8896,
      "lime": 8897,
      "allo": 8898,
      "canada": 8899,
      "nae": 8900,
      "encourage": 8901,
      "ahh": 8902,
      "bod": 8903,
      "boof": 8904,
      "looka": 8905,
      "ckle": 8906,
      "sheila": 8907,
      "mog": 8908,
      "mol": 8909,
      "modern": 8910,
      "mack": 8911,
      "raffle": 8912,
      "caw": 8913,
      "caca": 8914,
      "untied": 8915,
      "shann": 8916,
      "shift": 8917,
      "wom": 8918,
      "feast": 8919,
      "ria": 8920,
      "lace": 8921,
      "history": 8922,
      "buyed": 8923,
      "twos": 8924,
      "kingdom": 8925,
      "waa": 8926,
      "wacky": 8927,
      "gress": 8928,
      "shoulda": 8929,
      "rowing": 8930,
      "handful": 8931,
      "lovey": 8932,
      "afford": 8933,
      "spreading": 8934,
      "lfth": 8935,
      "monica": 8936,
      "harvest": 8937,
      "horror": 8938,
      "malte": 8939,
      "grandparents": 8940,
      "fours": 8941,
      "simult": 8942,
      "feets": 8943,
      "isey": 8944,
      "cony": 8945,
      "penis": 8946,
      "ouchie": 8947,
      "fitzie": 8948,
      "sundays": 8949,
      "suntan": 8950,
      "planned": 8951,
      "treehouse": 8952,
      "support": 8953,
      "bruce": 8954,
      "ticking": 8955,
      "postcard": 8956,
      "mental": 8957,
      "beetro": 8958,
      "prices": 8959,
      "parks": 8960,
      "dudley": 8961,
      "cert": 8962,
      "visits": 8963,
      "crosses": 8964,
      "magpie": 8965,
      "scen": 8966,
      "melts": 8967,
      "shortly": 8968,
      "blessing": 8969,
      "object": 8970,
      "crawled": 8971,
      "teletubbie": 8972,
      "rollercoaster": 8973,
      "versus": 8974,
      "zippers": 8975,
      "possum": 8976,
      "squashy": 8977,
      "robins": 8978,
      "eighteenth": 8979,
      "freddie": 8980,
      "restaurants": 8981,
      "sparkles": 8982,
      "tumbling": 8983,
      "tanker": 8984,
      "activities": 8985,
      "mousse": 8986,
      "submar": 8987,
      "hydr": 8988,
      "stinks": 8989,
      "valentines": 8990,
      "balcony": 8991,
      "bulary": 8992,
      "wellington": 8993,
      "sessions": 8994,
      "liquor": 8995,
      "ignoring": 8996,
      "foots": 8997,
      "gradu": 8998,
      "whinge": 8999,
      "stacie": 9000,
      "profess": 9001,
      "pompoms": 9002,
      "binkie": 9003,
      "successful": 9004,
      "dopey": 9005,
      "magnifying": 9006,
      "splosh": 9007,
      "literally": 9008,
      "vocabulary": 9009,
      "calculator": 9010,
      "caboose": 9011,
      "congratulations": 9012,
      "twelfth": 9013,
      "rejoice": 9014,
      "illustr": 9015,
      "beetroot": 9016,
      "ao": 9017,
      "ape": 9018,
      "aqu": 9019,
      "aida": 9020,
      "bren": 9021,
      "dangle": 9022,
      "ebe": 9023,
      "fou": 9024,
      "fuey": 9025,
      "hokey": 9026,
      "ng": 9027,
      "nay": 9028,
      "nate": 9029,
      "uw": 9030,
      "vard": 9031,
      "yoohoo": 9032,
      "thorn": 9033,
      "rear": 9034,
      "recommend": 9035,
      "istopher": 9036,
      "lled": 9037,
      "ingame": 9038,
      "dop": 9039,
      "dome": 9040,
      "beam": 9041,
      "erated": 9042,
      "ides": 9043,
      "canal": 9044,
      "gems": 9045,
      "taming": 9046,
      "eds": 9047,
      "races": 9048,
      "neg": 9049,
      "plac": 9050,
      "alala": 9051,
      "temp": 9052,
      "poem": 9053,
      "popper": 9054,
      "playful": 9055,
      "ably": 9056,
      "cep": 9057,
      "eline": 9058,
      "carr": 9059,
      "bust": 9060,
      "bully": 9061,
      "overboard": 9062,
      "leather": 9063,
      "checo": 9064,
      "ilts": 9065,
      "wakey": 9066,
      "tendo": 9067,
      "tents": 9068,
      "greasy": 9069,
      "naments": 9070,
      "handcuff": 9071,
      "spoken": 9072,
      "emon": 9073,
      "showin": 9074,
      "prod": 9075,
      "marched": 9076,
      "lotta": 9077,
      "ickety": 9078,
      "ional": 9079,
      "lasted": 9080,
      "stubb": 9081,
      "dabee": 9082,
      "convin": 9083,
      "camels": 9084,
      "tonic": 9085,
      "torture": 9086,
      "boogie": 9087,
      "cheetah": 9088,
      "sounding": 9089,
      "suf": 9090,
      "suz": 9091,
      "blackboard": 9092,
      "highfive": 9093,
      "chases": 9094,
      "craft": 9095,
      "easiest": 9096,
      "satis": 9097,
      "mistakes": 9098,
      "flames": 9099,
      "vote": 9100,
      "surp": 9101,
      "tightly": 9102,
      "mirrors": 9103,
      "lengthening": 9104,
      "pointer": 9105,
      "jackets": 9106,
      "strike": 9107,
      "wrapper": 9108,
      "helicopters": 9109,
      "packages": 9110,
      "sneaking": 9111,
      "roosters": 9112,
      "silk": 9113,
      "smacking": 9114,
      "adadada": 9115,
      "shiver": 9116,
      "silverware": 9117,
      "franklin": 9118,
      "actions": 9119,
      "mammal": 9120,
      "webbed": 9121,
      "soaked": 9122,
      "munchkin": 9123,
      "wastebasket": 9124,
      "ometry": 9125,
      "effe": 9126,
      "squealing": 9127,
      "jewels": 9128,
      "dutdut": 9129,
      "correctly": 9130,
      "sprinkler": 9131,
      "appropri": 9132,
      "chatterbox": 9133,
      "guests": 9134,
      "pokemon": 9135,
      "grasshopper": 9136,
      "manager": 9137,
      "blasingame": 9138,
      "cauli": 9139,
      "moneys": 9140,
      "destroyed": 9141,
      "shannon": 9142,
      "simultaneous": 9143,
      "aime": 9144,
      "kl": 9145,
      "ku": 9146,
      "kies": 9147,
      "kirsty": 9148,
      "lumpy": 9149,
      "mut": 9150,
      "narrow": 9151,
      "oma": 9152,
      "plow": 9153,
      "poked": 9154,
      "sard": 9155,
      "sump": 9156,
      "snips": 9157,
      "sissy": 9158,
      "rep": 9159,
      "dove": 9160,
      "meme": 9161,
      "ayay": 9162,
      "beha": 9163,
      "eri": 9164,
      "social": 9165,
      "cance": 9166,
      "iction": 9167,
      "donnel": 9168,
      "tacles": 9169,
      "ira": 9170,
      "eded": 9171,
      "outer": 9172,
      "shette": 9173,
      "mothy": 9174,
      "jud": 9175,
      "almighty": 9176,
      "thermo": 9177,
      "pos": 9178,
      "timber": 9179,
      "timothy": 9180,
      "sails": 9181,
      "wolves": 9182,
      "woohoo": 9183,
      "ables": 9184,
      "hippity": 9185,
      "carve": 9186,
      "backward": 9187,
      "fooled": 9188,
      "quer": 9189,
      "defen": 9190,
      "aman": 9191,
      "pul": 9192,
      "catcher": 9193,
      "trance": 9194,
      "handkerchief": 9195,
      "acid": 9196,
      "phra": 9197,
      "emph": 9198,
      "stea": 9199,
      "drug": 9200,
      "byebyes": 9201,
      "storybook": 9202,
      "crates": 9203,
      "yellows": 9204,
      "theirs": 9205,
      "gerald": 9206,
      "hunting": 9207,
      "bathrobe": 9208,
      "plait": 9209,
      "runner": 9210,
      "tiest": 9211,
      "pleshette": 9212,
      "barked": 9213,
      "sucker": 9214,
      "breadstick": 9215,
      "excla": 9216,
      "blackbird": 9217,
      "partys": 9218,
      "bika": 9219,
      "trixie": 9220,
      "stranger": 9221,
      "bunnys": 9222,
      "beech": 9223,
      "mouses": 9224,
      "astra": 9225,
      "skirts": 9226,
      "slither": 9227,
      "medal": 9228,
      "sensit": 9229,
      "grove": 9230,
      "fatter": 9231,
      "rockin": 9232,
      "screwed": 9233,
      "lays": 9234,
      "ridin": 9235,
      "spills": 9236,
      "mira": 9237,
      "sincerely": 9238,
      "passion": 9239,
      "magical": 9240,
      "nintendo": 9241,
      "candies": 9242,
      "roots": 9243,
      "saltine": 9244,
      "nanette": 9245,
      "inviting": 9246,
      "trod": 9247,
      "auto": 9248,
      "hooves": 9249,
      "attacked": 9250,
      "attacking": 9251,
      "fourteenth": 9252,
      "bashful": 9253,
      "roaring": 9254,
      "nativity": 9255,
      "tearing": 9256,
      "tweettweet": 9257,
      "valerie": 9258,
      "customers": 9259,
      "swans": 9260,
      "hamsters": 9261,
      "relative": 9262,
      "pitterpatter": 9263,
      "rescuing": 9264,
      "title": 9265,
      "poisonous": 9266,
      "writer": 9267,
      "wrinkly": 9268,
      "yolanda": 9269,
      "juggling": 9270,
      "impression": 9271,
      "certific": 9272,
      "aha": 9273,
      "agon": 9274,
      "bitter": 9275,
      "cic": 9276,
      "evan": 9277,
      "ffe": 9278,
      "karm": 9279,
      "mwuh": 9280,
      "sut": 9281,
      "sling": 9282,
      "spud": 9283,
      "tide": 9284,
      "tchoo": 9285,
      "zor": 9286,
      "reb": 9287,
      "rene": 9288,
      "intake": 9289,
      "infection": 9290,
      "heit": 9291,
      "iso": 9292,
      "noons": 9293,
      "gobl": 9294,
      "leash": 9295,
      "leila": 9296,
      "stare": 9297,
      "loses": 9298,
      "nado": 9299,
      "naps": 9300,
      "code": 9301,
      "copper": 9302,
      "tax": 9303,
      "ironed": 9304,
      "chir": 9305,
      "shel": 9306,
      "mae": 9307,
      "maur": 9308,
      "raft": 9309,
      "rapun": 9310,
      "cact": 9311,
      "unh": 9312,
      "text": 9313,
      "littlest": 9314,
      "cemeter": 9315,
      "tyl": 9316,
      "checkers": 9317,
      "brat": 9318,
      "deir": 9319,
      "massage": 9320,
      "stoop": 9321,
      "prec": 9322,
      "hairdryer": 9323,
      "wae": 9324,
      "trump": 9325,
      "tricked": 9326,
      "turnin": 9327,
      "handing": 9328,
      "chipper": 9329,
      "blade": 9330,
      "blub": 9331,
      "mints": 9332,
      "funky": 9333,
      "fizzy": 9334,
      "spong": 9335,
      "waiter": 9336,
      "cares": 9337,
      "steel": 9338,
      "spooky": 9339,
      "marcus": 9340,
      "nightgown": 9341,
      "harris": 9342,
      "afternoons": 9343,
      "antlers": 9344,
      "drips": 9345,
      "pigtails": 9346,
      "wincy": 9347,
      "lished": 9348,
      "assum": 9349,
      "cules": 9350,
      "cubs": 9351,
      "beakers": 9352,
      "cio": 9353,
      "sucked": 9354,
      "sustained": 9355,
      "ashley": 9356,
      "askin": 9357,
      "dancers": 9358,
      "earl": 9359,
      "tiggy": 9360,
      "display": 9361,
      "farther": 9362,
      "clam": 9363,
      "clack": 9364,
      "beet": 9365,
      "louis": 9366,
      "appeared": 9367,
      "annabelle": 9368,
      "dingding": 9369,
      "curled": 9370,
      "swingset": 9371,
      "coura": 9372,
      "messes": 9373,
      "flips": 9374,
      "enjoys": 9375,
      "woosh": 9376,
      "spelled": 9377,
      "capture": 9378,
      "phoebe": 9379,
      "signed": 9380,
      "cocktail": 9381,
      "botherin": 9382,
      "millen": 9383,
      "frightening": 9384,
      "yells": 9385,
      "igglepiggle": 9386,
      "::::": 9387,
      "nickname": 9388,
      "suspe": 9389,
      "tumbled": 9390,
      "sherbet": 9391,
[...]
